<unk>	0
<s>	0
</s>	0
User:	0
Bot:	0
▁t	-0
he	-1
▁a	-2
▁s	-3
▁w	-4
▁the	-5
in	-6
nd	-7
ed	-8
▁to	-9
▁b	-10
re	-11
▁f	-12
▁and	-13
ou	-14
▁h	-15
it	-16
▁wa	-17
er	-18
▁c	-19
▁l	-20
▁m	-21
ing	-22
▁p	-23
is	-24
▁d	-25
on	-26
▁[	-27
▁g	-28
ar	-29
▁T	-30
▁he	-31
at	-32
▁was	-33
.[	-34
om	-35
▁n	-36
or	-37
ay	-38
en	-39
ll	-40
an	-41
▁The	-42
id	-43
▁th	-44
le	-45
▁ha	-46
▁o	-47
▁S	-48
et	-49
▁it	-50
im	-51
▁sa	-52
es	-53
▁in	-54
ow	-55
ly	-56
▁I	-57
▁H	-58
ver	-59
ir	-60
▁e	-61
ld	-62
▁y	-63
ot	-64
▁be	-65
ig	-66
▁u	-67
ck	-68
ve	-69
oo	-70
▁of	-71
▁He	-72
▁st	-73
ke	-74
ut	-75
▁her	-76
▁ne	-77
▁She	-78
▁you	-79
▁r	-80
▁is	-81
ce	-82
▁"	-83
▁so	-84
▁on	-85
▁for	-86
▁They	-87
st	-88
pp	-89
▁we	-90
very	-91
ith	-92
▁she	-93
▁pl	-94
ad	-95
▁re	-96
am	-97
ri	-98
▁with	-99
nt	-100
se	-101
▁said	-102
▁that	-103
ent	-104
▁O	-105
ked	-106
▁up	-107
▁On	-108
ould	-109
ht	-110
▁day	-111
▁go	-112
▁his	-113
ch	-114
all	-115
▁sh	-116
▁L	-117
un	-118
out	-119
al	-120
▁li	-121
▁B	-122
▁had	-123
ome	-124
ter	-125
ee	-126
ily	-127
▁play	-128
her	-129
The	-130
▁do	-131
il	-132
itt	-133
ore	-134
ry	-135
▁very	-136
ime	-137
▁they	-138
ic	-139
▁happ	-140
▁an	-141
▁time	-142
▁want	-143
end	-144
ra	-145
ight	-146
▁k	-147
ec	-148
ound	-149
ake	-150
ittle	-151
▁wh	-152
▁little	-153
▁sm	-154
▁Lily	-155
▁there	-156
ack	-157
▁M	-158
▁are	-159
▁not	-160
▁A	-161
▁big	-162
▁It	-163
▁mom	-164
riend	-165
▁at	-166
▁friend	-167
▁my	-168
ill	-169
ur	-170
▁happy	-171
▁loo	-172
my	-173
▁need	-174
ain	-175
ide	-176
ul	-177
▁out	-178
ind	-179
art	-180
▁have	-181
▁as	-182
ard	-183
▁ex	-184
ug	-185
▁too	-186
▁J	-187
▁sp	-188
▁j	-189
el	-190
▁but	-191
▁bo	-192
▁saw	-193
one	-194
if	-195
▁le	-196
▁lo	-197
▁were	-198
ood	-199
▁me	-200
ro	-201
hen	-202
▁One	-203
▁Once	-204
way	-205
as	-206
um	-207
▁new	-208
▁all	-209
ved	-210
▁going	-211
."	-212
▁Tim	-213
▁him	-214
irl	-215
▁girl	-216
▁ar	-217
king	-218
▁can	-219
▁wanted	-220
hing	-221
?[	-222
▁cl	-223
ion	-224
▁this	-225
▁them	-226
rom	-227
▁upon	-228
▁some	-229
▁co	-230
▁could	-231
op	-232
▁hel	-233
▁get	-234
hed	-235
▁wor	-236
!"	-237
ally	-238
ark	-239
▁ch	-240
▁kn	-241
▁al	-242
▁help	-243
▁friends	-244
▁ca	-245
▁see	-246
▁back	-247
▁Ben	-248
▁start	-249
ure	-250
▁their	-251
ong	-252
▁went	-253
ame	-254
us	-255
ick	-256
▁did	-257
▁W	-258
▁like	-259
omet	-260
ab	-261
oug	-262
▁fun	-263
hat	-264
ge	-265
ice	-266
▁Tom	-267
▁fa	-268
▁around	-269
▁bir	-270
get	-271
▁man	-272
▁car	-273
▁E	-274
ful	-275
▁somet	-276
side	-277
ell	-278
▁v	-279
est	-280
▁no	-281
▁ab	-282
▁ro	-283
ie	-284
qu	-285
▁ag	-286
iled	-287
own	-288
▁say	-289
▁sc	-290
▁would	-291
▁But	-292
▁looked	-293
▁good	-294
day	-295
▁la	-296
elt	-297
▁from	-298
ust	-299
ited	-300
▁when	-301
▁smiled	-302
▁try	-303
eel	-304
▁boy	-305
ite	-306
▁feel	-307
ant	-308
▁bird	-309
amed	-310
ings	-311
▁exc	-312
ink	-313
▁make	-314
▁felt	-315
ade	-316
▁something	-317
ook	-318
▁fl	-319
▁your	-320
oud	-321
▁home	-322
You	-323
ss	-324
▁what	-325
?"	-326
▁again	-327
our	-328
ree	-329
ning	-330
▁named	-331
▁bl	-332
ther	-333
▁away	-334
▁asked	-335
▁loved	-336
ep	-337
ous	-338
dd	-339
ate	-340
▁find	-341
uch	-342
▁more	-343
gether	-344
▁br	-345
ers	-346
▁every	-347
▁other	-348
ave	-349
▁ma	-350
▁toy	-351
▁wal	-352
▁mo	-353
▁park	-354
▁started	-355
ue	-356
▁made	-357
▁should	-358
▁take	-359
▁about	-360
▁excited	-361
ac	-362
em	-363
fter	-364
ist	-365
ile	-366
▁put	-367
▁now	-368
▁together	-369
▁com	-370
▁F	-371
ase	-372
▁or	-373
▁then	-374
▁se	-375
▁lear	-376
▁dec	-377
▁pr	-378
▁ran	-379
ct	-380
,"	-381
nder	-382
▁down	-383
fe	-384
▁bu	-385
▁am	-386
▁one	-387
▁says	-388
ach	-389
▁found	-390
ared	-391
▁Timmy	-392
pl	-393
▁how	-394
ess	-395
▁than	-396
▁playing	-397
pped	-398
▁ke	-399
ouse	-400
▁pre	-401
▁dog	-402
os	-403
ways	-404
ought	-405
▁always	-406
▁any	-407
ial	-408
▁water	-409
▁sad	-410
▁qu	-411
▁who	-412
▁things	-413
▁D	-414
ided	-415
▁today	-416
ort	-417
▁int	-418
ara	-419
ol	-420
ace	-421
are	-422
ving	-423
ap	-424
▁hug	-425
▁look	-426
here	-427
▁sun	-428
▁old	-429
▁decided	-430
ew	-431
ine	-432
reat	-433
▁learn	-434
ff	-435
▁en	-436
ull	-437
▁think	-438
▁So	-439
▁Mom	-440
ive	-441
▁lot	-442
▁know	-443
▁will	-444
ber	-445
Let	-446
▁got	-447
fore	-448
▁really	-449
ise	-450
ish	-451
▁sk	-452
▁care	-453
▁ta	-454
▁gra	-455
▁cat	-456
ect	-457
row	-458
▁much	-459
▁liked	-460
lease	-461
▁bec	-462
▁Sara	-463
▁You	-464
▁pe	-465
▁if	-466
What	-467
▁con	-468
▁wee	-469
▁before	-470
▁spec	-471
able	-472
Th	-473
▁run	-474
xt	-475
ried	-476
▁special	-477
▁str	-478
▁just	-479
▁soon	-480
▁sw	-481
ny	-482
▁outside	-483
ven	-484
▁Every	-485
▁long	-486
pt	-487
▁over	-488
th	-489
uck	-490
▁tr	-491
▁off	-492
▁came	-493
▁took	-494
use	-495
▁bea	-496
udd	-497
▁wat	-498
▁rem	-499
pen	-500
▁Jo	-501
▁house	-502
▁has	-503
▁When	-504
▁next	-505
na	-506
▁eat	-507
▁by	-508
ation	-509
▁Jack	-510
▁ball	-511
dy	-512
ang	-513
▁read	-514
▁beaut	-515
▁thought	-516
▁book	-517
▁work	-518
▁way	-519
▁An	-520
▁po	-521
▁ho	-522
▁dad	-523
Can	-524
▁room	-525
▁tw	-526
arden	-527
▁call	-528
▁beautif	-529
▁garden	-530
My	-531
ass	-532
▁scared	-533
▁te	-534
ies	-535
vent	-536
▁after	-537
ank	-538
▁laug	-539
ax	-540
▁pro	-541
▁tree	-542
iz	-543
▁tra	-544
▁small	-545
▁into	-546
▁sl	-547
▁cle	-548
▁gr	-549
▁us	-550
ild	-551
ves	-552
ough	-553
▁expl	-554
He	-555
▁che	-556
▁open	-557
▁pick	-558
uc	-559
udden	-560
ause	-561
▁fin	-562
▁Anna	-563
ob	-564
▁feeling	-565
urn	-566
▁im	-567
ting	-568
ater	-569
night	-570
▁flow	-571
▁nice	-572
▁fo	-573
▁bit	-574
ble	-575
etter	-576
▁best	-577
▁show	-578
▁beautiful	-579
▁didn	-580
She	-581
▁many	-582
▁never	-583
ag	-584
▁knew	-585
▁tonight	-586
oy	-587
ary	-588
ear	-589
uddenly	-590
▁wo	-591
▁Sam	-592
ia	-593
▁gl	-594
▁proud	-595
▁each	-596
ember	-597
▁ad	-598
▁un	-599
ner	-600
▁col	-601
▁please	-602
▁mor	-603
ak	-604
ft	-605
This	-606
▁sky	-607
▁toys	-608
▁inside	-609
ged	-610
▁hand	-611
▁gave	-612
▁And	-613
▁don	-614
It	-615
az	-616
ump	-617
ip	-618
port	-619
▁Then	-620
lf	-621
▁told	-622
ty	-623
▁fam	-624
hes	-625
▁bear	-626
▁Her	-627
▁dre	-628
other	-629
▁pret	-630
▁couldn	-631
▁unt	-632
oth	-633
orry	-634
▁played	-635
▁bed	-636
▁better	-637
▁Suddenly	-638
oon	-639
ople	-640
imal	-641
▁even	-642
▁until	-643
▁clean	-644
▁animal	-645
ire	-646
ange	-647
▁fast	-648
▁stay	-649
▁buy	-650
▁clos	-651
▁ph	-652
▁app	-653
urp	-654
▁box	-655
▁plan	-656
▁hard	-657
▁wind	-658
▁wonder	-659
▁thanked	-660
ock	-661
▁place	-662
▁people	-663
and	-664
▁remember	-665
ment	-666
▁because	-667
kes	-668
rent	-669
▁Mia	-670
▁sorry	-671
We	-672
ious	-673
▁dif	-674
▁love	-675
▁heard	-676
▁morning	-677
age	-678
ool	-679
▁fr	-680
▁kind	-681
Do	-682
sh	-683
▁del	-684
▁list	-685
▁cu	-686
That	-687
▁red	-688
ather	-689
▁From	-690
▁walk	-691
▁smile	-692
▁end	-693
▁family	-694
▁comp	-695
▁food	-696
▁hugged	-697
▁bra	-698
▁later	-699
▁watch	-700
igh	-701
ired	-702
▁amaz	-703
▁rain	-704
▁bus	-705
▁loud	-706
▁fav	-707
thing	-708
▁been	-709
▁color	-710
▁great	-711
leep	-712
▁two	-713
▁lots	-714
▁night	-715
lly	-716
▁His	-717
ast	-718
▁careful	-719
kend	-720
▁din	-721
▁rel	-722
▁weekend	-723
gan	-724
▁come	-725
ferent	-726
lew	-727
self	-728
▁mommy	-729
▁tried	-730
▁war	-731
▁year	-732
▁trying	-733
ucy	-734
▁let	-735
▁Lucy	-736
▁here	-737
bb	-738
▁called	-739
▁looking	-740
▁learned	-741
▁G	-742
▁dis	-743
▁jump	-744
joy	-745
▁advent	-746
▁N	-747
gry	-748
▁P	-749
▁door	-750
be	-751
▁favor	-752
▁still	-753
▁Max	-754
▁sho	-755
orrow	-756
▁fore	-757
▁store	-758
ched	-759
ummy	-760
▁seem	-761
▁happen	-762
▁favorite	-763
▁C	-764
iny	-765
▁Joh	-766
▁dinner	-767
eet	-768
urpr	-769
▁tired	-770
▁under	-771
led	-772
▁We	-773
▁John	-774
▁blue	-775
▁ever	-776
▁surpr	-777
▁enjoy	-778
urt	-779
▁far	-780
▁fly	-781
▁tow	-782
▁doll	-783
▁turn	-784
▁listen	-785
▁laughed	-786
▁keep	-787
▁quick	-788
▁flowers	-789
ren	-790
▁per	-791
▁child	-792
▁lived	-793
▁might	-794
les	-795
▁our	-796
ix	-797
bit	-798
▁bel	-799
▁rest	-800
▁light	-801
▁game	-802
▁while	-803
▁different	-804
▁adventure	-805
▁ey	-806
▁sn	-807
▁its	-808
▁flew	-809
▁wr	-810
▁hop	-811
ished	-812
▁pain	-813
▁week	-814
ount	-815
▁getting	-816
▁lea	-817
▁ide	-818
▁pic	-819
portant	-820
▁important	-821
ity	-822
by	-823
▁both	-824
▁bat	-825
▁kept	-826
▁After	-827
▁sleep	-828
int	-829
ffee	-830
▁Bob	-831
▁fish	-832
▁everyone	-833
cer	-834
▁bad	-835
▁bre	-836
▁coffee	-837
▁“	-838
ose	-839
▁does	-840
▁seen	-841
▁share	-842
▁stor	-843
▁sure	-844
▁wait	-845
▁animals	-846
olly	-847
▁noise	-848
▁phone	-849
▁right	-850
▁As	-851
ully	-852
▁boat	-853
▁head	-854
▁opened	-855
br	-856
▁de	-857
▁su	-858
iced	-859
irst	-860
▁air	-861
▁idea	-862
▁brave	-863
▁where	-864
▁strong	-865
▁walked	-866
▁explore	-867
▁tom	-868
▁tre	-869
▁late	-870
▁Sp	-871
▁rec	-872
▁eyes	-873
▁stre	-874
▁world	-875
Yes	-876
▁ac	-877
▁truck	-878
ised	-879
▁Sue	-880
▁use	-881
▁ready	-882
▁smell	-883
▁ground	-884
▁pretty	-885
▁cake	-886
▁leave	-887
▁running	-888
▁bright	-889
▁quickly	-890
▁tomorrow	-891
▁cont	-892
▁warm	-893
red	-894
▁safe	-895
vie	-896
▁tri	-897
where	-898
▁R	-899
air	-900
▁cold	-901
per	-902
aybe	-903
reen	-904
▁mag	-905
▁sto	-906
▁give	-907
▁walking	-908
iss	-909
▁needs	-910
▁mon	-911
abbit	-912
▁Mommy	-913
▁Sarah	-914
▁dress	-915
ical	-916
ient	-917
▁hurt	-918
▁cry	-919
▁part	-920
▁making	-921
ars	-922
▁shiny	-923
▁amazing	-924
▁Everyone	-925
▁rabbit	-926
▁noticed	-927
▁cra	-928
▁mus	-929
▁near	-930
ane	-931
ids	-932
▁tal	-933
▁clim	-934
▁meet	-935
▁perf	-936
Did	-937
▁slow	-938
▁ow	-939
ught	-940
ady	-941
ture	-942
▁delic	-943
▁weather	-944
itc	-945
rough	-946
▁movie	-947
▁plant	-948
so	-949
▁stu	-950
▁dark	-951
▁Molly	-952
▁birds	-953
ma	-954
anc	-955
ance	-956
dded	-957
▁vis	-958
▁climb	-959
▁having	-960
▁through	-961
▁forest	-962
ash	-963
illy	-964
▁fill	-965
▁looks	-966
iver	-967
▁children	-968
No	-969
mer	-970
fully	-971
▁sing	-972
▁first	-973
▁pat	-974
▁thin	-975
▁stopped	-976
ions	-977
▁bug	-978
▁also	-979
▁kids	-980
▁pass	-981
▁rock	-982
▁picked	-983
▁being	-984
og	-985
▁Dad	-986
▁high	-987
▁real	-988
▁sweet	-989
▁pu	-990
▁bro	-991
▁ear	-992
▁face	-993
▁left	-994
▁name	-995
▁watched	-996
▁delicious	-997
▁cr	-998
ctor	-999
▁mess	-1000
▁three	-1001
ign	-1002
isy	-1003
kay	-1004
▁dr	-1005
ated	-1006
▁dri	-1007
▁squ	-1008
▁Spot	-1009
▁mean	-1010
▁full	-1011
▁tell	-1012
▁shoes	-1013
ute	-1014
▁hot	-1015
▁wear	-1016
▁sound	-1017
▁became	-1018
▁In	-1019
▁Joe	-1020
▁dra	-1021
▁angry	-1022
bye	-1023
nts	-1024
bbed	-1025
▁began	-1026
▁leaves	-1027
ized	-1028
▁hear	-1029
▁table	-1030
▁closer	-1031
pping	-1032
▁window	-1033
eep	-1034
▁curi	-1035
▁glad	-1036
▁visit	-1037
▁picture	-1038
ied	-1039
▁nodded	-1040
▁happened	-1041
llow	-1042
▁inc	-1043
▁pen	-1044
iet	-1045
ila	-1046
ost	-1047
▁sec	-1048
▁hands	-1049
▁butter	-1050
▁finally	-1051
▁goodbye	-1052
▁thinking	-1053
more	-1054
▁cook	-1055
▁stick	-1056
▁trees	-1057
▁anymore	-1058
▁ru	-1059
▁fix	-1060
▁Lila	-1061
▁tast	-1062
▁coming	-1063
ich	-1064
▁Th	-1065
imes	-1066
▁green	-1067
▁perfect	-1068
aisy	-1069
room	-1070
▁beh	-1071
▁kitc	-1072
arents	-1073
▁block	-1074
▁music	-1075
▁relax	-1076
▁kitchen	-1077
hy	-1078
ger	-1079
uit	-1080
▁ve	-1081
ieve	-1082
▁grass	-1083
▁jumped	-1084
▁curious	-1085
ken	-1086
oice	-1087
unch	-1088
ward	-1089
▁move	-1090
▁follow	-1091
If	-1092
bab	-1093
▁res	-1094
▁set	-1095
Could	-1096
▁stop	-1097
ons	-1098
cess	-1099
▁Jane	-1100
▁fire	-1101
▁yell	-1102
av	-1103
▁clot	-1104
▁done	-1105
▁mouse	-1106
▁these	-1107
▁thing	-1108
▁someone	-1109
▁wonderful	-1110
orm	-1111
ppy	-1112
ered	-1113
▁fre	-1114
▁ice	-1115
▁pres	-1116
▁Daisy	-1117
▁paint	-1118
▁balloon	-1119
Don	-1120
▁jo	-1121
ence	-1122
ster	-1123
▁hole	-1124
▁surprise	-1125
zy	-1126
▁hair	-1127
▁check	-1128
▁shout	-1129
▁voice	-1130
▁taking	-1131
▁anything	-1132
▁carefully	-1133
▁top	-1134
Thank	-1135
▁forg	-1136
▁lady	-1137
▁soft	-1138
▁break	-1139
▁filled	-1140
▁believe	-1141
▁finished	-1142
aur	-1143
▁key	-1144
▁yes	-1145
▁used	-1146
▁flower	-1147
▁ask	-1148
▁ate	-1149
▁dro	-1150
▁flo	-1151
thday	-1152
ually	-1153
▁gone	-1154
▁prin	-1155
▁cloud	-1156
▁forget	-1157
▁strange	-1158
ds	-1159
▁-	-1160
ier	-1161
ached	-1162
▁arri	-1163
▁beach	-1164
▁thank	-1165
▁years	-1166
▁doctor	-1167
▁brother	-1168
▁clothes	-1169
▁everything	-1170
der	-1171
ott	-1172
oney	-1173
▁Fin	-1174
▁Jim	-1175
▁bar	-1176
▁why	-1177
▁hope	-1178
▁last	-1179
▁wood	-1180
▁train	-1181
▁yummy	-1182
▁probab	-1183
▁grabbed	-1184
▁birthday	-1185
ush	-1186
▁bag	-1187
▁gro	-1188
▁mat	-1189
▁fell	-1190
▁less	-1191
▁repl	-1192
▁close	-1193
▁parents	-1194
▁probably	-1195
▁cars	-1196
▁pull	-1197
ention	-1198
▁waved	-1199
▁grocer	-1200
ffic	-1201
▁bow	-1202
▁min	-1203
▁shop	-1204
▁song	-1205
Please	-1206
▁There	-1207
▁lunch	-1208
![	-1209
ere	-1210
und	-1211
ream	-1212
ross	-1213
▁cool	-1214
▁wall	-1215
▁catch	-1216
▁showed	-1217
▁happily	-1218
ike	-1219
oup	-1220
▁only	-1221
▁party	-1222
ms	-1223
irt	-1224
oom	-1225
▁hun	-1226
▁most	-1227
▁okay	-1228
▁fresh	-1229
▁seems	-1230
▁comput	-1231
ape	-1232
alth	-1233
▁few	-1234
▁mum	-1235
▁free	-1236
▁libr	-1237
▁colors	-1238
▁another	-1239
▁present	-1240
Mom	-1241
let	-1242
▁gi	-1243
▁grow	-1244
▁land	-1245
▁well	-1246
▁slide	-1247
▁butterf	-1248
mb	-1249
arth	-1250
oint	-1251
▁met	-1252
▁sat	-1253
▁That	-1254
▁pers	-1255
▁teac	-1256
▁quiet	-1257
▁helped	-1258
▁yellow	-1259
aby	-1260
set	-1261
▁att	-1262
oring	-1263
▁lock	-1264
▁behind	-1265
▁hopped	-1266
▁pretend	-1267
▁starting	-1268
▁own	-1269
▁hour	-1270
▁lost	-1271
▁trip	-1272
▁count	-1273
▁tight	-1274
▁enjoyed	-1275
▁To	-1276
ined	-1277
ries	-1278
▁job	-1279
▁mark	-1280
▁magical	-1281
▁underst	-1282
▁At	-1283
▁ju	-1284
Look	-1285
itty	-1286
ling	-1287
▁Let	-1288
▁hum	-1289
▁sand	-1290
▁swim	-1291
▁books	-1292
▁organ	-1293
▁himself	-1294
▁teacher	-1295
me	-1296
eed	-1297
aper	-1298
▁cup	-1299
▁fro	-1300
anger	-1301
▁mine	-1302
▁ride	-1303
▁sees	-1304
▁tall	-1305
▁broken	-1306
▁enough	-1307
▁shouted	-1308
▁traffic	-1309
▁computer	-1310
▁remembered	-1311
bo	-1312
icy	-1313
cket	-1314
▁hor	-1315
▁mar	-1316
▁bath	-1317
aurant	-1318
▁story	-1319
▁library	-1320
▁friendly	-1321
▁restaurant	-1322
amp	-1323
▁Can	-1324
▁Now	-1325
▁Jill	-1326
▁funny	-1327
▁money	-1328
▁change	-1329
▁plants	-1330
▁reached	-1331
ask	-1332
▁nap	-1333
▁char	-1334
▁heav	-1335
▁sign	-1336
▁tail	-1337
▁grand	-1338
▁wrong	-1339
▁batter	-1340
▁living	-1341
iv	-1342
ract	-1343
▁sal	-1344
▁likes	-1345
▁health	-1346
▁street	-1347
▁worked	-1348
fort	-1349
▁dry	-1350
▁spl	-1351
▁baby	-1352
▁pack	-1353
▁creat	-1354
▁quite	-1355
▁bigger	-1356
▁blocks	-1357
gs	-1358
bor	-1359
ipe	-1360
ued	-1361
▁ob	-1362
pect	-1363
erest	-1364
▁able	-1365
▁fall	-1366
▁drink	-1367
▁makes	-1368
▁hungry	-1369
▁slowly	-1370
▁mention	-1371
▁interest	-1372
▁butterfly	-1373
▁z	-1374
ret	-1375
▁hat	-1376
▁mail	-1377
▁build	-1378
▁dream	-1379
▁heavy	-1380
▁forward	-1381
▁meeting	-1382
cle	-1383
▁el	-1384
iday	-1385
▁All	-1386
▁hid	-1387
Where	-1388
▁deep	-1389
▁hold	-1390
▁such	-1391
▁laugh	-1392
▁puppy	-1393
▁contin	-1394
ointment	-1395
▁appointment	-1396
▁Em	-1397
most	-1398
ower	-1399
redi	-1400
▁act	-1401
ating	-1402
chool	-1403
iting	-1404
▁draw	-1405
▁Sally	-1406
▁almost	-1407
ince	-1408
ular	-1409
▁ste	-1410
aught	-1411
▁else	-1412
▁pond	-1413
▁sail	-1414
▁doing	-1415
▁neigh	-1416
▁worry	-1417
▁moment	-1418
▁school	-1419
▁Finally	-1420
▁surprised	-1421
gy	-1422
ud	-1423
uff	-1424
vel	-1425
▁Do	-1426
ject	-1427
noon	-1428
▁des	-1429
▁disc	-1430
▁person	-1431
▁incredi	-1432
▁afternoon	-1433
▁mentioned	-1434
ope	-1435
rel	-1436
ten	-1437
Hell	-1438
▁cut	-1439
▁ele	-1440
▁won	-1441
Hello	-1442
▁roll	-1443
▁Earth	-1444
▁class	-1445
▁early	-1446
▁smiles	-1447
▁replied	-1448
!”	-1449
Wow	-1450
ian	-1451
ize	-1452
▁ba	-1453
Have	-1454
reed	-1455
ister	-1456
▁held	-1457
▁inst	-1458
▁must	-1459
▁Tommy	-1460
▁touch	-1461
▁woods	-1462
▁secret	-1463
▁arrived	-1464
▁interesting	-1465
rew	-1466
ugg	-1467
They	-1468
ames	-1469
▁Jen	-1470
▁cor	-1471
▁gent	-1472
▁prom	-1473
ecause	-1474
▁fight	-1475
▁human	-1476
▁wants	-1477
▁which	-1478
▁white	-1479
uct	-1480
yard	-1481
▁cla	-1482
▁vac	-1483
▁vol	-1484
▁keys	-1485
▁life	-1486
▁town	-1487
▁cried	-1488
▁forgot	-1489
▁longer	-1490
▁realized	-1491
ilk	-1492
▁sy	-1493
utes	-1494
▁lar	-1495
▁sear	-1496
▁inter	-1497
Because	-1498
▁amazed	-1499
▁finish	-1500
ey	-1501
pe	-1502
ph	-1503
▁Fr	-1504
ards	-1505
▁gas	-1506
▁inf	-1507
▁ref	-1508
▁grab	-1509
▁month	-1510
▁lesson	-1511
▁wished	-1512
▁herself	-1513
▁backyard	-1514
▁continued	-1515
ng	-1516
ming	-1517
▁joy	-1518
▁pet	-1519
▁This	-1520
▁same	-1521
▁bring	-1522
▁floor	-1523
▁river	-1524
▁closed	-1525
▁needed	-1526
▁recipe	-1527
▁sister	-1528
▁singing	-1529
▁understand	-1530
com	-1531
ased	-1532
idge	-1533
▁Amy	-1534
▁art	-1535
▁milk	-1536
▁miss	-1537
▁supp	-1538
▁waited	-1539
▁battery	-1540
▁brought	-1541
▁minutes	-1542
▁learning	-1543
▁adventures	-1544
▁Gra	-1545
▁pur	-1546
▁tea	-1547
There	-1548
▁Soon	-1549
▁talk	-1550
▁feels	-1551
▁stayed	-1552
▁climbed	-1553
oc	-1554
lla	-1555
▁gu	-1556
▁bee	-1557
▁ret	-1558
vered	-1559
▁fold	-1560
▁kite	-1561
▁race	-1562
▁event	-1563
▁juice	-1564
▁agreed	-1565
▁others	-1566
ult	-1567
▁Ch	-1568
▁es	-1569
unny	-1570
eared	-1571
▁frog	-1572
▁glass	-1573
▁paper	-1574
▁neighbor	-1575
".	-1576
ual	-1577
umb	-1578
▁fig	-1579
▁med	-1580
▁hill	-1581
▁past	-1582
▁Benny	-1583
▁Daddy	-1584
▁study	-1585
▁across	-1586
▁faster	-1587
▁flying	-1588
▁monster	-1589
ins	-1590
izz	-1591
uce	-1592
ever	-1593
ssed	-1594
▁ser	-1595
ident	-1596
▁busy	-1597
▁cast	-1598
▁save	-1599
▁side	-1600
▁alone	-1601
▁hours	-1602
▁peace	-1603
▁market	-1604
▁explain	-1605
up	-1606
ert	-1607
net	-1608
nic	-1609
▁av	-1610
▁sit	-1611
asure	-1612
▁cand	-1613
▁fair	-1614
▁Jimmy	-1615
▁black	-1616
▁blank	-1617
▁fruit	-1618
▁picnic	-1619
▁seemed	-1620
▁shared	-1621
▁cookies	-1622
▁followed	-1623
▁sometimes	-1624
ory	-1625
eter	-1626
ises	-1627
▁imp	-1628
ining	-1629
▁bike	-1630
▁days	-1631
▁duck	-1632
ountain	-1633
▁blanket	-1634
ift	-1635
angu	-1636
urry	-1637
▁acc	-1638
▁loc	-1639
▁sea	-1640
▁wet	-1641
Maybe	-1642
irrel	-1643
onely	-1644
▁What	-1645
▁body	-1646
▁cray	-1647
▁lake	-1648
▁plac	-1649
▁laund	-1650
▁stars	-1651
▁lonely	-1652
▁stepped	-1653
▁squirrel	-1654
▁vacation	-1655
▁exploring	-1656
▁everywhere	-1657
.”	-1658
gon	-1659
oun	-1660
ule	-1661
bble	-1662
ider	-1663
▁ang	-1664
▁smo	-1665
▁win	-1666
▁bott	-1667
▁comm	-1668
▁hide	-1669
▁lion	-1670
▁bloom	-1671
▁breat	-1672
▁langu	-1673
▁treat	-1674
▁colour	-1675
▁lights	-1676
fortable	-1677
▁reading	-1678
▁pictures	-1679
ging	-1680
▁cir	-1681
▁sol	-1682
▁Mary	-1683
▁danc	-1684
▁ener	-1685
▁pink	-1686
▁cream	-1687
▁sunny	-1688
▁danger	-1689
▁orange	-1690
▁helping	-1691
▁laundry	-1692
▁promised	-1693
gr	-1694
ces	-1695
een	-1696
erc	-1697
ney	-1698
outh	-1699
▁fox	-1700
▁hig	-1701
aring	-1702
ushed	-1703
▁bake	-1704
▁coll	-1705
▁dead	-1706
▁pract	-1707
▁snack	-1708
▁words	-1709
▁mother	-1710
▁grocery	-1711
▁princess	-1712
unt	-1713
cept	-1714
eddy	-1715
▁rid	-1716
Since	-1717
ipped	-1718
▁live	-1719
▁mind	-1720
▁pair	-1721
▁soup	-1722
▁spot	-1723
▁Mummy	-1724
▁often	-1725
▁scary	-1726
▁spark	-1727
▁swing	-1728
▁eating	-1729
▁matter	-1730
▁turned	-1731
▁clapped	-1732
▁watching	-1733
How	-1734
ead	-1735
els	-1736
ond	-1737
ored	-1738
▁pol	-1739
light	-1740
▁line	-1741
▁ones	-1742
▁road	-1743
ateful	-1744
▁bread	-1745
▁bunny	-1746
▁carry	-1747
▁Inside	-1748
▁figure	-1749
▁cheered	-1750
▁working	-1751
▁colorful	-1752
de	-1753
ery	-1754
ont	-1755
▁pa	-1756
▁ty	-1757
uffy	-1758
▁cur	-1759
▁gen	-1760
▁spr	-1761
▁craw	-1762
▁gift	-1763
▁imag	-1764
itting	-1765
▁disco	-1766
▁sched	-1767
▁castle	-1768
▁proble	-1769
▁pulled	-1770
▁remind	-1771
▁complet	-1772
▁patient	-1773
▁towards	-1774
▁exciting	-1775
▁grateful	-1776
▁listened	-1777
ym	-1778
ens	-1779
ord	-1780
ote	-1781
▁ap	-1782
▁ce	-1783
read	-1784
▁pot	-1785
▁ter	-1786
▁wasn	-1787
▁horse	-1788
▁maybe	-1789
▁relie	-1790
▁young	-1791
▁clouds	-1792
▁concer	-1793
▁sunset	-1794
▁language	-1795
Oh	-1796
ats	-1797
sol	-1798
▁pi	-1799
irty	-1800
line	-1801
used	-1802
▁add	-1803
▁sum	-1804
epend	-1805
▁bush	-1806
▁join	-1807
▁salt	-1808
▁snow	-1809
▁tiny	-1810
▁drove	-1811
▁local	-1812
▁shirt	-1813
▁stuck	-1814
▁trash	-1815
▁fridge	-1816
▁return	-1817
▁stories	-1818
▁worried	-1819
io	-1820
ze	-1821
ail	-1822
arm	-1823
bly	-1824
▁anc	-1825
▁hol	-1826
▁jour	-1827
▁sack	-1828
▁woke	-1829
▁heart	-1830
▁spoon	-1831
▁using	-1832
▁energy	-1833
▁farmer	-1834
▁naught	-1835
▁concert	-1836
▁holiday	-1837
▁dangerous	-1838
ama	-1839
man	-1840
adow	-1841
▁coo	-1842
▁gym	-1843
▁inv	-1844
▁pay	-1845
▁cele	-1846
▁foot	-1847
▁guit	-1848
▁yard	-1849
solute	-1850
▁chair	-1851
▁dolls	-1852
▁exerc	-1853
▁driver	-1854
▁ancient	-1855
▁without	-1856
▁absolute	-1857
▁accident	-1858
ps	-1859
sw	-1860
anch	-1861
apes	-1862
stem	-1863
▁ent	-1864
iling	-1865
ocked	-1866
shine	-1867
▁moon	-1868
▁path	-1869
▁pizz	-1870
▁along	-1871
▁angel	-1872
▁chang	-1873
▁dirty	-1874
▁point	-1875
▁power	-1876
▁silly	-1877
▁veget	-1878
▁write	-1879
emember	-1880
▁branch	-1881
▁bucket	-1882
▁letter	-1883
▁places	-1884
▁summer	-1885
▁anywhere	-1886
▁laughing	-1887
▁sunshine	-1888
▁absolutely	-1889
Hi	-1890
Why	-1891
app	-1892
▁Mr	-1893
ates	-1894
eces	-1895
less	-1896
ones	-1897
▁val	-1898
▁answ	-1899
▁bite	-1900
▁case	-1901
▁purp	-1902
▁Maybe	-1903
▁chick	-1904
▁magic	-1905
▁smart	-1906
▁caught	-1907
▁disapp	-1908
▁guitar	-1909
▁higher	-1910
▁pieces	-1911
▁thinks	-1912
Remember	-1913
▁sitting	-1914
▁planning	-1915
▁explained	-1916
to	-1917
▁mix	-1918
▁pri	-1919
▁reg	-1920
ables	-1921
▁conf	-1922
▁gets	-1923
▁news	-1924
▁sock	-1925
▁front	-1926
▁large	-1927
▁pizza	-1928
▁belong	-1929
▁gentle	-1930
▁naughty	-1931
▁cleaning	-1932
▁complete	-1933
▁mountain	-1934
▁relieved	-1935
cy	-1936
zz	-1937
ned	-1938
rot	-1939
cape	-1940
cast	-1941
cean	-1942
ness	-1943
olog	-1944
ourse	-1945
rible	-1946
▁cave	-1947
▁order	-1948
▁sandw	-1949
▁threw	-1950
▁bought	-1951
▁office	-1952
▁purple	-1953
▁system	-1954
▁though	-1955
▁evening	-1956
▁instead	-1957
▁groceries	-1958
als	-1959
bow	-1960
ove	-1961
▁Wh	-1962
ache	-1963
ents	-1964
ield	-1965
ific	-1966
▁ext	-1967
▁rob	-1968
▁tun	-1969
▁wel	-1970
Mommy	-1971
aking	-1972
▁asks	-1973
▁dist	-1974
▁kiss	-1975
▁mach	-1976
▁runs	-1977
▁mouth	-1978
▁celebr	-1979
▁lovely	-1980
▁online	-1981
▁planet	-1982
▁shapes	-1983
▁tasted	-1984
▁covered	-1985
▁rainbow	-1986
▁shining	-1987
▁comfortable	-1988
eer	-1989
ume	-1990
atur	-1991
come	-1992
iece	-1993
ills	-1994
itch	-1995
ucky	-1996
ustr	-1997
▁cal	-1998
▁mot	-1999
▁par	-2000
▁crow	-2001
▁phot	-2002
▁brown	-2003
▁comet	-2004
▁moral	-2005
▁robot	-2006
▁teddy	-2007
▁turns	-2008
▁rolled	-2009
▁search	-2010
▁collect	-2011
▁journey	-2012
▁Together	-2013
▁suddenly	-2014
▁eventually	-2015
▁incredibly	-2016
Be	-2017
la	-2018
fish	-2019
mbre	-2020
osed	-2021
▁ben	-2022
▁tid	-2023
These	-2024
allen	-2025
ition	-2026
umber	-2027
▁prot	-2028
▁task	-2029
▁unus	-2030
ations	-2031
▁apple	-2032
▁daddy	-2033
▁loves	-2034
▁rocks	-2035
▁umbre	-2036
▁asleep	-2037
▁course	-2038
▁object	-2039
▁challen	-2040
▁delight	-2041
▁forever	-2042
▁peaceful	-2043
▁shopping	-2044
▁terrible	-2045
▁umbrella	-2046
sy	-2047
erv	-2048
gen	-2049
ict	-2050
igg	-2051
▁Al	-2052
▁aw	-2053
▁em	-2054
aser	-2055
ides	-2056
ines	-2057
ital	-2058
pens	-2059
▁cou	-2060
▁fit	-2061
ution	-2062
▁With	-2063
▁feet	-2064
▁star	-2065
▁trou	-2066
▁vide	-2067
ground	-2068
▁Jenny	-2069
▁crowd	-2070
▁flash	-2071
▁kitty	-2072
▁moved	-2073
▁penny	-2074
▁purse	-2075
▁spent	-2076
▁takes	-2077
▁borrow	-2078
▁corner	-2079
▁crying	-2080
▁gather	-2081
▁crayons	-2082
▁nothing	-2083
▁wearing	-2084
▁sometime	-2085
▁wondered	-2086
act	-2087
fic	-2088
not	-2089
▁eas	-2090
ature	-2091
▁Andy	-2092
▁Elly	-2093
▁arms	-2094
▁boun	-2095
▁cons	-2096
▁cozy	-2097
▁farm	-2098
▁onto	-2099
▁pool	-2100
▁rope	-2101
▁seat	-2102
▁crack	-2103
▁fence	-2104
▁field	-2105
▁hoped	-2106
▁ocean	-2107
▁plane	-2108
▁spend	-2109
▁upset	-2110
▁Little	-2111
▁anyone	-2112
▁carrot	-2113
▁dishes	-2114
▁expens	-2115
▁inform	-2116
▁mighty	-2117
▁pocket	-2118
▁glasses	-2119
▁smiling	-2120
▁bathroom	-2121
▁building	-2122
▁internet	-2123
Is	-2124
arp	-2125
ric	-2126
▁Fl	-2127
Sure	-2128
gest	-2129
mail	-2130
ocol	-2131
▁adm	-2132
▁jar	-2133
▁net	-2134
▁pop	-2135
ently	-2136
useum	-2137
▁Emma	-2138
▁bugs	-2139
▁cush	-2140
▁dent	-2141
▁earl	-2142
▁glow	-2143
▁goes	-2144
▁pill	-2145
▁shel	-2146
▁stir	-2147
▁tick	-2148
unteer	-2149
▁Billy	-2150
▁games	-2151
▁sharp	-2152
ocolate	-2153
▁diffic	-2154
▁loudly	-2155
▁museum	-2156
▁noises	-2157
▁splash	-2158
▁spread	-2159
▁cooking	-2160
▁problem	-2161
▁treasure	-2162
▁chocolate	-2163
▁volunteer	-2164
▁vegetables	-2165
ans	-2166
▁eg	-2167
▁ra	-2168
▁ug	-2169
ancy	-2170
anut	-2171
lock	-2172
▁env	-2173
▁gem	-2174
▁ind	-2175
▁lit	-2176
ately	-2177
ience	-2178
▁bank	-2179
▁blow	-2180
▁circ	-2181
▁huge	-2182
▁pour	-2183
▁tidy	-2184
▁wash	-2185
▁wild	-2186
coming	-2187
▁Thank	-2188
▁Their	-2189
▁drive	-2190
▁email	-2191
▁reach	-2192
▁speed	-2193
▁stand	-2194
▁whole	-2195
▁cannot	-2196
▁peanut	-2197
▁pushed	-2198
▁bedroom	-2199
▁earlier	-2200
▁unusual	-2201
▁difficult	-2202
▁flashlight	-2203
St	-2204
But	-2205
▁St	-2206
▁er	-2207
Lily	-2208
▁exp	-2209
▁shr	-2210
board	-2211
▁bowl	-2212
▁coat	-2213
▁fork	-2214
▁prod	-2215
▁sort	-2216
▁sour	-2217
▁touc	-2218
▁comes	-2219
▁medic	-2220
▁messy	-2221
▁piece	-2222
▁those	-2223
▁tower	-2224
▁closet	-2225
▁sleepy	-2226
▁smells	-2227
▁smooth	-2228
▁welcome	-2229
▁enjoying	-2230
▁exercise	-2231
▁upcoming	-2232
▁playground	-2233
erp	-2234
imp	-2235
ork	-2236
que	-2237
▁Le	-2238
▁fe	-2239
Okay	-2240
▁hit	-2241
▁shy	-2242
asing	-2243
ready	-2244
uring	-2245
▁Jake	-2246
▁butt	-2247
▁cute	-2248
▁fing	-2249
▁hugs	-2250
▁leak	-2251
▁tele	-2252
▁test	-2253
▁cross	-2254
▁throw	-2255
▁wings	-2256
▁nearby	-2257
▁spider	-2258
▁already	-2259
▁crowded	-2260
▁driving	-2261
▁machine	-2262
▁respect	-2263
▁touched	-2264
▁windows	-2265
▁creature	-2266
▁sleeping	-2267
▁expensive	-2268
bl	-2269
bs	-2270
sel	-2271
ayed	-2272
rill	-2273
▁bal	-2274
▁exh	-2275
▁fur	-2276
▁saf	-2277
▁scr	-2278
▁spo	-2279
ision	-2280
phant	-2281
▁band	-2282
▁card	-2283
▁knee	-2284
▁oven	-2285
▁sang	-2286
▁ugly	-2287
▁wide	-2288
▁wise	-2289
▁broke	-2290
▁dance	-2291
▁helps	-2292
▁video	-2293
▁commun	-2294
▁meadow	-2295
▁sailor	-2296
▁second	-2297
▁dentist	-2298
▁grandma	-2299
▁healthy	-2300
▁protect	-2301
▁talking	-2302
▁appeared	-2303
▁brightly	-2304
▁incredible	-2305
▁accidentally	-2306
aw	-2307
eak	-2308
eal	-2309
ird	-2310
irp	-2311
▁vi	-2312
anic	-2313
ball	-2314
ense	-2315
ownt	-2316
ress	-2317
vers	-2318
▁lad	-2319
▁rac	-2320
▁typ	-2321
angle	-2322
iable	-2323
ially	-2324
▁Come	-2325
▁bald	-2326
▁cond	-2327
▁desk	-2328
▁dish	-2329
▁hist	-2330
▁kick	-2331
▁pile	-2332
▁pudd	-2333
▁ring	-2334
▁true	-2335
▁wish	-2336
▁Grace	-2337
▁Grand	-2338
▁couch	-2339
▁downt	-2340
▁exper	-2341
▁gener	-2342
▁group	-2343
▁match	-2344
▁super	-2345
▁trust	-2346
▁become	-2347
▁clever	-2348
▁danced	-2349
▁escape	-2350
▁moving	-2351
▁sounds	-2352
▁starts	-2353
▁travel	-2354
▁dropped	-2355
▁regular	-2356
▁downtown	-2357
▁supposed	-2358
▁thankful	-2359
▁colourful	-2360
▁completely	-2361
▁beautifully	-2362
?”	-2363
ilt	-2364
llo	-2365
ror	-2366
ung	-2367
ains	-2368
airs	-2369
iron	-2370
▁sel	-2371
▁sur	-2372
illar	-2373
pital	-2374
▁Fred	-2375
▁Just	-2376
▁feed	-2377
▁form	-2378
▁mill	-2379
▁mist	-2380
▁post	-2381
▁swam	-2382
▁wore	-2383
terday	-2384
▁bench	-2385
▁cheer	-2386
▁clear	-2387
▁gives	-2388
▁round	-2389
▁stone	-2390
▁stret	-2391
▁twins	-2392
▁bubble	-2393
▁caterp	-2394
▁frustr	-2395
▁myself	-2396
▁changed	-2397
▁elephant	-2398
▁schedule	-2399
▁swimming	-2400
▁triangle	-2401
▁caterpillar	-2402
ws	-2403
eth	-2404
ipp	-2405
oof	-2406
ors	-2407
▁di	-2408
ager	-2409
anny	-2410
ique	-2411
▁Mum	-2412
▁def	-2413
▁due	-2414
▁mad	-2415
▁yet	-2416
After	-2417
otted	-2418
▁gigg	-2419
▁hang	-2420
▁lamp	-2421
▁nose	-2422
▁puzz	-2423
▁seas	-2424
▁stra	-2425
▁valu	-2426
▁shook	-2427
▁splas	-2428
▁answer	-2429
▁boring	-2430
▁breath	-2431
▁ladder	-2432
▁sailed	-2433
▁screen	-2434
▁string	-2435
▁trucks	-2436
ometimes	-2437
▁airport	-2438
▁hopping	-2439
▁leaving	-2440
▁waiting	-2441
▁organize	-2442
▁stronger	-2443
▁disappeared	-2444
▁information	-2445
dle	-2446
key	-2447
unk	-2448
▁gh	-2449
nect	-2450
▁may	-2451
▁mod	-2452
▁sub	-2453
acket	-2454
arage	-2455
asket	-2456
ction	-2457
iness	-2458
▁Mama	-2459
▁bell	-2460
▁blew	-2461
▁calm	-2462
▁repe	-2463
▁seek	-2464
▁spin	-2465
▁Satur	-2466
▁apart	-2467
▁appro	-2468
▁arrow	-2469
▁candy	-2470
▁fancy	-2471
▁ghost	-2472
▁queen	-2473
▁space	-2474
▁stuff	-2475
▁taste	-2476
▁witch	-2477
▁Fluffy	-2478
▁Friday	-2479
▁basket	-2480
▁garage	-2481
▁jacket	-2482
▁lately	-2483
▁myster	-2484
▁remote	-2485
▁rocket	-2486
▁saving	-2487
▁struct	-2488
▁univer	-2489
▁helpful	-2490
▁history	-2491
▁holding	-2492
▁package	-2493
▁process	-2494
▁shelter	-2495
▁spotted	-2496
▁station	-2497
▁Saturday	-2498
▁medicine	-2499
▁reliable	-2500
Of	-2501
▁'	-2502
Dif	-2503
Hey	-2504
any	-2505
ife	-2506
oid	-2507
▁Be	-2508
Come	-2509
akes	-2510
icle	-2511
ured	-2512
▁Ros	-2513
▁ins	-2514
ising	-2515
▁Some	-2516
▁city	-2517
▁goat	-2518
▁mech	-2519
▁neck	-2520
▁nerv	-2521
▁send	-2522
▁tire	-2523
▁vill	-2524
▁weak	-2525
▁Peter	-2526
▁baked	-2527
▁elect	-2528
▁fixed	-2529
▁freez	-2530
▁plans	-2531
▁songs	-2532
▁spicy	-2533
▁storm	-2534
▁teach	-2535
▁twist	-2536
▁wagon	-2537
▁whist	-2538
▁dragon	-2539
▁number	-2540
▁packed	-2541
▁swings	-2542
▁wander	-2543
▁nervous	-2544
▁shouldn	-2545
▁village	-2546
Different	-2547
▁confused	-2548
▁mechanic	-2549
▁practice	-2550
▁searched	-2551
▁challenging	-2552
An	-2553
att	-2554
cum	-2555
oga	-2556
phy	-2557
▁Br	-2558
▁Go	-2559
▁hy	-2560
Good	-2561
iant	-2562
ible	-2563
▁arm	-2564
▁hon	-2565
▁lem	-2566
▁mir	-2567
▁ple	-2568
▁rep	-2569
▁ten	-2570
▁wra	-2571
astic	-2572
▁bone	-2573
▁cent	-2574
▁dest	-2575
▁dirt	-2576
▁lift	-2577
▁requ	-2578
▁sick	-2579
▁tank	-2580
▁Frank	-2581
▁Rosie	-2582
▁const	-2583
▁docum	-2584
▁hello	-2585
▁lucky	-2586
▁motor	-2587
▁mummy	-2588
▁quest	-2589
▁sight	-2590
aughter	-2591
▁bottle	-2592
▁flight	-2593
▁talked	-2594
▁blueber	-2595
▁freshly	-2596
▁prevent	-2597
▁relaxing	-2598
▁sandwich	-2599
▁pretended	-2600
▁structure	-2601
box	-2602
cut	-2603
ese	-2604
omm	-2605
pec	-2606
ped	-2607
pty	-2608
▁Bl	-2609
▁fu	-2610
erry	-2611
ices	-2612
lies	-2613
urch	-2614
work	-2615
▁log	-2616
▁pig	-2617
itive	-2618
▁cart	-2619
▁four	-2620
▁grew	-2621
▁lead	-2622
▁note	-2623
▁prep	-2624
▁puts	-2625
▁rece	-2626
▁sale	-2627
▁skip	-2628
▁sugg	-2629
▁tuna	-2630
▁yoga	-2631
vision	-2632
▁Later	-2633
▁avoid	-2634
▁brill	-2635
▁brush	-2636
▁eager	-2637
▁fairy	-2638
▁hears	-2639
▁teeth	-2640
▁church	-2641
▁cookie	-2642
▁eraser	-2643
▁grandp	-2644
▁harder	-2645
▁hoping	-2646
▁marble	-2647
▁mirror	-2648
▁pebble	-2649
▁report	-2650
▁connect	-2651
▁cushion	-2652
▁feather	-2653
▁project	-2654
▁suggest	-2655
ependable	-2656
▁gathered	-2657
▁Sometimes	-2658
▁brilliant	-2659
▁healthier	-2660
▁somewhere	-2661
▁yesterday	-2662
▁television	-2663
!.	-2664
ub	-2665
ety	-2666
old	-2667
res	-2668
rib	-2669
rol	-2670
▁af	-2671
addy	-2672
ages	-2673
fast	-2674
ugar	-2675
▁ant	-2676
▁eng	-2677
▁equ	-2678
▁ign	-2679
▁law	-2680
ighed	-2681
isper	-2682
ities	-2683
ungle	-2684
▁eggs	-2685
▁jeal	-2686
▁meal	-2687
▁prov	-2688
▁roof	-2689
▁step	-2690
▁stud	-2691
▁toug	-2692
▁wake	-2693
▁Emily	-2694
▁Today	-2695
▁clock	-2696
▁defin	-2697
▁doesn	-2698
▁empty	-2699
▁espec	-2700
▁keeps	-2701
▁price	-2702
▁shape	-2703
▁speak	-2704
▁stood	-2705
▁tasty	-2706
▁times	-2707
ination	-2708
itement	-2709
▁charge	-2710
▁during	-2711
▁famous	-2712
▁gently	-2713
▁intell	-2714
▁jungle	-2715
▁safety	-2716
▁square	-2717
▁ticket	-2718
▁chicken	-2719
▁haircut	-2720
▁jealous	-2721
▁knocked	-2722
▁objects	-2723
▁painted	-2724
▁painter	-2725
▁selfish	-2726
▁skipped	-2727
▁sparkly	-2728
▁trouble	-2729
▁blooming	-2730
▁daughter	-2731
▁breakfast	-2732
▁condition	-2733
▁Everywhere	-2734
▁especially	-2735
sc	-2736
bby	-2737
▁No	-2738
▁ed	-2739
arra	-2740
icop	-2741
ptop	-2742
ring	-2743
▁How	-2744
▁Leo	-2745
▁Sus	-2746
▁beg	-2747
▁emb	-2748
▁har	-2749
▁lay	-2750
▁mud	-2751
▁owl	-2752
▁pee	-2753
▁ren	-2754
▁veh	-2755
▁vie	-2756
▁whe	-2757
unday	-2758
▁Ella	-2759
▁bags	-2760
▁boss	-2761
▁chew	-2762
▁coin	-2763
▁dull	-2764
▁exam	-2765
▁poss	-2766
▁scre	-2767
▁snee	-2768
▁James	-2769
▁While	-2770
▁alarm	-2771
▁chain	-2772
▁chest	-2773
▁chirp	-2774
▁extra	-2775
▁faces	-2776
▁furry	-2777
▁hurts	-2778
▁impro	-2779
▁lemon	-2780
▁metal	-2781
▁salad	-2782
▁stamp	-2783
▁sugar	-2784
▁tough	-2785
▁types	-2786
icopter	-2787
▁Sunday	-2788
▁asking	-2789
▁bottom	-2790
▁giving	-2791
▁hiding	-2792
▁laptop	-2793
▁puzzle	-2794
▁smelly	-2795
▁snacks	-2796
▁sticks	-2797
▁wouldn	-2798
▁control	-2799
▁crawled	-2800
▁embarra	-2801
▁showing	-2802
▁generous	-2803
▁imagined	-2804
▁intellig	-2805
▁screamed	-2806
▁whenever	-2807
▁excitedly	-2808
▁happening	-2809
▁excitement	-2810
▁helicopter	-2811
Gi	-2812
te	-2813
xy	-2814
alk	-2815
ext	-2816
nam	-2817
orn	-2818
ives	-2819
land	-2820
mark	-2821
raid	-2822
ruct	-2823
▁obs	-2824
▁oil	-2825
▁tem	-2826
▁tie	-2827
clock	-2828
cream	-2829
illed	-2830
itely	-2831
urtle	-2832
xygen	-2833
▁Even	-2834
▁cher	-2835
▁cost	-2836
▁legs	-2837
▁once	-2838
▁orig	-2839
▁seed	-2840
▁sell	-2841
▁sent	-2842
▁skin	-2843
ommend	-2844
▁Susie	-2845
▁board	-2846
▁ducks	-2847
▁giant	-2848
▁kinds	-2849
▁loops	-2850
▁owner	-2851
▁solve	-2852
▁afraid	-2853
▁barked	-2854
▁cheese	-2855
▁factor	-2856
▁landed	-2857
▁puddle	-2858
▁riding	-2859
▁spring	-2860
▁taught	-2861
▁turtle	-2862
▁washed	-2863
ironment	-2864
▁barking	-2865
▁charger	-2866
▁circles	-2867
▁dancing	-2868
▁forgive	-2869
▁knowing	-2870
▁pointed	-2871
▁raining	-2872
▁serious	-2873
▁whisper	-2874
▁belonged	-2875
▁fighting	-2876
▁football	-2877
▁forecast	-2878
▁recently	-2879
▁returned	-2880
▁recommend	-2881
▁frustrated	-2882
▁environment	-2883
Hel	-2884
Tom	-2885
acy	-2886
den	-2887
ics	-2888
lud	-2889
ows	-2890
une	-2891
vol	-2892
▁Re	-2893
▁ur	-2894
Turn	-2895
cage	-2896
head	-2897
ogra	-2898
oman	-2899
orge	-2900
tern	-2901
vice	-2902
▁Joy	-2903
▁ann	-2904
▁bet	-2905
▁icy	-2906
▁pin	-2907
▁pir	-2908
arian	-2909
bbing	-2910
ility	-2911
iture	-2912
▁Char	-2913
▁furn	-2914
▁leaf	-2915
▁melt	-2916
▁rude	-2917
▁tape	-2918
▁view	-2919
▁vine	-2920
▁viol	-2921
▁ways	-2922
pected	-2923
ulture	-2924
▁Danny	-2925
▁Event	-2926
▁Polly	-2927
▁above	-2928
▁ahead	-2929
▁bored	-2930
▁brain	-2931
▁deter	-2932
▁frown	-2933
▁incre	-2934
▁knife	-2935
▁known	-2936
▁shoot	-2937
▁shore	-2938
▁weird	-2939
▁wrote	-2940
▁barber	-2941
▁fluffy	-2942
▁locked	-2943
▁origin	-2944
▁reduce	-2945
▁squash	-2946
▁stones	-2947
▁unique	-2948
▁useful	-2949
▁volume	-2950
▁carried	-2951
▁delayed	-2952
▁factory	-2953
▁largest	-2954
▁message	-2955
▁smaller	-2956
▁birdcage	-2957
▁standing	-2958
▁universe	-2959
▁celebrate	-2960
▁furniture	-2961
▁Eventually	-2962
▁mysterious	-2963
cc	-2964
ci	-2965
ina	-2966
ism	-2967
lex	-2968
met	-2969
ony	-2970
Help	-2971
Stop	-2972
bled	-2973
body	-2974
hood	-2975
izzy	-2976
pack	-2977
ying	-2978
▁bur	-2979
▁eye	-2980
▁fut	-2981
▁gum	-2982
▁low	-2983
▁mem	-2984
▁ord	-2985
▁rad	-2986
Given	-2987
▁area	-2988
▁base	-2989
▁bill	-2990
▁cell	-2991
▁corn	-2992
▁fuel	-2993
▁item	-2994
▁nest	-2995
▁pepp	-2996
▁scar	-2997
▁word	-2998
umbers	-2999
umbled	-3000
▁Maddy	-3001
▁activ	-3002
▁built	-3003
▁cloth	-3004
▁crown	-3005
▁dizzy	-3006
▁drank	-3007
▁mixed	-3008
▁smoke	-3009
▁suitc	-3010
▁taken	-3011
▁tells	-3012
▁walls	-3013
▁admire	-3014
▁appear	-3015
▁arrive	-3016
▁center	-3017
▁folder	-3018
▁future	-3019
▁minute	-3020
▁nature	-3021
▁oxygen	-3022
▁proper	-3023
▁shrimp	-3024
▁talent	-3025
▁treats	-3026
▁Grandma	-3027
▁compass	-3028
▁jumping	-3029
▁letters	-3030
▁mailman	-3031
▁perform	-3032
▁schedul	-3033
▁stretch	-3034
▁tightly	-3035
▁Whenever	-3036
▁chickens	-3037
▁creative	-3038
▁explored	-3039
▁feathers	-3040
▁independ	-3041
▁painting	-3042
▁listening	-3043
▁definitely	-3044
▁discovered	-3045
▁understood	-3046
▁embarrassed	-3047
Me	-3048
af	-3049
ti	-3050
Ben	-3051
ced	-3052
cil	-3053
cks	-3054
gth	-3055
iff	-3056
nie	-3057
ron	-3058
Take	-3059
aged	-3060
ases	-3061
atch	-3062
azor	-3063
blic	-3064
rees	-3065
umpy	-3066
ween	-3067
▁Mrs	-3068
▁ash	-3069
▁aut	-3070
▁bak	-3071
▁dep	-3072
▁leg	-3073
▁sir	-3074
▁soc	-3075
▁suc	-3076
▁upd	-3077
▁wag	-3078
estiv	-3079
iddle	-3080
inary	-3081
▁bicy	-3082
▁clum	-3083
▁curt	-3084
▁joke	-3085
▁nods	-3086
▁stat	-3087
▁type	-3088
▁worn	-3089
ishing	-3090
▁added	-3091
▁begin	-3092
▁blood	-3093
▁chase	-3094
▁obser	-3095
▁print	-3096
▁razor	-3097
▁shelf	-3098
▁sorts	-3099
▁stack	-3100
▁accept	-3101
▁apolog	-3102
▁chased	-3103
▁favour	-3104
▁festiv	-3105
▁monkey	-3106
▁passed	-3107
▁pencil	-3108
▁polite	-3109
▁strugg	-3110
▁subway	-3111
▁violin	-3112
▁current	-3113
▁managed	-3114
▁measure	-3115
▁numbers	-3116
▁pattern	-3117
▁smelled	-3118
▁usually	-3119
▁discover	-3120
▁distance	-3121
▁document	-3122
▁headache	-3123
▁passport	-3124
▁splashed	-3125
▁stressed	-3126
▁suitcase	-3127
▁valuable	-3128
▁community	-3129
▁organized	-3130
▁scheduled	-3131
Wh	-3132
co	-3133
gu	-3134
Gra	-3135
Now	-3136
ath	-3137
het	-3138
now	-3139
ator	-3140
ibit	-3141
ilty	-3142
mare	-3143
vity	-3144
weet	-3145
▁End	-3146
▁cre	-3147
▁deg	-3148
▁eld	-3149
▁fil	-3150
▁lic	-3151
▁rub	-3152
▁rug	-3153
▁yaw	-3154
itten	-3155
urous	-3156
▁camp	-3157
▁edge	-3158
▁horn	-3159
▁muff	-3160
▁mule	-3161
▁nail	-3162
▁resp	-3163
▁rice	-3164
▁size	-3165
▁tied	-3166
ipping	-3167
ittens	-3168
▁attic	-3169
▁bills	-3170
▁crane	-3171
▁crawl	-3172
▁cries	-3173
▁diary	-3174
▁ornam	-3175
▁raced	-3176
▁renew	-3177
▁sadly	-3178
▁scarf	-3179
▁shark	-3180
▁shine	-3181
▁tears	-3182
▁thick	-3183
▁towel	-3184
▁trade	-3185
▁bitter	-3186
▁circle	-3187
▁clumsy	-3188
▁crayon	-3189
▁finger	-3190
▁fruits	-3191
▁guilty	-3192
▁helmet	-3193
▁hidden	-3194
▁includ	-3195
▁middle	-3196
▁pepper	-3197
▁pirate	-3198
▁saying	-3199
▁stream	-3200
▁between	-3201
▁bicycle	-3202
▁checked	-3203
▁content	-3204
▁culture	-3205
▁exhibit	-3206
▁falling	-3207
▁happens	-3208
▁license	-3209
▁plastic	-3210
▁popular	-3211
▁printer	-3212
▁vehicle	-3213
▁festival	-3214
▁favourite	-3215
▁nightmare	-3216
▁ornaments	-3217
▁compassion	-3218
▁dependable	-3219
▁adventurous	-3220
▁independent	-3221
▁intelligent	-3222
Sh	-3223
ib	-3224
Put	-3225
asc	-3226
edd	-3227
ief	-3228
low	-3229
ola	-3230
ots	-3231
roy	-3232
ues	-3233
umn	-3234
acht	-3235
ucet	-3236
ware	-3237
▁Don	-3238
▁ach	-3239
▁ass	-3240
▁bas	-3241
▁dig	-3242
▁jet	-3243
▁mis	-3244
▁pus	-3245
Sorry	-3246
antly	-3247
ative	-3248
hesis	-3249
▁Gary	-3250
▁Lola	-3251
▁bees	-3252
▁beet	-3253
▁belt	-3254
▁cube	-3255
▁dire	-3256
▁easy	-3257
▁fool	-3258
▁pian	-3259
▁rose	-3260
▁team	-3261
▁tool	-3262
▁veil	-3263
▁wave	-3264
ential	-3265
selves	-3266
▁Alice	-3267
▁boxes	-3268
▁chose	-3269
▁decor	-3270
▁hurry	-3271
▁offer	-3272
▁plate	-3273
▁purch	-3274
▁saved	-3275
▁shell	-3276
▁shone	-3277
▁short	-3278
▁tooth	-3279
▁trans	-3280
▁waves	-3281
▁woman	-3282
▁yacht	-3283
▁artist	-3284
▁bounce	-3285
▁button	-3286
▁determ	-3287
▁engine	-3288
▁faucet	-3289
▁likely	-3290
▁magnet	-3291
▁needle	-3292
▁public	-3293
▁refres	-3294
▁skills	-3295
▁wallet	-3296
▁winter	-3297
▁bubbles	-3298
▁destroy	-3299
▁finding	-3300
▁growing	-3301
▁produce	-3302
▁request	-3303
▁ringing	-3304
▁spilled	-3305
▁washing	-3306
▁workout	-3307
▁writing	-3308
▁balloons	-3309
▁cheerful	-3310
▁lemonade	-3311
▁original	-3312
▁powerful	-3313
▁properly	-3314
▁stranger	-3315
▁stumbled	-3316
▁experience	-3317
▁Y	-3318
?".	-3319
ete	-3320
med	-3321
oms	-3322
yer	-3323
ynt	-3324
▁bi	-3325
andy	-3326
ants	-3327
dern	-3328
erly	-3329
keep	-3330
mbol	-3331
owed	-3332
reet	-3333
▁Cla	-3334
▁cop	-3335
▁pap	-3336
▁sil	-3337
▁tur	-3338
Would	-3339
eorge	-3340
feren	-3341
iches	-3342
inked	-3343
ology	-3344
osaur	-3345
usted	-3346
▁Bill	-3347
▁Next	-3348
▁bump	-3349
▁cafe	-3350
▁cage	-3351
▁capt	-3352
▁dogs	-3353
▁drum	-3354
▁dust	-3355
▁ears	-3356
▁fear	-3357
▁lazy	-3358
▁mole	-3359
▁pole	-3360
▁poor	-3361
▁pump	-3362
▁reas	-3363
▁slid	-3364
▁vase	-3365
▁vest	-3366
▁zoom	-3367
market	-3368
▁First	-3369
▁Milly	-3370
▁Sandy	-3371
▁basic	-3372
▁compl	-3373
▁earth	-3374
▁ended	-3375
▁frame	-3376
▁guard	-3377
▁lying	-3378
▁pasta	-3379
▁piano	-3380
▁picks	-3381
▁radio	-3382
▁recei	-3383
▁shows	-3384
▁yours	-3385
ography	-3386
unately	-3387
▁Claire	-3388
▁beetle	-3389
▁bridge	-3390
▁grumpy	-3391
▁harbor	-3392
▁honest	-3393
▁kissed	-3394
▁modern	-3395
▁nicely	-3396
▁parade	-3397
▁prince	-3398
▁rubbed	-3399
▁ruined	-3400
▁scream	-3401
▁season	-3402
▁shower	-3403
▁symbol	-3404
▁tastes	-3405
▁update	-3406
volution	-3407
▁balance	-3408
▁buttons	-3409
▁cleaned	-3410
▁counter	-3411
▁country	-3412
▁elderly	-3413
▁foolish	-3414
▁picking	-3415
▁playful	-3416
▁relaxed	-3417
▁replace	-3418
▁shocked	-3419
▁sounded	-3420
▁chirping	-3421
▁crossing	-3422
▁holidays	-3423
▁reminded	-3424
▁shopkeep	-3425
▁spending	-3426
▁yourself	-3427
▁attention	-3428
▁sandwiches	-3429
▁documentary	-3430
▁supermarket	-3431
Cl	-3432
ah	-3433
ef	-3434
Tim	-3435
ale	-3436
can	-3437
ibb	-3438
isk	-3439
ses	-3440
ulu	-3441
▁Is	-3442
▁My	-3443
▁ol	-3444
Make	-3445
enry	-3446
heck	-3447
ippo	-3448
mely	-3449
ocad	-3450
reci	-3451
ulif	-3452
▁May	-3453
▁Why	-3454
▁arg	-3455
▁hos	-3456
▁ink	-3457
▁mic	-3458
▁mug	-3459
▁six	-3460
▁unw	-3461
▁van	-3462
▁wip	-3463
▁wis	-3464
Water	-3465
ascin	-3466
irsty	-3467
kelet	-3468
opard	-3469
rated	-3470
▁Lulu	-3471
▁Pete	-3472
▁Remy	-3473
▁carp	-3474
▁clap	-3475
▁clay	-3476
▁conc	-3477
▁cone	-3478
▁dess	-3479
▁five	-3480
▁glue	-3481
▁harm	-3482
▁hook	-3483
▁knit	-3484
▁mama	-3485
▁mass	-3486
▁poin	-3487
▁rich	-3488
▁rout	-3489
▁sold	-3490
remely	-3491
▁Bobby	-3492
▁Henry	-3493
▁Lilly	-3494
▁agree	-3495
▁annoy	-3496
▁cards	-3497
▁crazy	-3498
▁flies	-3499
▁glove	-3500
▁grown	-3501
▁hippo	-3502
▁pengu	-3503
▁perio	-3504
▁since	-3505
▁stove	-3506
▁straw	-3507
▁stren	-3508
▁thumb	-3509
▁toast	-3510
▁George	-3511
▁Please	-3512
▁avocad	-3513
▁bakery	-3514
▁bushes	-3515
▁caulif	-3516
▁cherry	-3517
▁entire	-3518
▁fascin	-3519
▁invest	-3520
▁island	-3521
▁lawyer	-3522
▁partic	-3523
▁pastry	-3524
▁photos	-3525
▁record	-3526
▁remain	-3527
▁rushed	-3528
▁safely	-3529
▁sighed	-3530
▁stairs	-3531
▁statue	-3532
▁taller	-3533
▁warned	-3534
▁appreci	-3535
▁attract	-3536
▁biggest	-3537
▁blinked	-3538
▁capital	-3539
▁chasing	-3540
▁degrees	-3541
▁dessert	-3542
▁freezer	-3543
▁further	-3544
▁improve	-3545
▁leopard	-3546
▁organis	-3547
▁theater	-3548
▁dinosaur	-3549
▁electric	-3550
▁hospital	-3551
▁personal	-3552
▁apartment	-3553
▁delighted	-3554
▁extremely	-3555
▁searching	-3556
▁treasures	-3557
fortunately	-3558
▁determined	-3559
▁shopkeeper	-3560
As	-3561
ils	-3562
ips	-3563
kin	-3564
oop	-3565
rig	-3566
uss	-3567
▁ax	-3568
▁hi	-3569
Here	-3570
cked	-3571
ctus	-3572
ella	-3573
hest	-3574
ilot	-3575
inky	-3576
zard	-3577
▁Sun	-3578
▁War	-3579
▁cap	-3580
▁eff	-3581
▁ess	-3582
▁foc	-3583
▁hyd	-3584
▁ing	-3585
▁isn	-3586
▁jog	-3587
▁lid	-3588
▁nut	-3589
▁occ	-3590
▁por	-3591
▁pos	-3592
▁sna	-3593
▁sus	-3594
▁tax	-3595
achel	-3596
alian	-3597
atter	-3598
bborn	-3599
ereal	-3600
hroom	-3601
iring	-3602
ouses	-3603
under	-3604
▁Blue	-3605
▁Dave	-3606
▁June	-3607
▁beak	-3608
▁bent	-3609
▁brew	-3610
▁buck	-3611
▁code	-3612
▁crab	-3613
▁crib	-3614
▁disg	-3615
▁drew	-3616
▁emer	-3617
▁exha	-3618
▁half	-3619
▁hung	-3620
▁itch	-3621
▁jeep	-3622
▁lose	-3623
▁main	-3624
▁nosy	-3625
▁obed	-3626
▁push	-3627
▁rake	-3628
▁sink	-3629
edding	-3630
ically	-3631
ippery	-3632
issors	-3633
ressed	-3634
stairs	-3635
unning	-3636
▁Brown	-3637
▁alert	-3638
▁avail	-3639
▁bears	-3640
▁bossy	-3641
▁doors	-3642
▁flour	-3643
▁given	-3644
▁jokes	-3645
▁juicy	-3646
▁neckl	-3647
▁noisy	-3648
▁passw	-3649
▁pilot	-3650
▁press	-3651
▁shade	-3652
▁sings	-3653
▁spoke	-3654
▁trunk	-3655
▁tummy	-3656
▁uncle	-3657
▁uncom	-3658
▁usual	-3659
▁waste	-3660
redient	-3661
▁Rachel	-3662
▁autumn	-3663
▁breaks	-3664
▁buying	-3665
▁cactus	-3666
▁candle	-3667
▁cereal	-3668
▁chance	-3669
▁closes	-3670
▁decide	-3671
▁gotten	-3672
▁missed	-3673
▁papers	-3674
▁single	-3675
▁sudden	-3676
▁Mittens	-3677
▁candles	-3678
▁complex	-3679
▁fireman	-3680
▁giggled	-3681
▁invited	-3682
▁mailbox	-3683
▁mindful	-3684
▁mistake	-3685
▁observe	-3686
▁pleased	-3687
▁product	-3688
▁sharing	-3689
▁success	-3690
▁whistle	-3691
▁wrapped	-3692
▁instruct	-3693
▁mushroom	-3694
▁obedient	-3695
▁ordinary	-3696
▁pointing	-3697
▁problems	-3698
▁scissors	-3699
▁slippery	-3700
▁stickers	-3701
▁strawber	-3702
▁strength	-3703
▁stubborn	-3704
▁talented	-3705
▁troubled	-3706
▁available	-3707
▁beginning	-3708
▁blueberry	-3709
▁exhausted	-3710
▁happiness	-3711
▁impressed	-3712
▁mountains	-3713
▁questions	-3714
▁Everything	-3715
▁celebrated	-3716
▁ingredient	-3717
▁grandparents	-3718
▁volunteering	-3719
▁uncomfortable	-3720
▁understanding	-3721
'.	-3722
eb	-3723
ek	-3724
!".	-3725
!.[	-3726
ata	-3727
bin	-3728
dge	-3729
hie	-3730
ulb	-3731
was	-3732
▁Pa	-3733
▁ok	-3734
Many	-3735
bers	-3736
cano	-3737
ches	-3738
enty	-3739
icer	-3740
iles	-3741
lect	-3742
time	-3743
▁Ind	-3744
▁Sop	-3745
▁dem	-3746
▁die	-3747
▁fan	-3748
▁fra	-3749
▁hur	-3750
▁jam	-3751
▁lip	-3752
▁maj	-3753
▁sle	-3754
▁swe	-3755
▁tro	-3756
▁var	-3757
▁zoo	-3758
acter	-3759
aghet	-3760
aving	-3761
eople	-3762
ering	-3763
heart	-3764
icing	-3765
paper	-3766
phere	-3767
utter	-3768
▁Give	-3769
▁cane	-3770
▁cham	-3771
▁chip	-3772
▁cups	-3773
▁drop	-3774
▁fake	-3775
▁flag	-3776
▁lean	-3777
▁liqu	-3778
▁mask	-3779
▁paid	-3780
▁pale	-3781
▁pred	-3782
▁pref	-3783
▁ribb	-3784
▁rise	-3785
▁sett	-3786
▁tray	-3787
ointed	-3788
ormous	-3789
usting	-3790
washer	-3791
▁Bella	-3792
▁China	-3793
▁Jerry	-3794
▁Tweet	-3795
▁Where	-3796
▁boats	-3797
▁bones	-3798
▁cabin	-3799
▁cover	-3800
▁eaten	-3801
▁float	-3802
▁hairy	-3803
▁hobby	-3804
▁items	-3805
▁lands	-3806
▁leaky	-3807
▁level	-3808
▁lines	-3809
▁means	-3810
▁meant	-3811
▁older	-3812
▁shake	-3813
▁sides	-3814
▁skill	-3815
▁snugg	-3816
▁spare	-3817
▁split	-3818
▁spray	-3819
▁walks	-3820
aghetti	-3821
▁Sophie	-3822
▁apples	-3823
▁buckle	-3824
▁design	-3825
▁father	-3826
▁houses	-3827
▁kitten	-3828
▁lizard	-3829
▁manage	-3830
▁modest	-3831
▁muffin	-3832
▁peeked	-3833
▁seeing	-3834
▁shadow	-3835
▁temper	-3836
▁wishes	-3837
▁Italian	-3838
▁against	-3839
▁brewing	-3840
▁camping	-3841
▁carrots	-3842
▁discuss	-3843
▁drawing	-3844
▁dreamed	-3845
▁envious	-3846
▁fingers	-3847
▁quietly	-3848
▁scatter	-3849
▁setting	-3850
▁sweater	-3851
▁thirsty	-3852
▁thunder	-3853
▁wedding	-3854
▁actually	-3855
▁answered	-3856
▁communic	-3857
▁cultures	-3858
▁enormous	-3859
▁fountain	-3860
▁possible	-3861
▁received	-3862
▁shooting	-3863
▁straight	-3864
▁stunning	-3865
▁wandered	-3866
▁organisms	-3867
▁practiced	-3868
▁spaghetti	-3869
▁dishwasher	-3870
▁windowsill	-3871
▁ingredients	-3872
▁instructions	-3873
do	-3874
fa	-3875
mm	-3876
ys	-3877
Are	-3878
aid	-3879
bon	-3880
fit	-3881
ges	-3882
hin	-3883
isa	-3884
lie	-3885
loo	-3886
nel	-3887
ogn	-3888
olf	-3889
uum	-3890
vet	-3891
zed	-3892
▁Su	-3893
▁Tr	-3894
aled	-3895
aris	-3896
bour	-3897
ened	-3898
epar	-3899
hino	-3900
iers	-3901
ires	-3902
izes	-3903
osit	-3904
▁Are	-3905
▁Car	-3906
▁Eur	-3907
▁Ted	-3908
▁aff	-3909
▁det	-3910
▁led	-3911
▁nod	-3912
▁ped	-3913
▁pod	-3914
▁zip	-3915
Check	-3916
ceros	-3917
imney	-3918
inner	-3919
ither	-3920
lower	-3921
lowly	-3922
nited	-3923
ories	-3924
rency	-3925
wards	-3926
▁Beep	-3927
▁Joey	-3928
▁Lisa	-3929
▁bare	-3930
▁bark	-3931
▁beef	-3932
▁bulb	-3933
▁bull	-3934
▁burn	-3935
▁choo	-3936
▁deaf	-3937
▁deer	-3938
▁diet	-3939
▁fine	-3940
▁flav	-3941
▁gate	-3942
▁goal	-3943
▁gray	-3944
▁heat	-3945
▁moms	-3946
▁reef	-3947
▁rele	-3948
▁reve	-3949
▁roar	-3950
▁sofa	-3951
▁sore	-3952
▁spun	-3953
▁stom	-3954
▁trad	-3955
▁wolf	-3956
angers	-3957
ctions	-3958
illing	-3959
▁Great	-3960
▁Teddy	-3961
▁badly	-3962
▁becom	-3963
▁below	-3964
▁brand	-3965
▁eight	-3966
▁falls	-3967
▁flute	-3968
▁focus	-3969
▁ideas	-3970
▁lefto	-3971
▁march	-3972
▁micro	-3973
▁model	-3974
▁natur	-3975
▁opens	-3976
▁plays	-3977
▁raise	-3978
▁revie	-3979
▁rhino	-3980
▁rules	-3981
▁scare	-3982
▁separ	-3983
▁socks	-3984
▁state	-3985
▁tries	-3986
▁works	-3987
ational	-3988
etitive	-3989
ference	-3990
htaking	-3991
keleton	-3992
▁Europe	-3993
▁Slowly	-3994
▁acting	-3995
▁amount	-3996
▁beauty	-3997
▁carbon	-3998
▁desert	-3999
▁donate	-4000
▁gifted	-4001
▁laughs	-4002
▁poured	-4003
▁prefer	-4004
▁reason	-4005
▁recogn	-4006
▁silver	-4007
▁slides	-4008
▁sneeze	-4009
▁stress	-4010
▁unpack	-4011
▁weight	-4012
▁yawned	-4013
ynthesis	-4014
▁Charlie	-4015
▁calling	-4016
▁chimney	-4017
▁concept	-4018
▁contain	-4019
▁counted	-4020
▁entered	-4021
▁follows	-4022
▁gravity	-4023
▁married	-4024
▁penguin	-4025
▁podcast	-4026
▁prepare	-4027
▁pushing	-4028
▁repeats	-4029
▁support	-4030
▁tickets	-4031
▁annoying	-4032
▁changing	-4033
▁complain	-4034
▁delicate	-4035
▁expected	-4036
▁hydrated	-4037
▁memories	-4038
▁necklace	-4039
▁question	-4040
▁realised	-4041
▁sunlight	-4042
▁destroyed	-4043
▁neighbors	-4044
▁neighbour	-4045
▁newspaper	-4046
▁paintings	-4047
▁perfectly	-4048
▁regularly	-4049
▁blackboard	-4050
▁disgusting	-4051
▁particular	-4052
▁rhinoceros	-4053
▁sweetheart	-4054
▁themselves	-4055
▁throughout	-4056
▁blueberries	-4057
▁butterflies	-4058
▁cauliflower	-4059
▁temperature	-4060
▁breathtaking	-4061
▁conditioning	-4062
▁disappointed	-4063
▁neighborhood	-4064
▁compassionate	-4065
Go	-4066
lo	-4067
igz	-4068
ium	-4069
ius	-4070
mos	-4071
pid	-4072
una	-4073
▁Am	-4074
▁ev	-4075
Anna	-4076
Give	-4077
Well	-4078
abel	-4079
appy	-4080
aroo	-4081
elly	-4082
gile	-4083
iest	-4084
imed	-4085
lass	-4086
lend	-4087
lvet	-4088
nowy	-4089
omic	-4090
ores	-4091
orld	-4092
otty	-4093
rior	-4094
rist	-4095
▁Den	-4096
▁axe	-4097
▁cel	-4098
▁dug	-4099
▁egg	-4100
▁hay	-4101
▁kay	-4102
▁map	-4103
▁opt	-4104
▁pow	-4105
Bring	-4106
ality	-4107
brush	-4108
cious	-4109
igzag	-4110
mical	-4111
phone	-4112
place	-4113
▁Luna	-4114
▁arom	-4115
▁barn	-4116
▁beep	-4117
▁cats	-4118
▁data	-4119
▁dove	-4120
▁gain	-4121
▁hadn	-4122
▁hive	-4123
▁hunt	-4124
▁kang	-4125
▁load	-4126
▁luck	-4127
▁oats	-4128
▁oper	-4129
▁pray	-4130
▁rare	-4131
▁rubs	-4132
▁scru	-4133
▁simp	-4134
▁surf	-4135
▁taxi	-4136
▁tech	-4137
▁tent	-4138
▁trap	-4139
▁wand	-4140
▁weep	-4141
Dinner	-4142
anches	-4143
embers	-4144
istent	-4145
lendar	-4146
▁Binky	-4147
▁Dotty	-4148
▁Jacky	-4149
▁Snowy	-4150
▁Tilly	-4151
▁atmos	-4152
▁dough	-4153
▁finds	-4154
▁foods	-4155
▁holds	-4156
▁honey	-4157
▁jelly	-4158
▁laser	-4159
▁leash	-4160
▁patch	-4161
▁photo	-4162
▁porch	-4163
▁pulls	-4164
▁rough	-4165
▁route	-4166
▁skirt	-4167
▁slept	-4168
▁stops	-4169
▁tools	-4170
▁twirl	-4171
▁unite	-4172
▁wiped	-4173
ivating	-4174
lection	-4175
▁Denise	-4176
▁France	-4177
▁Freddy	-4178
▁Street	-4179
▁advice	-4180
▁barely	-4181
▁behave	-4182
▁brings	-4183
▁carpet	-4184
▁celery	-4185
▁chewed	-4186
▁demand	-4187
▁dreams	-4188
▁easily	-4189
▁emails	-4190
▁gasped	-4191
▁handed	-4192
▁handle	-4193
▁hanger	-4194
▁invent	-4195
▁itself	-4196
▁repair	-4197
▁repeat	-4198
▁result	-4199
▁revers	-4200
▁vacuum	-4201
▁velvet	-4202
▁wheels	-4203
▁avocado	-4204
▁chamber	-4205
▁charity	-4206
▁colours	-4207
▁company	-4208
▁deliver	-4209
▁distant	-4210
▁emergen	-4211
▁fearful	-4212
▁fishing	-4213
▁fragile	-4214
▁grandpa	-4215
▁highway	-4216
▁microsc	-4217
▁natural	-4218
▁network	-4219
▁nowhere	-4220
▁offered	-4221
▁planted	-4222
▁proudly	-4223
▁pumpkin	-4224
▁refused	-4225
▁shaking	-4226
▁stirred	-4227
▁twisted	-4228
▁volcano	-4229
▁warrior	-4230
▁blankets	-4231
▁branches	-4232
▁bringing	-4233
▁calendar	-4234
▁counting	-4235
▁cupboard	-4236
▁currency	-4237
▁curtains	-4238
▁cushions	-4239
▁homework	-4240
▁investig	-4241
▁kangaroo	-4242
▁kindness	-4243
▁password	-4244
▁positive	-4245
▁presents	-4246
▁snuggled	-4247
▁software	-4248
▁soldiers	-4249
▁spinning	-4250
▁discovery	-4251
▁hopefully	-4252
▁landscape	-4253
▁remembers	-4254
▁strangers	-4255
▁suggested	-4256
▁activities	-4257
▁competitive	-4258
▁presentation	-4259
Al	-4260
Fi	-4261
Pl	-4262
ae	-4263
Who	-4264
apa	-4265
aps	-4266
con	-4267
era	-4268
thm	-4269
thy	-4270
ury	-4271
vas	-4272
▁By	-4273
▁If	-4274
▁PM	-4275
▁Wi	-4276
Grab	-4277
aces	-4278
baby	-4279
book	-4280
cing	-4281
cles	-4282
coon	-4283
eath	-4284
etic	-4285
gram	-4286
haps	-4287
hter	-4288
iety	-4289
omed	-4290
oomy	-4291
ouns	-4292
reek	-4293
ubby	-4294
utor	-4295
ycle	-4296
year	-4297
zing	-4298
▁Ann	-4299
▁God	-4300
▁Mae	-4301
▁Rus	-4302
▁caf	-4303
▁cam	-4304
▁ham	-4305
▁jew	-4306
▁pra	-4307
▁rot	-4308
▁sim	-4309
▁tug	-4310
anish	-4311
attes	-4312
cycle	-4313
ended	-4314
hythm	-4315
iment	-4316
innie	-4317
isten	-4318
ivity	-4319
izzie	-4320
ledge	-4321
ments	-4322
orant	-4323
reeze	-4324
▁Amaz	-4325
▁Cels	-4326
▁Papa	-4327
▁Will	-4328
▁club	-4329
▁decl	-4330
▁knob	-4331
▁lets	-4332
▁peek	-4333
▁phys	-4334
▁quit	-4335
▁saus	-4336
▁serv	-4337
▁soap	-4338
▁spit	-4339
▁twig	-4340
▁vend	-4341
▁vibr	-4342
▁whip	-4343
ession	-4344
itical	-4345
▁Paris	-4346
▁aroma	-4347
▁boots	-4348
▁clown	-4349
▁crash	-4350
▁delay	-4351
▁excla	-4352
▁grace	-4353
▁guess	-4354
▁hills	-4355
▁kayak	-4356
▁medit	-4357
▁mixer	-4358
▁neare	-4359
▁squee	-4360
▁steal	-4361
▁tasks	-4362
▁track	-4363
▁tutor	-4364
▁waist	-4365
ception	-4366
ization	-4367
ulation	-4368
▁Isabel	-4369
▁Lizzie	-4370
▁Russel	-4371
▁Tweety	-4372
▁baking	-4373
▁balanc	-4374
▁breeze	-4375
▁camera	-4376
▁canvas	-4377
▁choose	-4378
▁chubby	-4379
▁either	-4380
▁filthy	-4381
▁folded	-4382
▁giggle	-4383
▁gloomy	-4384
▁infant	-4385
▁infect	-4386
▁joined	-4387
▁lattes	-4388
▁leader	-4389
▁louder	-4390
▁motion	-4391
▁outfit	-4392
▁pillow	-4393
▁placed	-4394
▁scient	-4395
▁shiver	-4396
▁stupid	-4397
▁thanks	-4398
▁theory	-4399
▁tunnel	-4400
▁unlock	-4401
▁wagged	-4402
▁wealth	-4403
▁Celsius	-4404
▁Spanish	-4405
▁burning	-4406
▁deposit	-4407
▁dressed	-4408
▁dresser	-4409
▁fastest	-4410
▁floated	-4411
▁folding	-4412
▁glowing	-4413
▁missing	-4414
▁perfume	-4415
▁predict	-4416
▁program	-4417
▁provide	-4418
▁putting	-4419
▁quality	-4420
▁respons	-4421
▁reviews	-4422
▁science	-4423
▁service	-4424
▁slipped	-4425
▁studies	-4426
▁warning	-4427
▁attached	-4428
▁chemical	-4429
▁climbing	-4430
▁consider	-4431
▁helpless	-4432
▁ignorant	-4433
▁laughter	-4434
▁mistakes	-4435
▁printing	-4436
▁supplies	-4437
▁batteries	-4438
▁essential	-4439
▁grandbaby	-4440
▁jellyfish	-4441
▁knowledge	-4442
▁whispered	-4443
▁atmosphere	-4444
▁collecting	-4445
▁collection	-4446
▁connection	-4447
▁constantly	-4448
▁exercising	-4449
▁microscope	-4450
▁motorcycle	-4451
▁refreshing	-4452
▁strawberry	-4453
▁captivating	-4454
▁fascinating	-4455
▁imagination	-4456
▁unfortunately	-4457
",	-4458
NA	-4459
ex	-4460
fl	-4461
pa	-4462
rn	-4463
Get	-4464
Tra	-4465
aff	-4466
aly	-4467
bec	-4468
cky	-4469
coa	-4470
cri	-4471
hip	-4472
ien	-4473
ple	-4474
rod	-4475
rum	-4476
ted	-4477
ups	-4478
whe	-4479
xim	-4480
zen	-4481
▁Ac	-4482
▁Af	-4483
▁Gr	-4484
▁Sh	-4485
▁da	-4486
Call	-4487
aced	-4488
ctop	-4489
ebra	-4490
ecor	-4491
ests	-4492
gies	-4493
ipop	-4494
itud	-4495
medi	-4496
olen	-4497
ongo	-4498
oppy	-4499
ords	-4500
rage	-4501
rint	-4502
roat	-4503
sing	-4504
walk	-4505
▁Rob	-4506
▁anx	-4507
▁awe	-4508
▁bud	-4509
▁hut	-4510
▁iss	-4511
▁oak	-4512
▁paw	-4513
Close	-4514
actly	-4515
ances	-4516
anged	-4517
anges	-4518
becue	-4519
ormal	-4520
osity	-4521
otion	-4522
ption	-4523
riger	-4524
round	-4525
storm	-4526
xture	-4527
▁Baby	-4528
▁Bear	-4529
▁Each	-4530
▁Emmy	-4531
▁Main	-4532
▁Paul	-4533
▁True	-4534
▁Wall	-4535
▁ants	-4536
▁exit	-4537
▁fash	-4538
▁fort	-4539
▁gust	-4540
▁heal	-4541
▁king	-4542
▁lend	-4543
▁loll	-4544
▁perm	-4545
▁rode	-4546
▁shut	-4547
▁torn	-4548
asured	-4549
atched	-4550
ctopus	-4551
iskers	-4552
omeday	-4553
screen	-4554
▁Afric	-4555
▁Annie	-4556
▁Austr	-4557
▁Bloom	-4558
▁Bongo	-4559
▁Bunny	-4560
▁India	-4561
▁berry	-4562
▁cause	-4563
▁click	-4564
▁cocoa	-4565
▁displ	-4566
▁famil	-4567
▁firef	-4568
▁flame	-4569
▁force	-4570
▁forth	-4571
▁gifts	-4572
▁gover	-4573
▁haven	-4574
▁heads	-4575
▁jumps	-4576
▁knows	-4577
▁lower	-4578
▁major	-4579
▁meals	-4580
▁names	-4581
▁olive	-4582
▁poppy	-4583
▁roads	-4584
▁sauce	-4585
▁sniff	-4586
▁spell	-4587
▁steps	-4588
▁third	-4589
▁tires	-4590
▁twigs	-4591
▁value	-4592
▁weigh	-4593
▁wheel	-4594
▁zebra	-4595
Traffic	-4596
▁Amazon	-4597
▁Christ	-4598
▁attach	-4599
▁chilly	-4600
▁chores	-4601
▁curled	-4602
▁drawer	-4603
▁easier	-4604
▁frozen	-4605
▁guests	-4606
▁hammer	-4607
▁immedi	-4608
▁kicked	-4609
▁leaned	-4610
▁learnt	-4611
▁licked	-4612
▁lifted	-4613
▁liquid	-4614
▁lotion	-4615
▁months	-4616
▁normal	-4617
▁period	-4618
▁planes	-4619
▁points	-4620
▁polish	-4621
▁popped	-4622
▁rested	-4623
▁stable	-4624
▁stolen	-4625
▁throat	-4626
▁towers	-4627
▁trophy	-4628
▁turkey	-4629
▁unwind	-4630
▁vendor	-4631
▁yelled	-4632
ximately	-4633
▁Charles	-4634
▁blowing	-4635
▁calming	-4636
▁carries	-4637
▁cartoon	-4638
▁caution	-4639
▁commute	-4640
▁cracked	-4641
▁craving	-4642
▁exactly	-4643
▁fashion	-4644
▁hanging	-4645
▁highest	-4646
▁killing	-4647
▁longest	-4648
▁meaning	-4649
▁muscles	-4650
▁octopus	-4651
▁oranges	-4652
▁parking	-4653
▁puddles	-4654
▁raccoon	-4655
▁redecor	-4656
▁reflect	-4657
▁rolling	-4658
▁rubbing	-4659
▁sandbox	-4660
▁someday	-4661
▁sticker	-4662
▁streets	-4663
▁sweetie	-4664
▁telling	-4665
▁twirled	-4666
▁vibrant	-4667
▁visited	-4668
▁weighed	-4669
▁worries	-4670
rigerator	-4671
▁barbecue	-4672
▁clapping	-4673
▁contains	-4674
▁crawling	-4675
▁dreaming	-4676
▁everyday	-4677
▁feelings	-4678
▁increase	-4679
▁lollipop	-4680
▁reminder	-4681
▁signific	-4682
▁skeleton	-4683
▁smallest	-4684
▁surround	-4685
▁swinging	-4686
▁upstairs	-4687
▁challenge	-4688
▁exclaimed	-4689
▁stretched	-4690
▁transport	-4691
▁whistling	-4692
▁appreciate	-4693
▁experiment	-4694
▁forgetting	-4695
▁persistent	-4696
▁practicing	-4697
▁respectful	-4698
▁destination	-4699
▁immediately	-4700
▁photography	-4701
▁refrigerator	-4702
▁approximately	-4703
Ow	-4704
fy	-4705
od	-4706
yc	-4707
His	-4708
arn	-4709
ato	-4710
avi	-4711
eri	-4712
ler	-4713
oot	-4714
pot	-4715
uly	-4716
uri	-4717
▁Ab	-4718
▁Bu	-4719
▁oy	-4720
Most	-4721
Some	-4722
Yuck	-4723
aked	-4724
alia	-4725
aven	-4726
belt	-4727
cope	-4728
eech	-4729
eedy	-4730
gypt	-4731
iter	-4732
laud	-4733
munk	-4734
orth	-4735
pite	-4736
rate	-4737
rise	-4738
seek	-4739
sity	-4740
tain	-4741
unes	-4742
vert	-4743
▁Ali	-4744
▁Its	-4745
▁Jet	-4746
▁New	-4747
▁Nor	-4748
▁aim	-4749
▁bin	-4750
▁dou	-4751
▁fla	-4752
▁gaz	-4753
▁ill	-4754
▁opp	-4755
▁pad	-4756
▁pit	-4757
▁sip	-4758
▁son	-4759
▁tag	-4760
▁unk	-4761
▁unl	-4762
ament	-4763
aying	-4764
celet	-4765
feine	-4766
glass	-4767
iders	-4768
illie	-4769
irpie	-4770
itter	-4771
joyed	-4772
meric	-4773
store	-4774
using	-4775
velop	-4776
▁Matt	-4777
▁Meri	-4778
▁ador	-4779
▁ages	-4780
▁beam	-4781
▁bows	-4782
▁bury	-4783
▁buzz	-4784
▁chat	-4785
▁cudd	-4786
▁deal	-4787
▁dise	-4788
▁east	-4789
▁fund	-4790
▁gems	-4791
▁hoop	-4792
▁iron	-4793
▁lawn	-4794
▁mall	-4795
▁meat	-4796
▁mild	-4797
▁neat	-4798
▁noon	-4799
▁poem	-4800
▁resc	-4801
▁rush	-4802
▁shot	-4803
▁soar	-4804
▁suff	-4805
▁toes	-4806
▁urge	-4807
▁uses	-4808
▁yarn	-4809
action	-4810
armacy	-4811
ceptor	-4812
erable	-4813
ergies	-4814
ertain	-4815
iction	-4816
ipment	-4817
itions	-4818
nology	-4819
ometer	-4820
render	-4821
though	-4822
ycling	-4823
▁Becky	-4824
▁Egypt	-4825
▁Furry	-4826
▁World	-4827
▁balls	-4828
▁boils	-4829
▁cable	-4830
▁calls	-4831
▁cells	-4832
▁chalk	-4833
▁cheap	-4834
▁chess	-4835
▁comfy	-4836
▁creek	-4837
▁crept	-4838
▁equal	-4839
▁files	-4840
▁frogs	-4841
▁grabs	-4842
▁hedge	-4843
▁jolly	-4844
▁lives	-4845
▁nails	-4846
▁nicer	-4847
▁novel	-4848
▁orbit	-4849
▁outdo	-4850
▁pages	-4851
▁pants	-4852
▁poked	-4853
▁rooms	-4854
▁seven	-4855
▁signs	-4856
▁sizes	-4857
▁snake	-4858
▁solar	-4859
▁spade	-4860
▁staff	-4861
▁trail	-4862
▁tweet	-4863
▁weeks	-4864
▁worse	-4865
▁worth	-4866
actions	-4867
glasses	-4868
lescope	-4869
▁Americ	-4870
▁Before	-4871
▁Floppy	-4872
▁Granny	-4873
▁Millie	-4874
▁Speedy	-4875
▁afford	-4876
▁anyway	-4877
▁behavi	-4878
▁bouncy	-4879
▁budget	-4880
▁bumped	-4881
▁colder	-4882
▁create	-4883
▁dreamt	-4884
▁effort	-4885
▁ending	-4886
▁expand	-4887
▁fright	-4888
▁glowed	-4889
▁govern	-4890
▁hiking	-4891
▁humble	-4892
▁introd	-4893
▁notice	-4894
▁oyster	-4895
▁player	-4896
▁plenty	-4897
▁police	-4898
▁powder	-4899
▁prunes	-4900
▁reserv	-4901
▁resist	-4902
▁reward	-4903
▁shakes	-4904
▁signed	-4905
▁simple	-4906
▁soccer	-4907
▁social	-4908
▁speech	-4909
▁thread	-4910
▁throws	-4911
▁towels	-4912
▁zipped	-4913
▁Chirpie	-4914
▁Grandpa	-4915
▁achieve	-4916
▁admired	-4917
▁applaud	-4918
▁article	-4919
▁bounced	-4920
▁cheaper	-4921
▁closely	-4922
▁comfort	-4923
▁concent	-4924
▁created	-4925
▁crossed	-4926
▁curtain	-4927
▁examine	-4928
▁farmers	-4929
▁genetic	-4930
▁growled	-4931
▁happier	-4932
▁impress	-4933
▁instrum	-4934
▁letting	-4935
▁nearest	-4936
▁pillows	-4937
▁planets	-4938
▁plumber	-4939
▁receive	-4940
▁release	-4941
▁results	-4942
▁sausage	-4943
▁shelves	-4944
▁stomach	-4945
▁sunrise	-4946
▁takeout	-4947
▁trusted	-4948
▁watered	-4949
▁wealthy	-4950
▁zipping	-4951
▁Acceptor	-4952
▁Everyday	-4953
▁Whiskers	-4954
▁adorable	-4955
▁backpack	-4956
▁balanced	-4957
▁basement	-4958
▁bracelet	-4959
▁brighter	-4960
▁brothers	-4961
▁caffeine	-4962
▁cartoons	-4963
▁charming	-4964
▁chipmunk	-4965
▁coloured	-4966
▁drawings	-4967
▁freezing	-4968
▁machines	-4969
▁measured	-4970
▁patterns	-4971
▁pharmacy	-4972
▁pressure	-4973
▁purchase	-4974
▁sandcast	-4975
▁seatbelt	-4976
▁skipping	-4977
▁sparkled	-4978
▁Australia	-4979
▁allergies	-4980
▁apologize	-4981
▁bookstore	-4982
▁computers	-4983
▁countries	-4984
▁curiosity	-4985
▁equipment	-4986
▁following	-4987
▁gathering	-4988
▁leftovers	-4989
▁librarian	-4990
▁miserable	-4991
▁overjoyed	-4992
▁selection	-4993
▁separated	-4994
▁sunscreen	-4995
▁surprises	-4996
▁telephone	-4997
▁typically	-4998
▁attractive	-4999
▁population	-5000
▁pretending	-5001
▁sunglasses	-5002
▁toothbrush	-5003
▁discovering	-5004
▁frustrating	-5005
▁investigate	-5006
▁significant	-5007
▁redecorating	-5008
▁communication	-5009
▁photosynthesis	-5010
..	-5011
By	-5012
Re	-5013
Wa	-5014
lp	-5015
rm	-5016
ux	-5017
Cle	-5018
Con	-5019
Her	-5020
Max	-5021
Mmm	-5022
Yay	-5023
ari	-5024
arr	-5025
bul	-5026
ibl	-5027
ify	-5028
imi	-5029
ita	-5030
ker	-5031
mas	-5032
nal	-5033
ole	-5034
udy	-5035
zzy	-5036
▁Cl	-5037
▁mi	-5038
Ouch	-5039
anan	-5040
apan	-5041
aped	-5042
dies	-5043
empt	-5044
fall	-5045
form	-5046
hive	-5047
icia	-5048
ilar	-5049
ilos	-5050
iper	-5051
ites	-5052
ixie	-5053
izon	-5054
obal	-5055
tery	-5056
urse	-5057
uses	-5058
▁Man	-5059
▁Not	-5060
▁Pac	-5061
▁Red	-5062
▁See	-5063
▁ago	-5064
▁alr	-5065
▁ber	-5066
▁boo	-5067
▁cho	-5068
▁cow	-5069
▁dev	-5070
▁fet	-5071
▁glo	-5072
▁lap	-5073
▁lux	-5074
▁mel	-5075
▁men	-5076
▁oat	-5077
▁pan	-5078
▁spe	-5079
▁tar	-5080
▁tim	-5081
▁tub	-5082
▁uns	-5083
▁ver	-5084
▁vet	-5085
Those	-5086
aches	-5087
alley	-5088
asion	-5089
chair	-5090
compl	-5091
ement	-5092
icles	-5093
igail	-5094
inger	-5095
itude	-5096
izing	-5097
plane	-5098
thank	-5099
ucked	-5100
umble	-5101
▁Doug	-5102
▁Gina	-5103
▁Help	-5104
▁Here	-5105
▁Judy	-5106
▁Mimi	-5107
▁Rita	-5108
▁Suzy	-5109
▁Tues	-5110
▁boys	-5111
▁cash	-5112
▁chef	-5113
▁comb	-5114
▁coup	-5115
▁cras	-5116
▁cred	-5117
▁cust	-5118
▁date	-5119
▁drag	-5120
▁exce	-5121
▁fact	-5122
▁fant	-5123
▁hall	-5124
▁hate	-5125
▁hats	-5126
▁herb	-5127
▁hose	-5128
▁lily	-5129
▁lugg	-5130
▁mood	-5131
▁pear	-5132
▁plug	-5133
▁poke	-5134
▁prim	-5135
▁raft	-5136
▁rely	-5137
▁sibl	-5138
▁sigh	-5139
▁slip	-5140
▁stri	-5141
▁suit	-5142
▁susp	-5143
▁unit	-5144
▁vict	-5145
▁wags	-5146
People	-5147
ancake	-5148
angled	-5149
ashing	-5150
atient	-5151
eterin	-5152
idence	-5153
ilosop	-5154
inking	-5155
mbling	-5156
riends	-5157
▁Carol	-5158
▁Japan	-5159
▁Nancy	-5160
▁Piper	-5161
▁Pixie	-5162
▁Spike	-5163
▁alive	-5164
▁ambul	-5165
▁atoms	-5166
▁banan	-5167
▁barks	-5168
▁based	-5169
▁blows	-5170
▁coins	-5171
▁cryst	-5172
▁decre	-5173
▁disag	-5174
▁drain	-5175
▁harsh	-5176
▁invol	-5177
▁itchy	-5178
▁knock	-5179
▁least	-5180
▁lions	-5181
▁marry	-5182
▁mayor	-5183
▁nurse	-5184
▁offic	-5185
▁opera	-5186
▁parts	-5187
▁rides	-5188
▁safer	-5189
▁scoot	-5190
▁seeds	-5191
▁skull	-5192
▁sneak	-5193
▁spike	-5194
▁stain	-5195
▁stirs	-5196
▁swims	-5197
▁therm	-5198
▁thief	-5199
▁truly	-5200
▁twink	-5201
▁wears	-5202
amental	-5203
ruction	-5204
▁Rhythm	-5205
▁arrows	-5206
▁barrel	-5207
▁caused	-5208
▁cooler	-5209
▁drinks	-5210
▁flavor	-5211
▁headed	-5212
▁knight	-5213
▁losing	-5214
▁nobody	-5215
▁plates	-5216
▁prices	-5217
▁rescue	-5218
▁riddle	-5219
▁secure	-5220
▁shrink	-5221
▁solved	-5222
▁supply	-5223
▁tricks	-5224
▁values	-5225
▁warmth	-5226
▁Abigail	-5227
▁Friends	-5228
▁Leticia	-5229
▁Pacific	-5230
▁Sundays	-5231
▁Tuesday	-5232
▁ability	-5233
▁accompl	-5234
▁address	-5235
▁alright	-5236
▁antique	-5237
▁anxious	-5238
▁appears	-5239
▁ashamed	-5240
▁attempt	-5241
▁beehive	-5242
▁berries	-5243
▁breathe	-5244
▁clearly	-5245
▁convers	-5246
▁convert	-5247
▁courage	-5248
▁cracker	-5249
▁cutting	-5250
▁develop	-5251
▁expires	-5252
▁express	-5253
▁frowned	-5254
▁heading	-5255
▁horizon	-5256
▁imagine	-5257
▁interse	-5258
▁joining	-5259
▁journal	-5260
▁keeping	-5261
▁luggage	-5262
▁missile	-5263
▁mixture	-5264
▁mystery	-5265
▁opening	-5266
▁payment	-5267
▁planned	-5268
▁praised	-5269
▁reminds	-5270
▁restart	-5271
▁retired	-5272
▁ribbons	-5273
▁scratch	-5274
▁snapped	-5275
▁sneezed	-5276
▁staring	-5277
▁suspect	-5278
▁treated	-5279
▁variety	-5280
▁wagging	-5281
▁wanting	-5282
▁accepted	-5283
▁airplane	-5284
▁armchair	-5285
▁becoming	-5286
▁creating	-5287
▁darkness	-5288
▁diseases	-5289
▁invented	-5290
▁maintain	-5291
▁meditate	-5292
▁mustache	-5293
▁occasion	-5294
▁pastries	-5295
▁predicts	-5296
▁released	-5297
▁restless	-5298
▁revealed	-5299
▁shouting	-5300
▁siblings	-5301
▁specific	-5302
▁Christmas	-5303
▁agreement	-5304
▁ambulance	-5305
▁completed	-5306
▁creatures	-5307
▁documents	-5308
▁everybody	-5309
▁fantastic	-5310
▁fireplace	-5311
▁gardening	-5312
▁impatient	-5313
▁patiently	-5314
▁preparing	-5315
▁purchased	-5316
▁refreshed	-5317
▁splashing	-5318
▁squirrels	-5319
▁surrender	-5320
▁telescope	-5321
eterinarian	-5322
▁Dependable	-5323
▁apologized	-5324
▁approached	-5325
▁difference	-5326
▁frightened	-5327
▁recognized	-5328
▁revolution	-5329
▁struggling	-5330
▁surprising	-5331
▁technology	-5332
▁conditioner	-5333
▁decorations	-5334
▁fundamental	-5335
▁performance	-5336
▁reservation	-5337
▁suggestions	-5338
▁construction	-5339
▁conversation	-5340
▁neighbourhood	-5341
Le	-5342
Or	-5343
Ph	-5344
Wr	-5345
ai	-5346
oe	-5347
rs	-5348
xc	-5349
”.	-5350
Bye	-5351
Dri	-5352
Hon	-5353
Pro	-5354
ads	-5355
amm	-5356
bug	-5357
bur	-5358
cou	-5359
ena	-5360
hor	-5361
ibi	-5362
ipt	-5363
irm	-5364
isp	-5365
jam	-5366
nes	-5367
ody	-5368
oed	-5369
osh	-5370
ray	-5371
ton	-5372
ube	-5373
▁Ol	-5374
▁Ow	-5375
▁Sk	-5376
Just	-5377
Pass	-5378
Read	-5379
Wait	-5380
When	-5381
acts	-5382
amie	-5383
chor	-5384
cony	-5385
etfl	-5386
gent	-5387
inda	-5388
indy	-5389
irit	-5390
ivil	-5391
lict	-5392
lish	-5393
load	-5394
nter	-5395
onge	-5396
ooks	-5397
oosh	-5398
ural	-5399
vies	-5400
whel	-5401
▁Did	-5402
▁Eng	-5403
▁Han	-5404
▁Lee	-5405
▁Nob	-5406
▁Yes	-5407
▁adv	-5408
▁bes	-5409
▁cob	-5410
▁cro	-5411
▁dan	-5412
▁dee	-5413
▁div	-5414
▁esc	-5415
▁gun	-5416
▁inj	-5417
▁jug	-5418
▁kid	-5419
▁lim	-5420
▁rag	-5421
▁sty	-5422
▁unh	-5423
▁wit	-5424
Being	-5425
Timmy	-5426
Write	-5427
adium	-5428
amond	-5429
arily	-5430
bbled	-5431
comed	-5432
dding	-5433
ences	-5434
iding	-5435
iform	-5436
imate	-5437
istic	-5438
itted	-5439
ively	-5440
jamas	-5441
onyms	-5442
print	-5443
tiest	-5444
usion	-5445
▁Bobo	-5446
▁Curi	-5447
▁Good	-5448
▁Have	-5449
▁Inst	-5450
▁Josh	-5451
▁Lacy	-5452
▁Luck	-5453
▁Miss	-5454
▁Nick	-5455
▁Nora	-5456
▁Sure	-5457
▁Your	-5458
▁caut	-5459
▁clue	-5460
▁cott	-5461
▁econ	-5462
▁emot	-5463
▁exch	-5464
▁flat	-5465
▁gold	-5466
▁grad	-5467
▁logs	-5468
▁maze	-5469
▁ours	-5470
▁page	-5471
▁paws	-5472
▁phra	-5473
▁poll	-5474
▁reus	-5475
▁scen	-5476
▁self	-5477
▁shed	-5478
▁ship	-5479
▁snap	-5480
▁sway	-5481
▁text	-5482
▁tube	-5483
▁wilt	-5484
▁wine	-5485
▁wipe	-5486
▁wire	-5487
▁worm	-5488
▁yawn	-5489
Having	-5490
Honest	-5491
ecture	-5492
etflix	-5493
icious	-5494
phones	-5495
▁Cindy	-5496
▁Ducky	-5497
▁Jamie	-5498
▁Linda	-5499
▁North	-5500
▁South	-5501
▁Would	-5502
▁Youth	-5503
▁achie	-5504
▁among	-5505
▁aware	-5506
▁beads	-5507
▁beans	-5508
▁beard	-5509
▁coats	-5510
▁cough	-5511
▁crisp	-5512
▁cycle	-5513
▁delet	-5514
▁doggy	-5515
▁doves	-5516
▁dried	-5517
▁dryer	-5518
▁encou	-5519
▁enter	-5520
▁fetch	-5521
▁grain	-5522
▁groom	-5523
▁hated	-5524
▁hider	-5525
▁hotel	-5526
▁hypot	-5527
▁media	-5528
▁melon	-5529
▁moves	-5530
▁notes	-5531
▁occur	-5532
▁pedal	-5533
▁pound	-5534
▁prove	-5535
▁rains	-5536
▁rainy	-5537
▁relig	-5538
▁scale	-5539
▁spect	-5540
▁spoil	-5541
▁stage	-5542
▁stays	-5543
▁subst	-5544
▁swamp	-5545
▁theat	-5546
▁trick	-5547
▁twice	-5548
▁unatt	-5549
▁urged	-5550
▁vroom	-5551
▁weren	-5552
▁yucky	-5553
Gravity	-5554
ability	-5555
ibility	-5556
iration	-5557
looking	-5558
▁Africa	-5559
▁Ginger	-5560
▁Minnie	-5561
▁Oliver	-5562
▁People	-5563
▁States	-5564
▁Thanks	-5565
▁access	-5566
▁adding	-5567
▁anchor	-5568
▁angles	-5569
▁argued	-5570
▁bacter	-5571
▁belief	-5572
▁beside	-5573
▁bodies	-5574
▁buried	-5575
▁choice	-5576
▁collar	-5577
▁cooked	-5578
▁creamy	-5579
▁credit	-5580
▁crunch	-5581
▁dancer	-5582
▁deeper	-5583
▁double	-5584
▁effect	-5585
▁fixing	-5586
▁global	-5587
▁gloves	-5588
▁growth	-5589
▁heaven	-5590
▁hunter	-5591
▁ignore	-5592
▁insist	-5593
▁jewels	-5594
▁kindly	-5595
▁levels	-5596
▁lively	-5597
▁makeup	-5598
▁medals	-5599
▁mostly	-5600
▁movies	-5601
▁olives	-5602
▁owners	-5603
▁petals	-5604
▁refers	-5605
▁resour	-5606
▁roared	-5607
▁seeker	-5608
▁settle	-5609
▁shovel	-5610
▁source	-5611
▁sponge	-5612
▁squeal	-5613
▁stared	-5614
▁states	-5615
▁thrill	-5616
▁tomato	-5617
▁tracks	-5618
▁videos	-5619
▁waving	-5620
national	-5621
▁Netflix	-5622
▁Pancake	-5623
▁account	-5624
▁allowed	-5625
▁balcony	-5626
▁belongs	-5627
▁beneath	-5628
▁bottles	-5629
▁bravely	-5630
▁decides	-5631
▁display	-5632
▁eagerly	-5633
▁figured	-5634
▁filling	-5635
▁flutter	-5636
▁harmful	-5637
▁hurting	-5638
▁include	-5639
▁ladybug	-5640
▁leaking	-5641
▁marched	-5642
▁moments	-5643
▁musical	-5644
▁nodding	-5645
▁onwards	-5646
▁perhaps	-5647
▁periods	-5648
▁pottery	-5649
▁pouring	-5650
▁pressed	-5651
▁reaches	-5652
▁realize	-5653
▁sailing	-5654
▁seasons	-5655
▁shadows	-5656
▁spiders	-5657
▁spoiled	-5658
▁stadium	-5659
▁stuffed	-5660
▁surface	-5661
▁teasing	-5662
▁travels	-5663
▁tripped	-5664
▁turning	-5665
▁unhappy	-5666
▁uniform	-5667
▁willing	-5668
▁activity	-5669
▁arriving	-5670
▁behavior	-5671
▁business	-5672
▁cautious	-5673
▁clothing	-5674
▁conflict	-5675
▁constant	-5676
▁crackers	-5677
▁decision	-5678
▁decorate	-5679
▁demanded	-5680
▁drinking	-5681
▁electron	-5682
▁emotions	-5683
▁families	-5684
▁graceful	-5685
▁happiest	-5686
▁harmless	-5687
▁included	-5688
▁landmark	-5689
▁matching	-5690
▁movement	-5691
▁notebook	-5692
▁overwhel	-5693
▁philosop	-5694
▁precious	-5695
▁prepared	-5696
▁presence	-5697
▁provides	-5698
▁reaction	-5699
▁relation	-5700
▁replaced	-5701
▁reusable	-5702
▁serviced	-5703
▁shoulder	-5704
▁sidewalk	-5705
▁speaking	-5706
▁struggle	-5707
▁studying	-5708
▁suggests	-5709
▁welcomed	-5710
▁amazement	-5711
▁applauded	-5712
▁character	-5713
▁currently	-5714
▁emergency	-5715
▁finishing	-5716
▁footprint	-5717
▁languages	-5718
▁political	-5719
▁potential	-5720
▁prettiest	-5721
▁recycling	-5722
▁rewarding	-5723
▁scrubbing	-5724
▁struggled	-5725
▁tradition	-5726
▁directions	-5727
▁friendship	-5728
▁government	-5729
▁headphones	-5730
▁impressive	-5731
▁increasing	-5732
▁scientific	-5733
▁structures	-5734
▁successful	-5735
▁suspicious	-5736
▁unattended	-5737
▁electricity	-5738
▁sandcastles	-5739
▁thermometer	-5740
▁thunderstorm	-5741
▁veterinarian	-5742
▁recommendations	-5743
Ah	-5744
Ar	-5745
On	-5746
Ye	-5747
jo	-5748
ov	-5749
▁i	-5750
!",	-5751
Ant	-5752
DNA	-5753
Sam	-5754
See	-5755
Yum	-5756
dad	-5757
ein	-5758
emo	-5759
hem	-5760
iox	-5761
isf	-5762
loe	-5763
men	-5764
nah	-5765
ode	-5766
oli	-5767
pes	-5768
pis	-5769
ral	-5770
ram	-5771
sit	-5772
top	-5773
upt	-5774
urb	-5775
zie	-5776
▁Oh	-5777
▁ig	-5778
Phot	-5779
Sara	-5780
Wash	-5781
Yeah	-5782
ades	-5783
bage	-5784
bert	-5785
ceed	-5786
cies	-5787
ctar	-5788
ctic	-5789
emes	-5790
hell	-5791
imon	-5792
inst	-5793
ipes	-5794
ison	-5795
issa	-5796
lets	-5797
lfie	-5798
mble	-5799
mith	-5800
nail	-5801
nown	-5802
ntil	-5803
oggy	-5804
rest	-5805
robe	-5806
seph	-5807
tebr	-5808
uced	-5809
uddy	-5810
uick	-5811
umst	-5812
▁Ant	-5813
▁Big	-5814
▁Eve	-5815
▁Get	-5816
▁Mel	-5817
▁Who	-5818
▁aid	-5819
▁ais	-5820
▁aud	-5821
▁cub	-5822
▁elf	-5823
▁fat	-5824
▁jud	-5825
▁kit	-5826
▁lat	-5827
▁lif	-5828
▁roo	-5829
▁sew	-5830
▁ves	-5831
Clean	-5832
Drive	-5833
Mummy	-5834
aired	-5835
anted	-5836
asant	-5837
biter	-5838
blood	-5839
ccoli	-5840
cribe	-5841
ddler	-5842
ength	-5843
ibiot	-5844
icate	-5845
ierce	-5846
iffel	-5847
iving	-5848
llent	-5849
nders	-5850
nings	-5851
oices	-5852
ortun	-5853
otten	-5854
riage	-5855
rogen	-5856
stial	-5857
sting	-5858
ucial	-5859
uries	-5860
▁Anny	-5861
▁Brad	-5862
▁City	-5863
▁Clar	-5864
▁Like	-5865
▁Look	-5866
▁Mand	-5867
▁Mike	-5868
▁Nemo	-5869
▁Nile	-5870
▁Rena	-5871
▁Skip	-5872
▁Tony	-5873
▁York	-5874
▁cans	-5875
▁died	-5876
▁diox	-5877
▁disp	-5878
▁dots	-5879
▁ends	-5880
▁epis	-5881
▁firm	-5882
▁gall	-5883
▁gaze	-5884
▁grin	-5885
▁hike	-5886
▁honk	-5887
▁hund	-5888
▁insp	-5889
▁leap	-5890
▁lick	-5891
▁math	-5892
▁mice	-5893
▁mint	-5894
▁neut	-5895
▁none	-5896
▁pens	-5897
▁pots	-5898
▁priv	-5899
▁prof	-5900
▁quar	-5901
▁rang	-5902
▁ripe	-5903
▁risk	-5904
▁rust	-5905
▁shoe	-5906
▁spat	-5907
▁tipt	-5908
▁tong	-5909
▁vast	-5910
▁vent	-5911
▁warn	-5912
▁west	-5913
▁wife	-5914
▁wigg	-5915
▁wing	-5916
▁wink	-5917
▁wrap	-5918
Always	-5919
Listen	-5920
Should	-5921
Thanks	-5922
acular	-5923
ambled	-5924
earing	-5925
ellite	-5926
iation	-5927
icated	-5928
idered	-5929
ousand	-5930
ousers	-5931
please	-5932
uation	-5933
ushing	-5934
utions	-5935
volves	-5936
▁Alfie	-5937
▁Buzzy	-5938
▁Carla	-5939
▁Chloe	-5940
▁Doggy	-5941
▁Einst	-5942
▁Leave	-5943
▁Maisy	-5944
▁Ocean	-5945
▁Simon	-5946
▁Since	-5947
▁Snail	-5948
▁Suzie	-5949
▁Tower	-5950
▁adult	-5951
▁argue	-5952
▁awake	-5953
▁belts	-5954
▁bowed	-5955
▁buses	-5956
▁cheek	-5957
▁chill	-5958
▁concl	-5959
▁daily	-5960
▁deals	-5961
▁drops	-5962
▁dusty	-5963
▁exist	-5964
▁fires	-5965
▁flick	-5966
▁freed	-5967
▁genre	-5968
▁goods	-5969
▁gorge	-5970
▁greet	-5971
▁habit	-5972
▁hesit	-5973
▁holes	-5974
▁ident	-5975
▁igloo	-5976
▁issue	-5977
▁leaks	-5978
▁masks	-5979
▁mater	-5980
▁muddy	-5981
▁niece	-5982
▁nouns	-5983
▁overd	-5984
▁pours	-5985
▁reads	-5986
▁rearr	-5987
▁relat	-5988
▁resol	-5989
▁salty	-5990
▁semes	-5991
▁sense	-5992
▁shall	-5993
▁sheep	-5994
▁sheet	-5995
▁shops	-5996
▁shown	-5997
▁skips	-5998
▁snail	-5999
▁sting	-6000
▁style	-6001
▁sword	-6002
▁thera	-6003
▁timer	-6004
▁trait	-6005
▁trave	-6006
▁vital	-6007
▁wakes	-6008
▁whale	-6009
▁wider	-6010
▁wraps	-6011
Climate	-6012
blooded	-6013
ificial	-6014
issance	-6015
oration	-6016
umbling	-6017
▁Eiffel	-6018
▁Hannah	-6019
▁Joseph	-6020
▁action	-6021
▁assist	-6022
▁banana	-6023
▁bother	-6024
▁cloudy	-6025
▁consum	-6026
▁darker	-6027
▁events	-6028
▁fallen	-6029
▁fierce	-6030
▁fought	-6031
▁gained	-6032
▁hearts	-6033
▁indeed	-6034
▁intake	-6035
▁intrig	-6036
▁invite	-6037
▁loaded	-6038
▁luxury	-6039
▁melted	-6040
▁meowed	-6041
▁meters	-6042
▁necess	-6043
▁nectar	-6044
▁onward	-6045
▁parrot	-6046
▁pastel	-6047
▁physic	-6048
▁pushes	-6049
▁raised	-6050
▁rather	-6051
▁relief	-6052
▁reveal	-6053
▁ribbon	-6054
▁rights	-6055
▁ripped	-6056
▁rubber	-6057
▁satisf	-6058
▁shells	-6059
▁signal	-6060
▁slower	-6061
▁soaked	-6062
▁spaces	-6063
▁sprink	-6064
▁stamps	-6065
▁suffer	-6066
▁target	-6067
▁temple	-6068
▁tested	-6069
▁theirs	-6070
▁tiring	-6071
▁tucked	-6072
▁twenty	-6073
▁vessel	-6074
▁wooden	-6075
expected	-6076
ibiotics	-6077
▁America	-6078
▁Brownie	-6079
▁Everest	-6080
▁However	-6081
▁Luckily	-6082
▁actions	-6083
▁becomes	-6084
▁billion	-6085
▁causing	-6086
▁charged	-6087
▁checkup	-6088
▁climate	-6089
▁consist	-6090
▁crucial	-6091
▁crystal	-6092
▁deleted	-6093
▁devices	-6094
▁diamond	-6095
▁diction	-6096
▁dioxide	-6097
▁disturb	-6098
▁encoura	-6099
▁firefly	-6100
▁firemen	-6101
▁flapped	-6102
▁flowing	-6103
▁glitter	-6104
▁hearing	-6105
▁honking	-6106
▁hundred	-6107
▁ignored	-6108
▁insight	-6109
▁lecture	-6110
▁logical	-6111
▁marbles	-6112
▁melting	-6113
▁muffins	-6114
▁officer	-6115
▁options	-6116
▁ordered	-6117
▁packing	-6118
▁pajamas	-6119
▁peanuts	-6120
▁phrases	-6121
▁printed	-6122
▁promise	-6123
▁pulling	-6124
▁purring	-6125
▁puzzles	-6126
▁require	-6127
▁roaring	-6128
▁screams	-6129
▁secrets	-6130
▁selling	-6131
▁session	-6132
▁settled	-6133
▁similar	-6134
▁solving	-6135
▁storage	-6136
▁studied	-6137
▁succeed	-6138
▁sweetly	-6139
▁tangled	-6140
▁theatre	-6141
▁tickled	-6142
▁tiptoed	-6143
▁toddler	-6144
▁tremble	-6145
▁unknown	-6146
▁vertebr	-6147
▁victory	-6148
▁witness	-6149
▁wonders	-6150
▁written	-6151
▁zooming	-6152
▁Clarissa	-6153
▁Einstein	-6154
▁baseball	-6155
▁broccoli	-6156
▁careless	-6157
▁cheering	-6158
▁circumst	-6159
▁composed	-6160
▁deadline	-6161
▁economic	-6162
▁evidence	-6163
▁experien	-6164
▁frowning	-6165
▁gorgeous	-6166
▁grabbing	-6167
▁material	-6168
▁mornings	-6169
▁musician	-6170
▁opportun	-6171
▁photogra	-6172
▁pleasant	-6173
▁rainfall	-6174
▁religion	-6175
▁reversed	-6176
▁revolves	-6177
▁scrubbed	-6178
▁seashell	-6179
▁semester	-6180
▁squealed	-6181
▁starfish	-6182
▁stirring	-6183
▁thoughts	-6184
▁thousand	-6185
▁touching	-6186
▁trousers	-6187
▁twisting	-6188
▁vehicles	-6189
▁visiting	-6190
▁wherever	-6191
▁accidents	-6192
▁celestial	-6193
▁classroom	-6194
▁collected	-6195
▁conscious	-6196
▁declutter	-6197
▁direction	-6198
▁disagreed	-6199
▁excellent	-6200
▁exception	-6201
▁expanding	-6202
▁explorers	-6203
▁forgotten	-6204
▁gentleman	-6205
▁including	-6206
▁increased	-6207
▁ourselves	-6208
▁promotion	-6209
▁reception	-6210
▁reversing	-6211
▁satellite	-6212
▁scrambled	-6213
▁scratched	-6214
▁sparkling	-6215
▁strongest	-6216
▁substance	-6217
▁vegetable	-6218
▁conference	-6219
▁considered	-6220
▁dictionary	-6221
▁disability	-6222
▁downstairs	-6223
▁fascinated	-6224
▁hypothesis	-6225
▁organizing	-6226
▁relationsh	-6227
▁thoughtful	-6228
▁university	-6229
nfortunately	-6230
▁Renaissance	-6231
▁communicate	-6232
▁concentrate	-6233
▁emergencies	-6234
▁spectacular	-6235
▁intelligence	-6236
▁interactions	-6237
▁intersection	-6238
▁organization	-6239
▁surprisingly	-6240
▁exceptionally	-6241
▁thunderstorms	-6242
▁responsibility	-6243
▁transportation	-6244
!'	-6245
Ad	-6246
At	-6247
To	-6248
cl	-6249
cu	-6250
hi	-6251
ik	-6252
lu	-6253
▁x	-6254
!'.	-6255
!”.	-6256
All	-6257
Art	-6258
Boo	-6259
Gen	-6260
Res	-6261
Whe	-6262
acc	-6263
ala	-6264
ani	-6265
bey	-6266
boo	-6267
cel	-6268
dom	-6269
eds	-6270
ela	-6271
ept	-6272
ero	-6273
hia	-6274
iar	-6275
ige	-6276
nds	-6277
ona	-6278
oor	-6279
oss	-6280
pin	-6281
pri	-6282
rup	-6283
shm	-6284
tle	-6285
uby	-6286
uth	-6287
vit	-6288
web	-6289
▁AM	-6290
▁II	-6291
▁Or	-6292
▁Sw	-6293
▁et	-6294
▁py	-6295
Feed	-6296
Fold	-6297
Hand	-6298
Jack	-6299
Lear	-6300
Meow	-6301
Pick	-6302
Tell	-6303
Will	-6304
ably	-6305
apon	-6306
arry	-6307
asis	-6308
choo	-6309
corn	-6310
crib	-6311
ctly	-6312
dled	-6313
eral	-6314
erma	-6315
erms	-6316
etty	-6317
exic	-6318
fire	-6319
gant	-6320
hero	-6321
htub	-6322
ibly	-6323
icul	-6324
illa	-6325
itam	-6326
kins	-6327
leus	-6328
lled	-6329
made	-6330
nies	-6331
omas	-6332
ooky	-6333
oral	-6334
over	-6335
peat	-6336
pire	-6337
pist	-6338
ploy	-6339
plug	-6340
rast	-6341
road	-6342
rupt	-6343
tuce	-6344
umes	-6345
unct	-6346
▁Cow	-6347
▁DNA	-6348
▁Des	-6349
▁Lou	-6350
▁Rex	-6351
▁Wil	-6352
▁adj	-6353
▁bri	-6354
▁cin	-6355
▁fab	-6356
▁gar	-6357
▁gir	-6358
▁hmm	-6359
▁kil	-6360
▁nit	-6361
▁nuc	-6362
▁odd	-6363
▁pes	-6364
▁sla	-6365
▁sod	-6366
▁sou	-6367
▁syn	-6368
▁tip	-6369
▁tot	-6370
▁wob	-6371
▁wow	-6372
Daddy	-6373
Their	-6374
Throw	-6375
Tommy	-6376
Tweet	-6377
Watch	-6378
While	-6379
ailed	-6380
apter	-6381
arent	-6382
arter	-6383
atory	-6384
berty	-6385
chief	-6386
cules	-6387
elson	-6388
erved	-6389
esome	-6390
estic	-6391
ffles	-6392
getic	-6393
hemat	-6394
house	-6395
idges	-6396
isher	-6397
itish	-6398
ivers	-6399
ivery	-6400
oline	-6401
ooped	-6402
quake	-6403
rench	-6404
ronom	-6405
ugged	-6406
urity	-6407
ushes	-6408
vator	-6409
veral	-6410
verbs	-6411
verse	-6412
▁Asia	-6413
▁Cynt	-6414
▁Jojo	-6415
▁Mine	-6416
▁Poor	-6417
▁Ruby	-6418
▁Stan	-6419
▁Thai	-6420
▁Todd	-6421
▁ache	-6422
▁acid	-6423
▁appl	-6424
▁aren	-6425
▁bang	-6426
▁beds	-6427
▁brav	-6428
▁dear	-6429
▁dive	-6430
▁ease	-6431
▁erra	-6432
▁evap	-6433
▁fift	-6434
▁file	-6435
▁film	-6436
▁flex	-6437
▁foal	-6438
▁gest	-6439
▁init	-6440
▁inse	-6441
▁knot	-6442
▁laid	-6443
▁laws	-6444
▁link	-6445
▁lips	-6446
▁menu	-6447
▁meth	-6448
▁mult	-6449
▁nuts	-6450
▁obey	-6451
▁opin	-6452
▁pets	-6453
▁prec	-6454
▁prop	-6455
▁rese	-6456
▁scur	-6457
▁sets	-6458
▁soak	-6459
▁stro	-6460
▁sunb	-6461
▁tear	-6462
▁tiss	-6463
▁tore	-6464
▁tune	-6465
▁twin	-6466
▁webs	-6467
▁zero	-6468
Photos	-6469
Plants	-6470
allows	-6471
ancial	-6472
elling	-6473
erhaps	-6474
ermaid	-6475
forest	-6476
ifacts	-6477
indeer	-6478
isions	-6479
ission	-6480
itches	-6481
mother	-6482
nowing	-6483
ording	-6484
priate	-6485
ration	-6486
resent	-6487
urance	-6488
urning	-6489
▁Betty	-6490
▁Bruce	-6491
▁Canad	-6492
▁Count	-6493
▁Italy	-6494
▁Larry	-6495
▁Mexic	-6496
▁Mouse	-6497
▁Paige	-6498
▁River	-6499
▁Roman	-6500
▁Smith	-6501
▁Sorry	-6502
▁aisle	-6503
▁allow	-6504
▁analy	-6505
▁areas	-6506
▁awful	-6507
▁baker	-6508
▁bells	-6509
▁belly	-6510
▁bites	-6511
▁blind	-6512
▁broom	-6513
▁burnt	-6514
▁chefs	-6515
▁civil	-6516
▁claws	-6517
▁coral	-6518
▁cubes	-6519
▁curly	-6520
▁dense	-6521
▁dolly	-6522
▁drift	-6523
▁essay	-6524
▁faced	-6525
▁feast	-6526
▁fills	-6527
▁flown	-6528
▁forms	-6529
▁frequ	-6530
▁germs	-6531
▁grape	-6532
▁growl	-6533
▁herbs	-6534
▁influ	-6535
▁kings	-6536
▁lease	-6537
▁licks	-6538
▁locks	-6539
▁loose	-6540
▁miles	-6541
▁optim	-6542
▁piles	-6543
▁pione	-6544
▁pitch	-6545
▁plain	-6546
▁prank	-6547
▁prize	-6548
▁renov	-6549
▁scold	-6550
▁score	-6551
▁serve	-6552
▁shave	-6553
▁stiff	-6554
▁syrup	-6555
▁topic	-6556
▁trips	-6557
▁truth	-6558
▁valid	-6559
▁vitam	-6560
▁waits	-6561
▁wipes	-6562
Staying	-6563
accines	-6564
chedule	-6565
iculous	-6566
ighting	-6567
ilities	-6568
ressing	-6569
stronom	-6570
ucation	-6571
▁Albert	-6572
▁Empire	-6573
▁Listen	-6574
▁Louise	-6575
▁Nobody	-6576
▁Rabbit	-6577
▁Thomas	-6578
▁Wilbur	-6579
▁Winnie	-6580
▁abroad	-6581
▁active	-6582
▁affect	-6583
▁allows	-6584
▁assign	-6585
▁atomic	-6586
▁author	-6587
▁backed	-6588
▁biolog	-6589
▁burrow	-6590
▁catchy	-6591
▁cobweb	-6592
▁common	-6593
▁conser	-6594
▁couple	-6595
▁delays	-6596
▁detail	-6597
▁detect	-6598
▁diving	-6599
▁dollar	-6600
▁enjoys	-6601
▁excess	-6602
▁expect	-6603
▁fabric	-6604
▁freeze	-6605
▁golden	-6606
▁grapes	-6607
▁helper	-6608
▁horses	-6609
▁humans	-6610
▁issues	-6611
▁knives	-6612
▁latest	-6613
▁lumber	-6614
▁mailed	-6615
▁marshm	-6616
▁medium	-6617
▁memory	-6618
▁mouths	-6619
▁oceans	-6620
▁parked	-6621
▁paying	-6622
▁permit	-6623
▁petted	-6624
▁poison	-6625
▁prayed	-6626
▁queens	-6627
▁rained	-6628
▁resume	-6629
▁retire	-6630
▁rising	-6631
▁sawing	-6632
▁scenic	-6633
▁series	-6634
▁shined	-6635
▁shouts	-6636
▁singer	-6637
▁slight	-6638
▁softly	-6639
▁sooner	-6640
▁spices	-6641
▁spooky	-6642
▁struck	-6643
▁switch	-6644
▁trustw	-6645
▁tugged	-6646
▁untied	-6647
▁unwell	-6648
▁valley	-6649
▁vision	-6650
▁voices	-6651
▁warmer	-6652
▁warmly	-6653
▁weapon	-6654
▁widely	-6655
▁wisely	-6656
▁writes	-6657
▁zoomed	-6658
Honestly	-6659
Learning	-6660
cription	-6661
ferences	-6662
jectives	-6663
kerchief	-6664
▁Cynthia	-6665
▁English	-6666
▁Mandela	-6667
▁Nations	-6668
▁Nothing	-6669
▁Someone	-6670
▁awesome	-6671
▁bathtub	-6672
▁blocked	-6673
▁bloomed	-6674
▁bravery	-6675
▁bridges	-6676
▁buzzing	-6677
▁capable	-6678
▁castles	-6679
▁certain	-6680
▁chapter	-6681
▁closing	-6682
▁contrib	-6683
▁costume	-6684
▁crashed	-6685
▁crunchy	-6686
▁cuddled	-6687
▁customs	-6688
▁despite	-6689
▁drained	-6690
▁dresses	-6691
▁elegant	-6692
▁episode	-6693
▁escaped	-6694
▁folders	-6695
▁freedom	-6696
▁freezes	-6697
▁gallery	-6698
▁garbage	-6699
▁gesture	-6700
▁gobbled	-6701
▁grinned	-6702
▁heavier	-6703
▁hopeful	-6704
▁hurried	-6705
▁kicking	-6706
▁lettuce	-6707
▁liquids	-6708
▁listens	-6709
▁located	-6710
▁markers	-6711
▁marking	-6712
▁massive	-6713
▁mermaid	-6714
▁nucleus	-6715
▁outdoor	-6716
▁overdue	-6717
▁paddled	-6718
▁parties	-6719
▁pebbles	-6720
▁popcorn	-6721
▁possess	-6722
▁posture	-6723
▁quicker	-6724
▁reasons	-6725
▁recipes	-6726
▁recycle	-6727
▁remains	-6728
▁reverse	-6729
▁rooster	-6730
▁routine	-6731
▁ruining	-6732
▁scaring	-6733
▁several	-6734
▁skilled	-6735
▁sniffed	-6736
▁soaring	-6737
▁sorting	-6738
▁sparkle	-6739
▁sprayed	-6740
▁squeeze	-6741
▁staying	-6742
▁stomped	-6743
▁strings	-6744
▁student	-6745
▁systems	-6746
▁visible	-6747
▁waffles	-6748
Sometimes	-6749
▁Although	-6750
▁Counting	-6751
▁achieved	-6752
▁admiring	-6753
▁approach	-6754
▁avocados	-6755
▁bouncing	-6756
▁breaking	-6757
▁carrying	-6758
▁charging	-6759
▁cherries	-6760
▁chopping	-6761
▁clearing	-6762
▁compared	-6763
▁creation	-6764
▁decrease	-6765
▁delivery	-6766
▁describe	-6767
▁elevator	-6768
▁examined	-6769
▁expenses	-6770
▁floating	-6771
▁frosting	-6772
▁function	-6773
▁goodness	-6774
▁handling	-6775
▁heavenly	-6776
▁improved	-6777
▁informed	-6778
▁injuries	-6779
▁leftover	-6780
▁marching	-6781
▁measures	-6782
▁messages	-6783
▁nitrogen	-6784
▁opinions	-6785
▁outdoors	-6786
▁perspect	-6787
▁playtime	-6788
▁pretends	-6789
▁provided	-6790
▁reindeer	-6791
▁repaired	-6792
▁resource	-6793
▁scurried	-6794
▁services	-6795
▁shrugged	-6796
▁solution	-6797
▁sparkles	-6798
▁stitches	-6799
▁teaching	-6800
▁throwing	-6801
▁tomatoes	-6802
▁unlocked	-6803
▁unpacked	-6804
▁vanished	-6805
▁whistled	-6806
▁Saturdays	-6807
▁artifacts	-6808
▁bacterial	-6809
▁billboard	-6810
▁biography	-6811
▁borrowing	-6812
▁buildings	-6813
▁confident	-6814
▁decisions	-6815
▁detergent	-6816
▁developed	-6817
▁effective	-6818
▁energetic	-6819
▁entertain	-6820
▁evolution	-6821
▁financial	-6822
▁goodnight	-6823
▁inspected	-6824
▁introduce	-6825
▁invention	-6826
▁primarily	-6827
▁rearrange	-6828
▁repeating	-6829
▁represent	-6830
▁scientist	-6831
▁seashells	-6832
▁solutions	-6833
▁spreading	-6834
▁squeezing	-6835
▁statement	-6836
▁superhero	-6837
▁twinkling	-6838
▁unusually	-6839
▁wandering	-6840
▁Afterwards	-6841
▁affordable	-6842
▁attempting	-6843
▁biological	-6844
▁conclusion	-6845
▁containers	-6846
▁containing	-6847
▁continents	-6848
▁depressing	-6849
▁earthquake	-6850
▁electrical	-6851
▁electronic	-6852
▁expiration	-6853
▁fluttering	-6854
▁instrument	-6855
▁interested	-6856
▁medication	-6857
▁officially	-6858
▁optimistic	-6859
▁photograph	-6860
▁preventing	-6861
▁rainforest	-6862
▁ridiculous	-6863
▁thankfully	-6864
▁unexpected	-6865
▁vegetarian	-6866
▁appropriate	-6867
▁consumption	-6868
▁fashionable	-6869
▁grandmother	-6870
▁informative	-6871
▁instruments	-6872
▁maintaining	-6873
▁naughtiness	-6874
▁philosopher	-6875
▁programming	-6876
▁traditional	-6877
▁accomplished	-6878
▁appointments	-6879
▁handkerchief	-6880
▁marshmallows	-6881
▁overwhelming	-6882
▁prescription	-6883
▁strawberries	-6884
▁surroundings	-6885
Photosynthesis	-6886
▁circumstances	-6887
▁environmental	-6888
▁international	-6889
▁revolutionized	-6890
▁environmentally	-6891
,”	-6892
--	-6893
Ag	-6894
Bl	-6895
Br	-6896
Bu	-6897
Ch	-6898
Di	-6899
Dr	-6900
Fr	-6901
In	-6902
Ok	-6903
So	-6904
ky	-6905
oh	-6906
pm	-6907
rr	-6908
uh	-6909
wo	-6910
...	-6911
And	-6912
Buy	-6913
Eng	-6914
Exc	-6915
Hum	-6916
Jim	-6917
Mum	-6918
Mus	-6919
Not	-6920
Pay	-6921
Ret	-6922
Set	-6923
Shh	-6924
Try	-6925
ado	-6926
afe	-6927
ays	-6928
azz	-6929
bie	-6930
col	-6931
cos	-6932
cts	-6933
cul	-6934
cup	-6935
ege	-6936
ema	-6937
eng	-6938
gra	-6939
ham	-6940
hew	-6941
how	-6942
hus	-6943
ifi	-6944
iod	-6945
mis	-6946
nec	-6947
oke	-6948
omb	-6949
rif	-6950
sed	-6951
son	-6952
tes	-6953
ubs	-6954
urs	-6955
val	-6956
yan	-6957
you	-6958
▁Ag	-6959
▁Li	-6960
▁Py	-6961
▁je	-6962
▁oh	-6963
▁pH	-6964
▁pm	-6965
▁ut	-6966
Bees	-6967
Does	-6968
Find	-6969
Fish	-6970
Hold	-6971
Jane	-6972
Mole	-6973
Next	-6974
Open	-6975
Plan	-6976
Wake	-6977
Whee	-6978
With	-6979
aded	-6980
affe	-6981
agna	-6982
alax	-6983
ales	-6984
alks	-6985
alph	-6986
apid	-6987
apot	-6988
apse	-6989
arch	-6990
ardo	-6991
arie	-6992
arks	-6993
aste	-6994
atue	-6995
away	-6996
care	-6997
cher	-6998
coat	-6999
cosy	-7000
cule	-7001
elry	-7002
ercy	-7003
gien	-7004
hand	-7005
heit	-7006
hile	-7007
iast	-7008
ikes	-7009
inci	-7010
inge	-7011
iple	-7012
isor	-7013
luck	-7014
mple	-7015
ners	-7016
nger	-7017
nion	-7018
oded	-7019
onse	-7020
otes	-7021
peut	-7022
pred	-7023
racy	-7024
rial	-7025
rily	-7026
rons	-7027
seen	-7028
sequ	-7029
shop	-7030
sque	-7031
ssil	-7032
step	-7033
uing	-7034
ulie	-7035
umin	-7036
ungs	-7037
view	-7038
wise	-7039
▁Ber	-7040
▁Exc	-7041
▁Fah	-7042
▁For	-7043
▁Isn	-7044
▁Jup	-7045
▁Owl	-7046
▁Sah	-7047
▁Say	-7048
▁Sec	-7049
▁Two	-7050
▁Wed	-7051
▁arr	-7052
▁awk	-7053
▁ded	-7054
▁dim	-7055
▁est	-7056
▁imm	-7057
▁las	-7058
▁mes	-7059
▁mig	-7060
▁mow	-7061
▁non	-7062
▁pie	-7063
▁rat	-7064
▁rod	-7065
▁row	-7066
▁tap	-7067
▁ugh	-7068
▁urg	-7069
▁web	-7070
Atoms	-7071
Elect	-7072
Inter	-7073
Light	-7074
Music	-7075
Sound	-7076
Start	-7077
Trees	-7078
World	-7079
aging	-7080
agnet	-7081
andom	-7082
aniel	-7083
aster	-7084
athon	-7085
balls	-7086
brane	-7087
chain	-7088
check	-7089
ching	-7090
crast	-7091
dough	-7092
drobe	-7093
enter	-7094
essor	-7095
etime	-7096
found	-7097
giene	-7098
gized	-7099
heism	-7100
inate	-7101
inese	-7102
lines	-7103
match	-7104
neath	-7105
ollow	-7106
ommun	-7107
ondon	-7108
orate	-7109
orthy	-7110
osite	-7111
pical	-7112
rates	-7113
reece	-7114
reedy	-7115
stand	-7116
stick	-7117
terly	-7118
thern	-7119
ument	-7120
umpet	-7121
watch	-7122
▁Both	-7123
▁Buzz	-7124
▁Many	-7125
▁Mars	-7126
▁Mona	-7127
▁Pudd	-7128
▁Rain	-7129
▁Ryan	-7130
▁Sout	-7131
▁alar	-7132
▁anti	-7133
▁asse	-7134
▁atom	-7135
▁aunt	-7136
▁aver	-7137
▁axis	-7138
▁beat	-7139
▁begs	-7140
▁boil	-7141
▁bond	-7142
▁boom	-7143
▁bund	-7144
▁cant	-7145
▁chop	-7146
▁clin	-7147
▁cosy	-7148
▁cows	-7149
▁curb	-7150
▁dads	-7151
▁dips	-7152
▁eats	-7153
▁flap	-7154
▁fond	-7155
▁fres	-7156
▁gods	-7157
▁golf	-7158
▁heel	-7159
▁hero	-7160
▁hers	-7161
▁jail	-7162
▁junk	-7163
▁lack	-7164
▁lent	-7165
▁mane	-7166
▁mort	-7167
▁nine	-7168
▁panc	-7169
▁pand	-7170
▁para	-7171
▁peck	-7172
▁pitc	-7173
▁pops	-7174
▁pout	-7175
▁pron	-7176
▁puff	-7177
▁quiz	-7178
▁role	-7179
▁scam	-7180
▁scra	-7181
▁sens	-7182
▁shoo	-7183
▁snoo	-7184
▁soda	-7185
▁soil	-7186
▁spac	-7187
▁stem	-7188
▁swan	-7189
▁term	-7190
▁unco	-7191
▁vari	-7192
▁vint	-7193
▁wept	-7194
▁wifi	-7195
Before	-7196
Eating	-7197
Excuse	-7198
Proper	-7199
Taking	-7200
apidly	-7201
arctic	-7202
arding	-7203
clever	-7204
creams	-7205
cupine	-7206
eeling	-7207
elcome	-7208
engers	-7209
ension	-7210
essary	-7211
ewable	-7212
ingdom	-7213
lowers	-7214
nected	-7215
nesday	-7216
onardo	-7217
ooking	-7218
ounced	-7219
peutic	-7220
placed	-7221
ployed	-7222
racted	-7223
ramids	-7224
repeat	-7225
ricane	-7226
rowave	-7227
ustain	-7228
▁Class	-7229
▁Curie	-7230
▁Happy	-7231
▁Inter	-7232
▁Julie	-7233
▁Mount	-7234
▁Percy	-7235
▁Pinky	-7236
▁Ralph	-7237
▁Right	-7238
▁Somet	-7239
▁Space	-7240
▁acted	-7241
▁assum	-7242
▁beats	-7243
▁bikes	-7244
▁binge	-7245
▁blast	-7246
▁brick	-7247
▁bride	-7248
▁bumpy	-7249
▁bunch	-7250
▁chews	-7251
▁claps	-7252
▁crime	-7253
▁crust	-7254
▁drawn	-7255
▁ecosy	-7256
▁error	-7257
▁fault	-7258
▁floss	-7259
▁galax	-7260
▁gases	-7261
▁gazed	-7262
▁goals	-7263
▁handy	-7264
▁heels	-7265
▁humid	-7266
▁inher	-7267
▁jeans	-7268
▁kneel	-7269
▁legal	-7270
▁limit	-7271
▁lined	-7272
▁liter	-7273
▁maker	-7274
▁marks	-7275
▁minor	-7276
▁munch	-7277
▁oasis	-7278
▁overs	-7279
▁owned	-7280
▁panic	-7281
▁paths	-7282
▁postp	-7283
▁raked	-7284
▁rates	-7285
▁raven	-7286
▁rings	-7287
▁rises	-7288
▁rolls	-7289
▁sales	-7290
▁scoop	-7291
▁scrub	-7292
▁shock	-7293
▁snowy	-7294
▁soapy	-7295
▁sport	-7296
▁spots	-7297
▁stair	-7298
▁steam	-7299
▁steep	-7300
▁sweep	-7301
▁swirl	-7302
▁swung	-7303
▁tails	-7304
▁unnec	-7305
▁vowed	-7306
▁weeds	-7307
▁windy	-7308
▁worms	-7309
▁wrink	-7310
▁yield	-7311
Wearing	-7312
ainting	-7313
artment	-7314
ativity	-7315
husiast	-7316
ication	-7317
ictable	-7318
iodiver	-7319
itution	-7320
merized	-7321
ometers	-7322
onsider	-7323
otional	-7324
renheit	-7325
ultural	-7326
ustrial	-7327
▁Always	-7328
▁Daniel	-7329
▁During	-7330
▁French	-7331
▁Greece	-7332
▁Halley	-7333
▁London	-7334
▁Mexico	-7335
▁Nelson	-7336
▁Robbie	-7337
▁Sahara	-7338
▁Second	-7339
▁Spirit	-7340
▁Statue	-7341
▁assert	-7342
▁attend	-7343
▁beamed	-7344
▁biking	-7345
▁birdie	-7346
▁booked	-7347
▁brakes	-7348
▁burned	-7349
▁caring	-7350
▁cheeks	-7351
▁cinema	-7352
▁climbs	-7353
▁comets	-7354
▁commit	-7355
▁cotton	-7356
▁cowork	-7357
▁custom	-7358
▁daring	-7359
▁degree	-7360
▁dental	-7361
▁digest	-7362
▁drying	-7363
▁except	-7364
▁fields	-7365
▁firmly	-7366
▁fisher	-7367
▁floats	-7368
▁floors	-7369
▁forces	-7370
▁formed	-7371
▁fossil	-7372
▁grassy	-7373
▁gravit	-7374
▁greedy	-7375
▁groups	-7376
▁hardly	-7377
▁highly	-7378
▁hissed	-7379
▁histor	-7380
▁hotter	-7381
▁images	-7382
▁jammed	-7383
▁jogged	-7384
▁joking	-7385
▁kisses	-7386
▁landsc	-7387
▁larger	-7388
▁lemons	-7389
▁marked	-7390
▁modify	-7391
▁mosque	-7392
▁napkin	-7393
▁novels	-7394
▁observ	-7395
▁paints	-7396
▁parted	-7397
▁passes	-7398
▁pecked	-7399
▁poking	-7400
▁pounds	-7401
▁powers	-7402
▁racing	-7403
▁random	-7404
▁recent	-7405
▁remark	-7406
▁remove	-7407
▁rivers	-7408
▁sample	-7409
▁seesaw	-7410
▁served	-7411
▁serves	-7412
▁silent	-7413
▁simply	-7414
▁skelet	-7415
▁soared	-7416
▁spikes	-7417
▁spirit	-7418
▁spoken	-7419
▁spoons	-7420
▁stains	-7421
▁stalks	-7422
▁stitch	-7423
▁studio	-7424
▁sweets	-7425
▁tailor	-7426
▁teapot	-7427
▁teased	-7428
▁terrif	-7429
▁thirty	-7430
▁thumbs	-7431
▁tidied	-7432
▁tongue	-7433
▁trains	-7434
▁unfore	-7435
▁unplug	-7436
▁unpred	-7437
▁unsafe	-7438
▁vanish	-7439
▁waking	-7440
▁wasted	-7441
▁whoosh	-7442
▁wiggly	-7443
▁willow	-7444
▁winner	-7445
▁wobbly	-7446
▁writer	-7447
▁zigzag	-7448
Although	-7449
iversary	-7450
misphere	-7451
romagnet	-7452
stronomy	-7453
▁African	-7454
▁British	-7455
▁Chinese	-7456
▁Goodbye	-7457
▁Instead	-7458
▁Johnson	-7459
▁Jupiter	-7460
▁Liberty	-7461
▁Puddles	-7462
▁Sharing	-7463
▁Washing	-7464
▁Without	-7465
▁advisor	-7466
▁annoyed	-7467
▁average	-7468
▁awkward	-7469
▁bedtime	-7470
▁bowling	-7471
▁bravest	-7472
▁brushed	-7473
▁cabinet	-7474
▁captain	-7475
▁catcher	-7476
▁catches	-7477
▁ceiling	-7478
▁changes	-7479
▁chirped	-7480
▁classes	-7481
▁closest	-7482
▁college	-7483
▁colored	-7484
▁consequ	-7485
▁cottage	-7486
▁describ	-7487
▁designs	-7488
▁digging	-7489
▁dispose	-7490
▁dragged	-7491
▁drivers	-7492
▁emerged	-7493
▁engines	-7494
▁errands	-7495
▁fiction	-7496
▁fifteen	-7497
▁flavour	-7498
▁forgave	-7499
▁forgets	-7500
▁fortune	-7501
▁giraffe	-7502
▁granted	-7503
▁greeted	-7504
▁healing	-7505
▁helmets	-7506
▁hugging	-7507
▁hygiene	-7508
▁illness	-7509
▁intense	-7510
▁jackets	-7511
▁jewelry	-7512
▁kittens	-7513
▁lasagna	-7514
▁leaning	-7515
▁lifting	-7516
▁lighter	-7517
▁limited	-7518
▁lioness	-7519
▁markets	-7520
▁massage	-7521
▁million	-7522
▁mineral	-7523
▁mission	-7524
▁monkeys	-7525
▁napkins	-7526
▁outlets	-7527
▁pedaled	-7528
▁pennies	-7529
▁perched	-7530
▁pirates	-7531
▁pitcher	-7532
▁players	-7533
▁potluck	-7534
▁prayers	-7535
▁primary	-7536
▁private	-7537
▁protest	-7538
▁quarrel	-7539
▁rapidly	-7540
▁reality	-7541
▁receipt	-7542
▁records	-7543
▁sadness	-7544
▁seconds	-7545
▁sending	-7546
▁shortly	-7547
▁slapped	-7548
▁sliding	-7549
▁smarter	-7550
▁somehow	-7551
▁soundly	-7552
▁sources	-7553
▁statist	-7554
▁stumble	-7555
▁sunburn	-7556
▁sunsets	-7557
▁swaying	-7558
▁tasting	-7559
▁tidying	-7560
▁totally	-7561
▁trapped	-7562
▁trumpet	-7563
▁updated	-7564
▁utterly	-7565
▁vanilla	-7566
▁vintage	-7567
▁vitamin	-7568
▁watches	-7569
▁website	-7570
▁workers	-7571
▁younger	-7572
Evolution	-7573
Molecules	-7574
connected	-7575
ellations	-7576
hematical	-7577
ification	-7578
▁American	-7579
▁Egyptian	-7580
▁Skeleton	-7581
▁activist	-7582
▁argument	-7583
▁arranged	-7584
▁attempts	-7585
▁attracts	-7586
▁behaving	-7587
▁borrowed	-7588
▁breathes	-7589
▁carriage	-7590
▁checking	-7591
▁collapse	-7592
▁conserve	-7593
▁costumes	-7594
▁declared	-7595
▁designed	-7596
▁detailed	-7597
▁directly	-7598
▁discount	-7599
▁duckling	-7600
▁elements	-7601
▁engaging	-7602
▁exploded	-7603
▁familiar	-7604
▁flapping	-7605
▁flashing	-7606
▁flexible	-7607
▁gasoline	-7608
▁giggling	-7609
▁granddad	-7610
▁greatest	-7611
▁hardware	-7612
▁horrible	-7613
▁indicate	-7614
▁inviting	-7615
▁involves	-7616
▁knitting	-7617
▁location	-7618
▁majestic	-7619
▁marathon	-7620
▁meanings	-7621
▁membrane	-7622
▁molecule	-7623
▁multiple	-7624
▁occurred	-7625
▁official	-7626
▁opposite	-7627
▁pancakes	-7628
▁patience	-7629
▁penguins	-7630
▁physical	-7631
▁planting	-7632
▁pleasure	-7633
▁podcasts	-7634
▁prepping	-7635
▁pyramids	-7636
▁raincoat	-7637
▁realizes	-7638
▁releases	-7639
▁remained	-7640
▁requests	-7641
▁requires	-7642
▁research	-7643
▁response	-7644
▁rumbling	-7645
▁security	-7646
▁sentence	-7647
▁separate	-7648
▁shivered	-7649
▁snatched	-7650
▁sneezing	-7651
▁somebody	-7652
▁spilling	-7653
▁splashes	-7654
▁starving	-7655
▁striking	-7656
▁sweeties	-7657
▁thrilled	-7658
▁training	-7659
▁tropical	-7660
▁urgently	-7661
▁ventured	-7662
▁wardrobe	-7663
▁weekends	-7664
▁whatever	-7665
▁workshop	-7666
Artificial	-7667
ifications	-7668
▁Antarctic	-7669
▁Classical	-7670
▁Something	-7671
▁Wednesday	-7672
▁Yesterday	-7673
▁according	-7674
▁appearing	-7675
▁carpenter	-7676
▁classical	-7677
▁connected	-7678
▁crosswalk	-7679
▁curiously	-7680
▁decorated	-7681
▁delivered	-7682
▁discourse	-7683
▁disturbed	-7684
▁dollhouse	-7685
▁ecosystem	-7686
▁education	-7687
▁embarrass	-7688
▁emotional	-7689
▁energized	-7690
▁excessive	-7691
▁exchanged	-7692
▁fireflies	-7693
▁fisherman	-7694
▁functions	-7695
▁generally	-7696
▁glittered	-7697
▁hurricane	-7698
▁imagining	-7699
▁insisting	-7700
▁insurance	-7701
▁interrupt	-7702
▁interview	-7703
▁intrigued	-7704
▁lightning	-7705
▁meatballs	-7706
▁microwave	-7707
▁misplaced	-7708
▁necessary	-7709
▁observing	-7710
▁otherwise	-7711
▁passwords	-7712
▁performed	-7713
▁physicist	-7714
▁porcupine	-7715
▁presented	-7716
▁professor	-7717
▁protected	-7718
▁radiation	-7719
▁recognize	-7720
▁satisfied	-7721
▁scattered	-7722
▁seasoning	-7723
▁snowstorm	-7724
▁sourdough	-7725
▁sprinkles	-7726
▁storybook	-7727
▁surfboard	-7728
▁therefore	-7729
▁thrilling	-7730
▁transform	-7731
▁treatment	-7732
▁trembling	-7733
▁valuables	-7734
▁variables	-7735
▁wondering	-7736
Antibiotics	-7737
iodiversity	-7738
▁Fahrenheit	-7739
▁Washington	-7740
▁accomplish	-7741
▁accountant	-7742
▁assembling	-7743
▁assistance	-7744
▁belongings	-7745
▁challenges	-7746
▁comforting	-7747
▁creativity	-7748
▁delightful	-7749
▁enthusiast	-7750
▁exhibition	-7751
▁explaining	-7752
▁flickering	-7753
▁frequently	-7754
▁gracefully	-7755
▁infections	-7756
▁infectious	-7757
▁introduced	-7758
▁kilometers	-7759
▁meditating	-7760
▁mesmerized	-7761
▁neighbours	-7762
▁paintbrush	-7763
▁passengers	-7764
▁peacefully	-7765
▁performing	-7766
▁permission	-7767
▁production	-7768
▁productive	-7769
▁protecting	-7770
▁protection	-7771
▁reflection	-7772
▁reflective	-7773
▁reschedule	-7774
▁scattering	-7775
▁stationary	-7776
▁traditions	-7777
▁unforeseen	-7778
▁vertebrate	-7779
▁achievement	-7780
▁anniversary	-7781
▁appreciated	-7782
▁complicated	-7783
▁countryside	-7784
▁encouraging	-7785
▁evaporation	-7786
▁generations	-7787
▁opportunity	-7788
▁possessions	-7789
▁predictions	-7790
▁recommended	-7791
▁surrounding	-7792
▁therapeutic	-7793
▁trustworthy	-7794
▁unnecessary	-7795
▁cauliflowers	-7796
▁concentrated	-7797
▁consistently	-7798
▁increasingly	-7799
▁mathematical	-7800
▁perspectives	-7801
▁relationship	-7802
▁characterized	-7803
▁investigation	-7804
▁unpredictable	-7805
▁interconnected	-7806
',	-7807
.'	-7808
?.	-7809
Ab	-7810
Am	-7811
Cr	-7812
Em	-7813
Ex	-7814
Gl	-7815
Ha	-7816
PR	-7817
SA	-7818
Sw	-7819
TM	-7820
Te	-7821
aj	-7822
bt	-7823
gh	-7824
no	-7825
ns	-7826
po	-7827
pr	-7828
sa	-7829
sm	-7830
ta	-7831
uk	-7832
vo	-7833
we	-7834
!”,	-7835
".[	-7836
."[	-7837
?",	-7838
Bew	-7839
Bir	-7840
Coo	-7841
Dad	-7842
Des	-7843
Eat	-7844
Ele	-7845
Eth	-7846
Fin	-7847
Ice	-7848
Law	-7849
Lee	-7850
Med	-7851
Mow	-7852
Pre	-7853
Reg	-7854
Ren	-7855
Rep	-7856
Sun	-7857
Wal	-7858
aac	-7859
afz	-7860
aks	-7861
alf	-7862
arh	-7863
arl	-7864
arw	-7865
asm	-7866
asp	-7867
avy	-7868
beh	-7869
bel	-7870
bum	-7871
cat	-7872
chy	-7873
cip	-7874
dim	-7875
dri	-7876
ecc	-7877
edy	-7878
eor	-7879
ets	-7880
eue	-7881
eve	-7882
gaz	-7883
gin	-7884
gum	-7885
han	-7886
hol	-7887
hro	-7888
iam	-7889
iev	-7890
igo	-7891
ikh	-7892
iob	-7893
ior	-7894
iov	-7895
iqu	-7896
irr	-7897
iza	-7898
jun	-7899
hys	-7900
kal	-7901
lam	-7902
lee	-7903
lin	-7904
lym	-7905
mag	-7906
mon	-7907
ods	-7908
olk	-7909
oll	-7910
omp	-7911
osc	-7912
oys	-7913
rab	-7914
rad	-7915
run	-7916
sal	-7917
sec	-7918
ths	-7919
uas	-7920
umm	-7921
yal	-7922
yon	-7923
zer	-7924
▁Ex	-7925
▁Hi	-7926
▁Me	-7927
▁tv	-7928
Abra	-7929
Back	-7930
Cell	-7931
Conf	-7932
Dogs	-7933
Fill	-7934
Fine	-7935
Food	-7936
Hang	-7937
Heat	-7938
Like	-7939
Lila	-7940
Lock	-7941
Mach	-7942
Mine	-7943
Once	-7944
Park	-7945
Pers	-7946
Prep	-7947
Rain	-7948
Rice	-7949
Sent	-7950
Snow	-7951
Spot	-7952
Text	-7953
Your	-7954
adly	-7955
ague	-7956
ahal	-7957
aign	-7958
aint	-7959
apey	-7960
ares	-7961
arge	-7962
arts	-7963
atic	-7964
aved	-7965
avig	-7966
back	-7967
beam	-7968
beat	-7969
bell	-7970
berg	-7971
blem	-7972
case	-7973
cont	-7974
date	-7975
ders	-7976
dles	-7977
doll	-7978
eace	-7979
ears	-7980
efit	-7981
elia	-7982
elve	-7983
enda	-7984
enus	-7985
erbs	-7986
ette	-7987
even	-7988
flow	-7989
free	-7990
heid	-7991
hens	-7992
hern	-7993
hind	-7994
hyme	-7995
icip	-7996
ilet	-7997
ilst	-7998
ingu	-7999
Soc	-8000
Cats	-8001
Remy	-8002
comp	-8003
ency	-8004
ifts	-8005
ilky	-8006
irlp	-8007
irus	-8008
ishy	-8009
ivid	-8010
ivot	-8011
lasm	-8012
lexa	-8013
like	-8014
list	-8015
lord	-8016
mind	-8017
nels	-8018
ocul	-8019
omes	-8020
oned	-8021
onel	-8022
onic	-8023
onna	-8024
oops	-8025
opes	-8026
oses	-8027
osis	-8028
oted	-8029
oved	-8030
pend	-8031
perv	-8032
rain	-8033
rect	-8034
rier	-8035
rize	-8036
rone	-8037
safz	-8038
saur	-8039
seed	-8040
ssip	-8041
ssle	-8042
sych	-8043
tens	-8044
test	-8045
tesy	-8046
tier	-8047
uant	-8048
uate	-8049
uces	-8050
uine	-8051
uler	-8052
uous	-8053
uten	-8054
vive	-8055
yman	-8056
▁ATM	-8057
▁Any	-8058
▁Bar	-8059
▁Bir	-8060
▁Bye	-8061
▁Cat	-8062
▁Gal	-8063
▁Ger	-8064
▁Lea	-8065
▁Lin	-8066
▁Our	-8067
▁Out	-8068
▁Pro	-8069
▁Put	-8070
▁Rel	-8071
▁Soc	-8072
▁Taj	-8073
▁Try	-8074
▁Was	-8075
▁Way	-8076
▁Web	-8077
▁Wes	-8078
▁Wow	-8079
▁abs	-8080
▁age	-8081
▁alt	-8082
▁avo	-8083
▁bru	-8084
▁bye	-8085
▁cav	-8086
▁cul	-8087
▁dip	-8088
▁ech	-8089
▁eur	-8090
▁fed	-8091
▁fem	-8092
▁flu	-8093
▁fog	-8094
▁hen	-8095
▁kin	-8096
▁lab	-8097
▁lag	-8098
▁lie	-8099
Iron	-8100
Pron	-8101
Shoo	-8102
Walk	-8103
chet	-8104
coln	-8105
▁Caw	-8106
▁emp	-8107
▁mac	-8108
▁mit	-8109
▁neg	-8110
▁nor	-8111
▁pal	-8112
▁pry	-8113
▁pup	-8114
▁rum	-8115
▁sav	-8116
▁tig	-8117
▁ups	-8118
▁vio	-8119
▁wid	-8120
▁yel	-8121
▁yen	-8122
Agric	-8123
Books	-8124
Count	-8125
Fruit	-8126
Great	-8127
Leave	-8128
Looks	-8129
Lunch	-8130
Medic	-8131
Money	-8132
Other	-8133
Punct	-8134
Sleep	-8135
Stars	-8136
Sweep	-8137
Treat	-8138
adful	-8139
alfun	-8140
allow	-8141
ammal	-8142
annes	-8143
antic	-8144
aping	-8145
arted	-8146
artin	-8147
arwin	-8148
asser	-8149
asses	-8150
atted	-8151
berra	-8152
cohol	-8153
dated	-8154
eding	-8155
emies	-8156
grown	-8157
hello	-8158
henom	-8159
ician	-8160
ickel	-8161
ified	-8162
ilted	-8163
ilure	-8164
immer	-8165
lling	-8166
mbers	-8167
mises	-8168
ndown	-8169
ocent	-8170
oleum	-8171
ollen	-8172
orean	-8173
organ	-8174
orter	-8175
peare	-8176
pects	-8177
pread	-8178
rance	-8179
retty	-8180
rings	-8181
shirt	-8182
sided	-8183
sters	-8184
uated	-8185
ublic	-8186
ucing	-8187
ucted	-8188
uctor	-8189
uggle	-8190
uters	-8191
venir	-8192
▁Arab	-8193
▁Back	-8194
▁Beth	-8195
▁Cars	-8196
▁Cold	-8197
▁Days	-8198
▁Does	-8199
kyo	-8200
Data	-8201
▁Moe	-8202
Const	-8203
Happy	-8204
annel	-8205
aphor	-8206
rints	-8207
▁East	-8208
▁Gand	-8209
▁Giza	-8210
▁Hang	-8211
▁High	-8212
▁Imag	-8213
▁Merc	-8214
▁Mont	-8215
▁Move	-8216
▁Nice	-8217
▁Pyth	-8218
▁Rome	-8219
▁Sour	-8220
▁Swim	-8221
▁Take	-8222
▁West	-8223
▁Wide	-8224
▁afar	-8225
▁barg	-8226
▁bars	-8227
▁blob	-8228
▁blog	-8229
▁bomb	-8230
▁born	-8231
▁bubb	-8232
▁chir	-8233
▁clut	-8234
▁conv	-8235
▁core	-8236
▁cour	-8237
▁crou	-8238
▁dare	-8239
▁dash	-8240
▁earn	-8241
▁fans	-8242
▁fara	-8243
▁fart	-8244
▁fins	-8245
▁gear	-8246
▁gene	-8247
▁grat	-8248
▁grou	-8249
▁guys	-8250
▁isol	-8251
▁jars	-8252
▁jigg	-8253
▁jobs	-8254
▁judg	-8255
▁kill	-8256
▁lens	-8257
▁litt	-8258
▁mast	-8259
▁maus	-8260
▁meow	-8261
▁mini	-8262
▁narr	-8263
▁noun	-8264
▁pans	-8265
▁papa	-8266
▁peak	-8267
▁pedd	-8268
▁peso	-8269
▁plat	-8270
▁port	-8271
▁pros	-8272
▁rate	-8273
▁rent	-8274
▁reun	-8275
▁rule	-8276
▁sadd	-8277
▁sank	-8278
▁seal	-8279
▁sequ	-8280
▁sill	-8281
▁slam	-8282
▁soot	-8283
▁soul	-8284
▁sync	-8285
▁teen	-8286
▁tend	-8287
▁thor	-8288
▁thri	-8289
▁tide	-8290
▁tips	-8291
▁tour	-8292
▁trag	-8293
▁tuck	-8294
▁unem	-8295
▁unsu	-8296
▁wins	-8297
▁woof	-8298
Commun	-8299
▁etc	-8300
▁huh	-8301
Birds	-8302
Black	-8303
alala	-8304
graph	-8305
paste	-8306
▁Nept	-8307
▁jazz	-8308
Beware	-8309
Conjun	-8310
During	-8311
Engine	-8312
Giving	-8313
Humans	-8314
Living	-8315
Really	-8316
Return	-8317
agious	-8318
arhart	-8319
arison	-8320
atomic	-8321
atures	-8322
aution	-8323
believ	-8324
canoes	-8325
endant	-8326
giving	-8327
icates	-8328
icting	-8329
ieties	-8330
igning	-8331
iology	-8332
ionate	-8333
iovasc	-8334
irtual	-8335
istory	-8336
itched	-8337
itudes	-8338
izable	-8339
llowed	-8340
minded	-8341
ocracy	-8342
ooping	-8343
orious	-8344
ounted	-8345
phants	-8346
ractor	-8347
radict	-8348
rients	-8349
safzai	-8350
saurus	-8351
sitter	-8352
uantum	-8353
uasive	-8354
ugging	-8355
ulated	-8356
unched	-8357
ursday	-8358
velope	-8359
▁Again	-8360
▁Asked	-8361
▁Books	-8362
▁Civil	-8363
▁Greek	-8364
▁Guten	-8365
▁Hello	-8366
▁Laser	-8367
▁Marie	-8368
▁Milky	-8369
▁Moral	-8370
▁Nobel	-8371
▁Parks	-8372
▁Prize	-8373
▁Stick	-8374
▁These	-8375
▁Truck	-8376
▁Watch	-8377
▁aimed	-8378
▁album	-8379
▁alkal	-8380
▁alter	-8381
▁angle	-8382
▁apron	-8383
▁array	-8384
▁aside	-8385
▁award	-8386
▁awoke	-8387
▁banks	-8388
▁bathe	-8389
▁belie	-8390
▁bloss	-8391
▁bound	-8392
▁broad	-8393
▁brows	-8394
▁budge	-8395
▁bumps	-8396
▁burns	-8397
▁burst	-8398
▁bushy	-8399
▁darl	-8400
▁glee	-8401
Report	-8402
ciples	-8403
dollar	-8404
gazing	-8405
hysics	-8406
ivotal	-8407
lymath	-8408
▁Alexa	-8409
▁Mahal	-8410
▁Sadly	-8411
▁Tokyo	-8412
▁buyer	-8413
▁cared	-8414
▁chore	-8415
▁clubs	-8416
▁cluck	-8417
▁clues	-8418
▁coach	-8419
▁credi	-8420
▁curry	-8421
▁curve	-8422
▁death	-8423
▁doubt	-8424
▁downs	-8425
▁draws	-8426
▁drums	-8427
▁etiqu	-8428
▁exams	-8429
▁faint	-8430
▁faith	-8431
▁feats	-8432
▁figur	-8433
▁films	-8434
▁final	-8435
▁flags	-8436
▁flips	-8437
▁fluff	-8438
▁fraud	-8439
▁fuels	-8440
▁fully	-8441
▁fuzzy	-8442
▁gasps	-8443
▁gills	-8444
▁glows	-8445
▁gonna	-8446
▁gotta	-8447
▁grade	-8448
▁gramm	-8449
▁grows	-8450
▁guide	-8451
▁guilt	-8452
▁hangs	-8453
▁hiked	-8454
▁hilar	-8455
▁homes	-8456
▁hooks	-8457
▁hopes	-8458
▁hyped	-8459
▁image	-8460
▁inbox	-8461
▁incor	-8462
▁infer	-8463
▁judge	-8464
▁knelt	-8465
▁knobs	-8466
▁lakes	-8467
▁leapt	-8468
▁lifts	-8469
▁links	-8470
▁lonel	-8471
▁loyal	-8472
▁lungs	-8473
▁marve	-8474
▁merry	-8475
▁moist	-8476
▁mower	-8477
▁newly	-8478
▁onion	-8479
▁outer	-8480
▁panda	-8481
▁pause	-8482
▁pearl	-8483
▁perch	-8484
▁petal	-8485
▁polar	-8486
▁poles	-8487
▁polit	-8488
▁pumps	-8489
▁quack	-8490
▁queue	-8491
▁reass	-8492
▁refer	-8493
▁rhyme	-8494
▁risks	-8495
▁ropes	-8496
▁roses	-8497
▁ruler	-8498
▁salon	-8499
▁saves	-8500
▁scams	-8501
▁scene	-8502
▁scent	-8503
▁seats	-8504
▁sewed	-8505
▁shame	-8506
▁sighs	-8507
▁slice	-8508
▁snuck	-8509
▁solid	-8510
▁spice	-8511
▁spill	-8512
▁spits	-8513
▁stall	-8514
▁stock	-8515
▁stole	-8516
▁swans	-8517
▁swell	-8518
▁talks	-8519
▁taped	-8520
▁taxes	-8521
▁tease	-8522
▁tempt	-8523
▁thump	-8524
▁trend	-8525
▁union	-8526
▁unner	-8527
▁unrel	-8528
▁untie	-8529
▁utens	-8530
▁vegan	-8531
▁verbs	-8532
▁views	-8533
▁wavel	-8534
▁worst	-8535
▁wound	-8536
▁zones	-8537
Adverbs	-8538
Despite	-8539
Feeling	-8540
Getting	-8541
Goodbye	-8542
Helping	-8543
Honesty	-8544
Leaving	-8545
Machine	-8546
Perhaps	-8547
Planets	-8548
Reading	-8549
Regular	-8550
Respect	-8551
Sharing	-8552
Turning	-8553
Walking	-8554
Welcome	-8555
brushes	-8556
eccable	-8557
etition	-8558
flowing	-8559
inating	-8560
inguish	-8561
iratory	-8562
irlpool	-8563
irstyle	-8564
loading	-8565
oculars	-8566
omantic	-8567
ossible	-8568
pending	-8569
ractice	-8570
telling	-8571
tenance	-8572
through	-8573
ulatory	-8574
▁Behind	-8575
▁Canada	-8576
▁Darwin	-8577
▁Desert	-8578
▁Follow	-8579
▁Galile	-8580
▁Gandhi	-8581
▁German	-8582
▁Hallow	-8583
▁Newton	-8584
▁Pretty	-8585
▁Rights	-8586
▁Shakes	-8587
▁Shapey	-8588
▁Whoosh	-8589
▁aching	-8590
▁acidic	-8591
▁adjust	-8592
▁adults	-8593
▁agenda	-8594
▁alarms	-8595
▁attack	-8596
▁attent	-8597
▁audiob	-8598
▁awhile	-8599
▁banged	-8600
▁begged	-8601
▁beings	-8602
▁blades	-8603
▁blouse	-8604
▁blurry	-8605
▁bowing	-8606
▁calcul	-8607
▁calmly	-8608
▁cancel	-8609
▁casser	-8610
▁chairs	-8611
▁chases	-8612
▁circus	-8613
▁cities	-8614
▁clears	-8615
▁clinic	-8616
▁cocked	-8617
▁column	-8618
▁comedy	-8619
▁cooled	-8620
▁cooper	-8621
▁correl	-8622
▁counts	-8623
▁coupon	-8624
▁covers	-8625
▁creaks	-8626
▁croiss	-8627
▁crossw	-8628
▁cuddly	-8629
▁darted	-8630
▁deeply	-8631
▁deform	-8632
▁depend	-8633
▁devast	-8634
▁dipped	-8635
▁drives	-8636
▁elders	-8637
▁encomp	-8638
▁expire	-8639
▁facing	-8640
▁female	-8641
▁filter	-8642
▁formal	-8643
▁genome	-8644
▁ghosts	-8645
▁gossip	-8646
▁growls	-8647
▁guided	-8648
▁hassle	-8649
▁imagin	-8650
▁immune	-8651
▁indigo	-8652
▁itches	-8653
▁juggle	-8654
▁knocks	-8655
▁lasted	-8656
▁length	-8657
▁litter	-8658
▁loving	-8659
▁mainly	-8660
▁malfun	-8661
▁mammal	-8662
▁master	-8663
▁meteor	-8664
▁method	-8665
▁misbeh	-8666
▁mortal	-8667
▁motive	-8668
▁muscle	-8669
▁nearer	-8670
▁neatly	-8671
▁nickel	-8672
▁occurs	-8673
▁offers	-8674
▁outing	-8675
▁paddle	-8676
▁parent	-8677
▁pedals	-8678
▁phenom	-8679
▁piling	-8680
▁pizzas	-8681
▁pollen	-8682
▁possib	-8683
▁potion	-8684
▁pouted	-8685
▁prayer	-8686
▁proton	-8687
▁quarre	-8688
▁refill	-8689
▁region	-8690
▁regist	-8691
▁review	-8692
▁rhythm	-8693
▁ridden	-8694
▁robots	-8695
▁rocked	-8696
▁rumble	-8697
▁rumors	-8698
▁scales	-8699
▁scored	-8700
▁shifts	-8701
▁shorts	-8702
▁shrunk	-8703
▁sights	-8704
▁simile	-8705
▁slices	-8706
▁sneaks	-8707
▁sneaky	-8708
▁sniffs	-8709
▁snooze	-8710
▁sorted	-8711
▁spills	-8712
▁squirt	-8713
▁stands	-8714
▁steady	-8715
▁stores	-8716
▁storms	-8717
▁stormy	-8718
▁strike	-8719
▁stuffy	-8720
▁swayed	-8721
▁tables	-8722
▁theore	-8723
▁threat	-8724
▁tickle	-8725
▁tilted	-8726
▁tissue	-8727
▁toilet	-8728
▁toward	-8729
▁trails	-8730
▁twelve	-8731
▁twisty	-8732
▁unable	-8733
▁united	-8734
▁unkind	-8735
▁unlike	-8736
▁upbeat	-8737
▁urgent	-8738
▁urging	-8739
▁valued	-8740
▁violet	-8741
▁waters	-8742
▁whilst	-8743
▁wiggle	-8744
▁within	-8745
Brushing	-8746
Cleaning	-8747
Consider	-8748
Critical	-8749
Medicine	-8750
Preposit	-8751
Pronouns	-8752
Tomorrow	-8753
Whenever	-8754
ensional	-8755
entially	-8756
erprints	-8757
essional	-8758
fficient	-8759
immering	-8760
jections	-8761
olcanoes	-8762
olitical	-8763
pervised	-8764
smelling	-8765
together	-8766
▁Because	-8767
▁Berners	-8768
▁Curious	-8769
▁Despite	-8770
▁Earhart	-8771
▁England	-8772
▁Excited	-8773
▁Lincoln	-8774
▁Mercury	-8775
▁Neptune	-8776
▁Perhaps	-8777
▁Station	-8778
▁Western	-8779
▁advance	-8780
▁adverbs	-8781
▁alcohol	-8782
▁answers	-8783
▁anticip	-8784
▁anxiety	-8785
▁apology	-8786
▁arrives	-8787
▁artists	-8788
▁avoided	-8789
▁awfully	-8790
▁bananas	-8791
▁bandage	-8792
▁beeping	-8793
▁beliefs	-8794
▁beloved	-8795
▁benefit	-8796
▁brushes	-8797
▁bundles	-8798
▁candies	-8799
▁carpets	-8800
▁casting	-8801
▁central	-8802
▁century	-8803
▁channel	-8804
▁chatted	-8805
▁cheated	-8806
▁cherish	-8807
▁choices	-8808
▁chooses	-8809
▁circled	-8810
▁clauses	-8811
▁cleaner	-8812
▁clicked	-8813
▁clucked	-8814
▁command	-8815
▁compost	-8816
▁conclud	-8817
▁contest	-8818
▁creates	-8819
▁crochet	-8820
▁details	-8821
▁digital	-8822
▁doctors	-8823
▁dollars	-8824
▁dragons	-8825
▁drawers	-8826
▁drifted	-8827
▁element	-8828
▁enemies	-8829
▁equator	-8830
▁expired	-8831
▁extract	-8832
▁failure	-8833
▁fallacy	-8834
▁faraway	-8835
▁farming	-8836
▁figures	-8837
▁flavors	-8838
▁flights	-8839
▁focused	-8840
▁focuses	-8841
▁footing	-8842
▁forests	-8843
▁forming	-8844
▁founder	-8845
▁genuine	-8846
▁giggles	-8847
▁goodies	-8848
▁grouchy	-8849
▁guessed	-8850
▁guitars	-8851
▁hallway	-8852
▁handing	-8853
▁hardest	-8854
▁hilltop	-8855
▁hottest	-8856
▁however	-8857
▁illumin	-8858
▁infants	-8859
▁initial	-8860
▁injured	-8861
▁insects	-8862
▁kinetic	-8863
▁kneeled	-8864
▁ladders	-8865
▁leading	-8866
▁lessons	-8867
▁licking	-8868
▁manager	-8869
▁matters	-8870
▁members	-8871
▁methods	-8872
▁migrate	-8873
▁neutral	-8874
▁neutron	-8875
▁organic	-8876
▁outfits	-8877
▁padlock	-8878
▁passing	-8879
▁peddled	-8880
▁pencils	-8881
▁pension	-8882
▁peppers	-8883
▁petting	-8884
▁physics	-8885
▁pickles	-8886
▁pioneer	-8887
▁pivotal	-8888
▁pleaded	-8889
▁pounced	-8890
▁praises	-8891
▁privacy	-8892
▁quieter	-8893
▁rabbits	-8894
▁raising	-8895
▁readily	-8896
▁recover	-8897
▁reduced	-8898
▁regions	-8899
▁related	-8900
▁resolve	-8901
▁respond	-8902
▁riddles	-8903
▁rotates	-8904
▁rumbled	-8905
▁rushing	-8906
▁rustled	-8907
▁sandals	-8908
▁savored	-8909
▁scolded	-8910
▁scooped	-8911
▁scooted	-8912
▁scooter	-8913
▁secured	-8914
▁senders	-8915
▁sensors	-8916
▁shorter	-8917
▁showers	-8918
▁singers	-8919
▁sisters	-8920
▁snuggle	-8921
▁softest	-8922
▁soldier	-8923
▁spatial	-8924
▁speaker	-8925
▁springs	-8926
▁squares	-8927
▁squishy	-8928
▁stamped	-8929
▁sunbeam	-8930
▁survive	-8931
▁sustain	-8932
▁swollen	-8933
▁swooped	-8934
▁tallest	-8935
▁tapping	-8936
▁targets	-8937
▁teaches	-8938
▁teacups	-8939
▁terrain	-8940
▁texture	-8941
▁ticking	-8942
▁tissues	-8943
▁toaster	-8944
▁tongues	-8945
▁tornado	-8946
▁trading	-8947
▁tunnels	-8948
▁uncover	-8949
▁uniting	-8950
▁unlucky	-8951
▁warming	-8952
▁weeping	-8953
▁whether	-8954
▁widened	-8955
▁winning	-8956
▁wrinkly	-8957
Elephants	-8958
Goodnight	-8959
Renewable	-8960
Sentences	-8961
Yesterday	-8962
avigation	-8963
mispheres	-8964
sychology	-8965
▁Birthday	-8966
▁Canadian	-8967
▁Canberra	-8968
▁European	-8969
▁Fighting	-8970
▁Granddad	-8971
▁Japanese	-8972
▁Johannes	-8973
▁Leonardo	-8974
▁Movement	-8975
▁Northern	-8976
▁Socrates	-8977
▁Southern	-8978
▁Thursday	-8979
▁Tuesdays	-8980
▁Wherever	-8981
▁antonyms	-8982
▁approval	-8983
▁artistic	-8984
▁assuming	-8985
▁attitude	-8986
▁audience	-8987
▁bacteria	-8988
▁bandages	-8989
▁bathrobe	-8990
▁bellowed	-8991
▁birdseed	-8992
▁blocking	-8993
▁breathed	-8994
▁campaign	-8995
▁campfire	-8996
▁captured	-8997
▁carefree	-8998
▁cavities	-8999
▁chambers	-9000
▁chapters	-9001
▁checkout	-9002
▁chugging	-9003
▁compares	-9004
▁concerts	-9005
▁consists	-9006
▁contacts	-9007
▁continue	-9008
▁contract	-9009
▁courtesy	-9010
▁covering	-9011
▁coworker	-9012
▁crashing	-9013
▁crouched	-9014
▁crystals	-9015
▁cultural	-9016
▁customer	-9017
▁darlings	-9018
▁deciding	-9019
▁deserved	-9020
▁desserts	-9021
▁detector	-9022
▁disagree	-9023
▁dividing	-9024
▁doorstep	-9025
▁dragging	-9026
▁dreadful	-9027
▁driveway	-9028
▁dropping	-9029
▁earrings	-9030
▁entrance	-9031
▁envelope	-9032
▁evenings	-9033
▁exchange	-9034
▁features	-9035
▁finances	-9036
▁firework	-9037
▁fluently	-9038
▁forgives	-9039
▁freshest	-9040
▁galaxies	-9041
▁gestures	-9042
▁handmade	-9043
▁handsome	-9044
▁handyman	-9045
▁hesitant	-9046
▁hideaway	-9047
▁homeless	-9048
▁homemade	-9049
▁hungrily	-9050
▁hurrying	-9051
▁infected	-9052
▁insights	-9053
▁inspired	-9054
▁intended	-9055
▁interior	-9056
▁involved	-9057
▁isolated	-9058
▁junkyard	-9059
▁landlord	-9060
▁markings	-9061
▁marriage	-9062
▁meetings	-9063
▁metaphor	-9064
▁millions	-9065
▁misplace	-9066
▁monsters	-9067
▁national	-9068
▁newfound	-9069
▁noticing	-9070
▁observed	-9071
▁offering	-9072
▁openings	-9073
▁outdated	-9074
▁overcome	-9075
▁overload	-9076
▁particip	-9077
▁periodic	-9078
▁platform	-9079
▁playlist	-9080
▁playroom	-9081
▁politely	-9082
▁polymath	-9083
▁position	-9084
▁possibly	-9085
▁pounding	-9086
▁premises	-9087
▁prettier	-9088
▁procrast	-9089
▁produces	-9090
▁products	-9091
▁promises	-9092
▁promotes	-9093
▁pronouns	-9094
▁property	-9095
▁proposed	-9096
▁protects	-9097
▁provider	-9098
▁purposes	-9099
▁quietest	-9100
▁rainbows	-9101
▁randomly	-9102
▁reaching	-9103
▁reflects	-9104
▁register	-9105
▁restroom	-9106
▁sausages	-9107
▁settings	-9108
▁skeletal	-9109
▁sleepier	-9110
▁smelling	-9111
▁smoothie	-9112
▁smoothly	-9113
▁sneakers	-9114
▁soothing	-9115
▁souvenir	-9116
▁speakers	-9117
▁speeding	-9118
▁spoilage	-9119
▁spoiling	-9120
▁spraying	-9121
▁squeezed	-9122
▁stealing	-9123
▁strongly	-9124
▁students	-9125
▁suffered	-9126
▁surfaces	-9127
▁sweetest	-9128
▁swimsuit	-9129
▁synonyms	-9130
▁teenager	-9131
▁thanking	-9132
▁thorough	-9133
▁tickling	-9134
▁trainers	-9135
▁twinkled	-9136
▁unbeliev	-9137
▁utensils	-9138
▁worrying	-9139
▁wrapping	-9140
Adjectives	-9141
Respecting	-9142
iovascular	-9143
romagnetic	-9144
▁Alexander	-9145
▁Everybody	-9146
▁Gutenberg	-9147
▁Halloween	-9148
▁Instantly	-9149
▁Yousafzai	-9150
▁achieving	-9151
▁amazingly	-9152
▁assertive	-9153
▁assistant	-9154
▁astronomy	-9155
▁balancing	-9156
▁behaviour	-9157
▁bracelets	-9158
▁breathing	-9159
▁bubblegum	-9160
▁casserole	-9161
▁chemicals	-9162
▁cloudless	-9163
▁clutching	-9164
▁committed	-9165
▁conducted	-9166
▁conductor	-9167
▁conflicts	-9168
▁confusing	-9169
▁confusion	-9170
▁container	-9171
▁crunching	-9172
▁decreases	-9173
▁dedicated	-9174
▁defendant	-9175
▁describes	-9176
▁detectors	-9177
▁digestive	-9178
▁disappear	-9179
▁discussed	-9180
▁displayed	-9181
▁elsewhere	-9182
▁enjoyable	-9183
▁etiquette	-9184
▁exercises	-9185
▁existence	-9186
▁fictional	-9187
▁gratitude	-9188
▁hairstyle	-9189
▁hesitated	-9190
▁hilarious	-9191
▁imaginary	-9192
▁improving	-9193
▁indicates	-9194
▁infection	-9195
▁influence	-9196
▁inherited	-9197
▁inspiring	-9198
▁instantly	-9199
▁logically	-9200
▁mausoleum	-9201
▁narrative	-9202
▁necklaces	-9203
▁nervously	-9204
▁nutrients	-9205
▁operating	-9206
▁organiser	-9207
▁overgrown	-9208
▁paragraph	-9209
▁permitted	-9210
▁physician	-9211
▁pollinate	-9212
▁postponed	-9213
▁practices	-9214
▁preferred	-9215
▁president	-9216
▁processed	-9217
▁providing	-9218
▁recording	-9219
▁refracted	-9220
▁relatives	-9221
▁releasing	-9222
▁repairman	-9223
▁requested	-9224
▁resources	-9225
▁respected	-9226
▁seatbelts	-9227
▁seriously	-9228
▁shivering	-9229
▁situation	-9230
▁societies	-9231
▁spaceship	-9232
▁spacetime	-9233
▁streamers	-9234
▁stressful	-9235
▁subatomic	-9236
▁succeeded	-9237
▁sunburned	-9238
▁teachings	-9239
▁terrified	-9240
▁therapist	-9241
▁thesaurus	-9242
▁thousands	-9243
▁universal	-9244
▁unnerving	-9245
▁whirlpool	-9246
Agriculture	-9247
Engineering	-9248
Punctuation	-9249
dimensional	-9250
▁Antarctica	-9251
▁Industrial	-9252
▁Revolution	-9253
▁adjectives	-9254
▁annoyingly	-9255
▁artificial	-9256
▁assignment	-9257
▁babysitter	-9258
▁background	-9259
▁binoculars	-9260
▁cheerfully	-9261
▁comparison	-9262
▁complained	-9263
▁conditions	-9264
▁connecting	-9265
▁consistent	-9266
▁contagious	-9267
▁continuous	-9268
▁crosswalks	-9269
▁definitive	-9270
▁department	-9271
▁discarding	-9272
▁discussing	-9273
▁ecosystems	-9274
▁encouraged	-9275
▁expressing	-9276
▁expression	-9277
▁formulated	-9278
▁functional	-9279
▁guidelines	-9280
▁healthcare	-9281
▁historical	-9282
▁impeccable	-9283
▁impossible	-9284
▁insightful	-9285
▁intriguing	-9286
▁landscapes	-9287
▁loneliness	-9288
▁management	-9289
▁nightstand	-9290
▁passionate	-9291
▁persuasive	-9292
▁philosophy	-9293
▁pioneering	-9294
▁possession	-9295
▁precaution	-9296
▁predicting	-9297
▁principles	-9298
▁purchasing	-9299
▁reasonable	-9300
▁relativity	-9301
▁remarkable	-9302
▁renovating	-9303
▁resolution	-9304
▁retirement	-9305
▁sandcastle	-9306
▁scratching	-9307
▁silverware	-9308
▁smartphone	-9309
▁stargazing	-9310
▁stationery	-9311
▁stretching	-9312
▁structural	-9313
▁surrounded	-9314
▁toothpaste	-9315
▁travelling	-9316
▁underneath	-9317
▁unemployed	-9318
▁unreliable	-9319
▁victorious	-9320
▁wavelength	-9321
▁weightless	-9322
Conjunctions	-9323
Prepositions	-9324
▁Shakespeare	-9325
▁antibiotics	-9326
▁application	-9327
▁approaching	-9328
▁assignments	-9329
▁attentively	-9330
▁authorities	-9331
▁celebrating	-9332
▁celebration	-9333
▁circulatory	-9334
▁considerate	-9335
▁considering	-9336
▁contributes	-9337
▁correlation	-9338
▁definitions	-9339
▁devastating	-9340
▁development	-9341
▁differences	-9342
▁discoveries	-9343
▁distinguish	-9344
▁experienced	-9345
▁experiences	-9346
▁exploration	-9347
▁hemispheres	-9348
▁institution	-9349
▁maintenance	-9350
▁malfunction	-9351
▁mountaintop	-9352
▁necessarily	-9353
▁objectively	-9354
▁originating	-9355
▁overflowing	-9356
▁overwhelmed	-9357
▁preferences	-9358
▁renovations	-9359
▁respiratory	-9360
▁responsibly	-9361
▁sustainable	-9362
▁underground	-9363
▁understands	-9364
▁vertebrates	-9365
Interjections	-9366
▁Thanksgiving	-9367
▁appreciative	-9368
▁biodiversity	-9369
▁breakthrough	-9370
▁consequences	-9371
▁enthusiastic	-9372
▁fingerprints	-9373
▁independence	-9374
▁overspending	-9375
▁paintbrushes	-9376
▁particularly	-9377
▁professional	-9378
▁receptionist	-9379
▁recognizable	-9380
▁registration	-9381
▁satisfaction	-9382
▁storytelling	-9383
▁temperatures	-9384
▁transactions	-9385
▁unbelievably	-9386
▁unsupervised	-9387
Constellations	-9388
▁International	-9389
▁determination	-9390
▁embarrassment	-9391
▁entertainment	-9392
▁gravitational	-9393
▁notifications	-9394
▁possibilities	-9395
▁relationships	-9396
▁statistically	-9397
▁accomplishment	-9398
▁breathtakingly	-9399
▁cardiovascular	-9400
▁identification	-9401
▁representation	-9402
▁representative	-9403
▁electromagnetic	-9404
!;	-9405
!’	-9406
";	-9407
-"	-9408
?!	-9409
?’	-9410
AI	-9411
AM	-9412
AN	-9413
AT	-9414
Ap	-9415
CR	-9416
Co	-9417
Cy	-9418
Ds	-9419
EC	-9420
Ec	-9421
Ed	-9422
Ev	-9423
Fl	-9424
Ge	-9425
Gr	-9426
Hy	-9427
IS	-9428
Li	-9429
Lo	-9430
Ma	-9431
OT	-9432
PS	-9433
Po	-9434
Ro	-9435
SD	-9436
SE	-9437
SR	-9438
Sc	-9439
Sk	-9440
Sy	-9441
]"	-9442
bu	-9443
eg	-9444
fi	-9445
gg	-9446
gt	-9447
hD	-9448
ha	-9449
hh	-9450
ho	-9451
ij	-9452
ka	-9453
kn	-9454
lm	-9455
ls	-9456
pi	-9457
py	-9458
rb	-9459
rd	-9460
uf	-9461
va	-9462
vi	-9463
wa	-9464
wk	-9465
wn	-9466
yd	-9467
'?"	-9468
ATO	-9469
Acc	-9470
Agn	-9471
App	-9472
Bet	-9473
Bra	-9474
Bug	-9475
Cap	-9476
Che	-9477
Cow	-9478
Dep	-9479
Dou	-9480
Dry	-9481
Due	-9482
End	-9483
Fun	-9484
Got	-9485
Hig	-9486
Isn	-9487
Jen	-9488
Joh	-9489
Lem	-9490
Mat	-9491
Met	-9492
Mic	-9493
Mig	-9494
Mon	-9495
Moo	-9496
Mop	-9497
Num	-9498
PEC	-9499
Hot	-9500
Pat	-9501
Pen	-9502
Pop	-9503
Rec	-9504
Red	-9505
SAP	-9506
Ser	-9507
Sir	-9508
Sym	-9509
Tem	-9510
Tig	-9511
Too	-9512
Win	-9513
Woo	-9514
ali	-9515
ami	-9516
anu	-9517
anw	-9518
aut	-9519
bid	-9520
but	-9521
cad	-9522
cin	-9523
cot	-9524
ded	-9525
din	-9526
eat	-9527
eef	-9528
ees	-9529
emy	-9530
erk	-9531
erm	-9532
eru	-9533
esp	-9534
eto	-9535
far	-9536
for	-9537
gom	-9538
gor	-9539
hoo	-9540
idi	-9541
igy	-9542
ilm	-9543
imb	-9544
ims	-9545
imy	-9546
itu	-9547
jar	-9548
kah	-9549
kew	-9550
kle	-9551
lan	-9552
lar	-9553
lig	-9554
lon	-9555
lor	-9556
lyt	-9557
mit	-9558
new	-9559
nif	-9560
nis	-9561
nut	-9562
oes	-9563
omo	-9564
oni	-9565
onk	-9566
oos	-9567
orb	-9568
otc	-9569
oti	-9570
par	-9571
phe	-9572
por	-9573
ran	-9574
raz	-9575
rem	-9576
rer	-9577
rey	-9578
rid	-9579
sen	-9580
sis	-9581
tim	-9582
tra	-9583
uan	-9584
ulf	-9585
ulp	-9586
uls	-9587
unc	-9588
uol	-9589
ura	-9590
utn	-9591
vag	-9592
vey	-9593
vis	-9594
war	-9595
wit	-9596
yes	-9597
zes	-9598
▁En	-9599
Bad	-9600
Rel	-9601
Ros	-9602
Run	-9603
cha	-9604
chu	-9605
ddy	-9606
och	-9607
ria	-9608
riz	-9609
sto	-9610
str	-9611
▁Ar	-9612
▁Ig	-9613
▁Te	-9614
▁ah	-9615
▁cy	-9616
▁dy	-9617
▁ge	-9618
▁hu	-9619
▁na	-9620
▁nu	-9621
▁oo	-9622
▁ri	-9623
▁wi	-9624
CRIS	-9625
Chem	-9626
Comp	-9627
Conc	-9628
Dark	-9629
Deal	-9630
Dear	-9631
Dipl	-9632
Down	-9633
Dust	-9634
Elly	-9635
Ener	-9636
Hear	-9637
Infl	-9638
John	-9639
Long	-9640
Mama	-9641
Miss	-9642
Near	-9643
Nice	-9644
Over	-9645
Pack	-9646
Prov	-9647
Rosa	-9648
Sear	-9649
Send	-9650
Sort	-9651
Soup	-9652
Sour	-9653
Spid	-9654
Ther	-9655
Wipe	-9656
achu	-9657
acle	-9658
adan	-9659
alls	-9660
amat	-9661
amel	-9662
anze	-9663
aple	-9664
arin	-9665
arre	-9666
asma	-9667
asta	-9668
asty	-9669
atra	-9670
aves	-9671
band	-9672
bank	-9673
boys	-9674
byes	-9675
char	-9676
chit	-9677
ckly	-9678
clop	-9679
dily	-9680
ding	-9681
earn	-9682
edly	-9683
eent	-9684
elle	-9685
enal	-9686
ener	-9687
esus	-9688
eves	-9689
felt	-9690
four	-9691
hend	-9692
hrop	-9693
icit	-9694
idis	-9695
igid	-9696
imul	-9697
inct	-9698
indu	-9699
Cry	-9700
Mia	-9701
bee	-9702
ili	-9703
pap	-9704
pro	-9705
▁Bo	-9706
▁ic	-9707
Exit	-9708
Then	-9709
etry	-9710
ftop	-9711
igra	-9712
ilit	-9713
inal	-9714
ingo	-9715
ints	-9716
iren	-9717
isms	-9718
istr	-9719
iten	-9720
ithe	-9721
itts	-9722
iven	-9723
izer	-9724
kens	-9725
kked	-9726
lden	-9727
lean	-9728
lely	-9729
lers	-9730
lims	-9731
loos	-9732
lore	-9733
mill	-9734
miss	-9735
ndma	-9736
odes	-9737
olos	-9738
omat	-9739
ongr	-9740
ooey	-9741
oose	-9742
opic	-9743
opoe	-9744
orch	-9745
orit	-9746
orns	-9747
oser	-9748
otic	-9749
otle	-9750
ours	-9751
oust	-9752
pera	-9753
pher	-9754
phew	-9755
phib	-9756
pond	-9757
pour	-9758
pper	-9759
pret	-9760
rant	-9761
real	-9762
rine	-9763
riot	-9764
rium	-9765
roso	-9766
seas	-9767
sell	-9768
sily	-9769
suit	-9770
term	-9771
that	-9772
thod	-9773
ties	-9774
tock	-9775
uack	-9776
uddh	-9777
ulbs	-9778
ulls	-9779
umph	-9780
umul	-9781
upid	-9782
upts	-9783
urdy	-9784
urea	-9785
usal	-9786
utal	-9787
wood	-9788
zier	-9789
▁...	-9790
▁Bad	-9791
▁Bap	-9792
▁Bat	-9793
▁Bee	-9794
▁CDs	-9795
▁Che	-9796
▁Coo	-9797
▁Eat	-9798
▁Eid	-9799
Amy	-9800
Off	-9801
Sur	-9802
eas	-9803
ecd	-9804
hop	-9805
ssy	-9806
Blue	-9807
From	-9808
Hard	-9809
Hide	-9810
Hope	-9811
Save	-9812
abra	-9813
card	-9814
easy	-9815
ecul	-9816
efic	-9817
isob	-9818
mate	-9819
rism	-9820
tole	-9821
▁Add	-9822
▁Aut	-9823
▁Fle	-9824
▁Fun	-9825
▁Ham	-9826
▁Los	-9827
▁Lut	-9828
▁MOT	-9829
▁Mac	-9830
▁Mar	-9831
▁Mic	-9832
▁Muh	-9833
▁Mus	-9834
▁Rat	-9835
▁Sat	-9836
▁Sig	-9837
▁Sov	-9838
▁Spl	-9839
▁Ton	-9840
▁Tow	-9841
▁Wid	-9842
▁aer	-9843
▁aro	-9844
▁baa	-9845
▁bam	-9846
▁bey	-9847
▁bid	-9848
▁biz	-9849
▁ble	-9850
▁dam	-9851
▁den	-9852
▁doe	-9853
▁dot	-9854
▁eer	-9855
▁ell	-9856
▁fee	-9857
▁fle	-9858
▁fry	-9859
▁gel	-9860
▁god	-9861
▁gor	-9862
▁gri	-9863
▁gut	-9864
▁hob	-9865
▁ick	-9866
▁ine	-9867
▁inn	-9868
▁ket	-9869
▁mas	-9870
▁mei	-9871
▁mob	-9872
▁mol	-9873
▁moo	-9874
▁mur	-9875
▁ner	-9876
▁oar	-9877
▁pun	-9878
▁raw	-9879
▁ray	-9880
▁ric	-9881
▁rit	-9882
▁sug	-9883
▁tac	-9884
▁tan	-9885
▁ted	-9886
▁tik	-9887
▁tin	-9888
▁tul	-9889
▁unr	-9890
▁via	-9891
▁voy	-9892
▁wan	-9893
▁wax	-9894
▁wil	-9895
▁yay	-9896
Bears	-9897
Block	-9898
Bunny	-9899
Dem	-9900
gel	-9901
uel	-9902
▁Jr	-9903
Book	-9904
File	-9905
alif	-9906
ardy	-9907
elow	-9908
iful	-9909
nock	-9910
roly	-9911
seum	-9912
then	-9913
ugee	-9914
when	-9915
▁Jew	-9916
▁Sum	-9917
▁cas	-9918
▁yum	-9919
Cleop	-9920
Cyber	-9921
Empty	-9922
Every	-9923
Frank	-9924
Genes	-9925
Genet	-9926
Isaac	-9927
Islam	-9928
Jimmy	-9929
Molly	-9930
Never	-9931
Peter	-9932
Stand	-9933
Taste	-9934
Words	-9935
acing	-9936
acuum	-9937
adily	-9938
ading	-9939
agger	-9940
agull	-9941
ained	-9942
allel	-9943
alyst	-9944
aming	-9945
ancip	-9946
arded	-9947
arify	-9948
asers	-9949
ashed	-9950
asier	-9951
ategy	-9952
bbers	-9953
bbies	-9954
being	-9955
bread	-9956
burgh	-9957
burnt	-9958
cally	-9959
chids	-9960
cking	-9961
coons	-9962
culpt	-9963
eaked	-9964
eetho	-9965
ening	-9966
ephen	-9967
erals	-9968
ermat	-9969
erted	-9970
ertop	-9971
estry	-9972
eying	-9973
fense	-9974
flour	-9975
forms	-9976
grass	-9977
guard	-9978
heast	-9979
hener	-9980
heres	-9981
htime	-9982
iator	-9983
ibbit	-9984
icill	-9985
icism	-9986
idiom	-9987
ilant	-9988
inder	-9989
indus	-9990
inged	-9991
ingly	-9992
inity	-9993
ioned	-9994
ishly	-9995
isted	-9996
istry	-9997
ithms	-9998
liged	-9999
'."	-10000
?”.	-10001
Hip	-10002
rrr	-10003
rus	-10004
Rrrr	-10005
Sand	-10006
Sign	-10007
Test	-10008
abor	-10009
atus	-10010
cure	-10011
eget	-10012
orus	-10013
rong	-10014
stop	-10015
▁Bab	-10016
▁Ram	-10017
▁Wor	-10018
▁eth	-10019
▁faw	-10020
▁tab	-10021
▁ven	-10022
Lemon	-10023
Pengu	-10024
Sally	-10025
Whose	-10026
hadow	-10027
hetic	-10028
irmed	-10029
ishes	-10030
izzle	-10031
lungs	-10032
nolog	-10033
ocate	-10034
ogram	-10035
olent	-10036
olish	-10037
omacy	-10038
omies	-10039
ongol	-10040
onial	-10041
ooked	-10042
ooshy	-10043
oping	-10044
ornia	-10045
orous	-10046
oting	-10047
paved	-10048
perbo	-10049
provo	-10050
raham	-10051
raine	-10052
reech	-10053
reted	-10054
romat	-10055
roven	-10056
shoot	-10057
start	-10058
ucker	-10059
ufact	-10060
ukkah	-10061
unted	-10062
urner	-10063
usten	-10064
uster	-10065
uting	-10066
veled	-10067
versa	-10068
years	-10069
▁ASAP	-10070
▁Alas	-10071
▁Baro	-10072
▁Bars	-10073
▁Bell	-10074
▁Bull	-10075
▁Chic	-10076
▁Cone	-10077
▁Crow	-10078
▁Duol	-10079
▁Expl	-10080
▁Fart	-10081
▁Mond	-10082
▁OPEC	-10083
▁Over	-10084
▁Phew	-10085
▁Russ	-10086
▁Scot	-10087
▁Sort	-10088
▁Tape	-10089
▁Wake	-10090
▁Webb	-10091
▁Wond	-10092
▁Word	-10093
▁Year	-10094
▁acce	-10095
▁adap	-10096
▁aims	-10097
▁ajar	-10098
▁alli	-10099
?!”	-10100
Add	-10101
Boy	-10102
---"	-10103
Aest	-10104
Cook	-10105
Mail	-10106
Rest	-10107
Wave	-10108
awsh	-10109
eels	-10110
elty	-10111
eret	-10112
estr	-10113
knot	-10114
nite	-10115
peak	-10116
swer	-10117
west	-10118
▁GPS	-10119
Clear	-10120
Polyt	-10121
Silly	-10122
Speak	-10123
ademy	-10124
celed	-10125
child	-10126
cient	-10127
ellry	-10128
estri	-10129
nning	-10130
onant	-10131
owned	-10132
ucius	-10133
uelty	-10134
ulate	-10135
urate	-10136
▁Fort	-10137
▁arch	-10138
▁argh	-10139
▁argu	-10140
▁bled	-10141
▁blur	-10142
▁bold	-10143
▁boyc	-10144
▁brag	-10145
▁bust	-10146
▁buys	-10147
▁cany	-10148
▁cert	-10149
▁cola	-10150
▁copy	-10151
▁coug	-10152
▁cous	-10153
▁cuts	-10154
▁defe	-10155
▁dict	-10156
▁ding	-10157
▁elab	-10158
▁emph	-10159
▁ency	-10160
▁ende	-10161
▁funn	-10162
▁gown	-10163
▁gras	-10164
▁heli	-10165
▁hock	-10166
▁hood	-10167
▁hous	-10168
▁icky	-10169
▁imit	-10170
▁inan	-10171
▁jing	-10172
▁keen	-10173
▁lava	-10174
▁lave	-10175
▁lays	-10176
▁lied	-10177
▁loss	-10178
▁lung	-10179
▁mand	-10180
▁meme	-10181
▁mend	-10182
▁misf	-10183
▁mism	-10184
▁naps	-10185
▁neur	-10186
▁nour	-10187
▁nutr	-10188
▁nuzz	-10189
▁oink	-10190
▁outp	-10191
▁outs	-10192
▁owls	-10193
▁pace	-10194
▁pail	-10195
▁peep	-10196
▁pest	-10197
▁pigs	-10198
▁plot	-10199
!,"	-10200
Joe	-10201
New	-10202
Sue	-10203
Ahhh	-10204
Even	-10205
SEAN	-10206
dist	-10207
mess	-10208
mist	-10209
osal	-10210
tist	-10211
▁Blu	-10212
▁CPR	-10213
▁Dec	-10214
▁Din	-10215
Creat	-10216
althy	-10217
apart	-10218
blind	-10219
eenth	-10220
icial	-10221
icist	-10222
irrit	-10223
namon	-10224
oving	-10225
pleas	-10226
▁adds	-10227
▁amen	-10228
▁coop	-10229
▁enab	-10230
▁ench	-10231
▁gogg	-10232
▁null	-10233
▁pins	-10234
▁plun	-10235
▁pose	-10236
▁qual	-10237
▁rack	-10238
▁rasp	-10239
▁reck	-10240
▁reli	-10241
▁rips	-10242
▁rosy	-10243
▁rubb	-10244
▁sake	-10245
▁scow	-10246
▁scri	-10247
▁shak	-10248
▁shes	-10249
▁silk	-10250
▁sits	-10251
▁smug	-10252
▁spam	-10253
▁sped	-10254
▁spic	-10255
▁ster	-10256
▁sunk	-10257
▁swip	-10258
▁tale	-10259
▁tect	-10260
▁tedd	-10261
▁temp	-10262
▁thaw	-10263
▁thim	-10264
▁thud	-10265
▁ties	-10266
▁till	-10267
▁tons	-10268
▁tops	-10269
▁trim	-10270
▁tumm	-10271
▁vers	-10272
▁vice	-10273
▁wadd	-10274
▁welf	-10275
▁whim	-10276
▁yelp	-10277
▁yuck	-10278
Albert	-10279
Answer	-10280
CRISPR	-10281
Cancel	-10282
Faster	-10283
Follow	-10284
French	-10285
Inform	-10286
Litter	-10287
Little	-10288
Microw	-10289
Nearly	-10290
Newton	-10291
Paying	-10292
School	-10293
Sounds	-10294
Spread	-10295
Symmet	-10296
Trying	-10297
achute	-10298
aciers	-10299
?'.	-10300
Myth	-10301
aism	-10302
hips	-10303
this	-10304
▁Pak	-10305
▁daw	-10306
Bless	-10307
Class	-10308
Langu	-10309
Lions	-10310
Mahat	-10311
Think	-10312
Young	-10313
berry	-10314
cases	-10315
enuse	-10316
usses	-10317
▁Ange	-10318
▁Bang	-10319
▁dawn	-10320
▁eval	-10321
▁hasn	-10322
▁navy	-10323
▁tang	-10324
amonds	-10325
amping	-10326
anging	-10327
antial	-10328
ardens	-10329
arthqu	-10330
assing	-10331
astful	-10332
atches	-10333
athing	-10334
cedure	-10335
ectual	-10336
eeking	-10337
erally	-10338
ercise	-10339
ersive	-10340
eteria	-10341
etooth	-10342
father	-10343
flakes	-10344
friend	-10345
ftware	-10346
geting	-10347
gomery	-10348
handed	-10349
hetics	-10350
houses	-10351
ictive	-10352
iggles	-10353
ighter	-10354
ikhism	-10355
imbing	-10356
inding	-10357
ionism	-10358
isible	-10359
istani	-10360
istics	-10361
itique	-10362
iverse	-10363
lessly	-10364
leting	-10365
masses	-10366
nation	-10367
ndered	-10368
ntable	-10369
olding	-10370
ontext	-10371
ooling	-10372
ooshed	-10373
oplasm	-10374
orders	-10375
otiate	-10376
oustic	-10377
parent	-10378
pecial	-10379
phithe	-10380
prised	-10381
ptions	-10382
rehend	-10383
rences	-10384
ricity	-10385
riever	-10386
rosoft	-10387
stable	-10388
stress	-10389
turner	-10390
udaism	-10391
uffled	-10392
uisher	-10393
unting	-10394
ureate	-10395
urious	-10396
urizer	-10397
verted	-10398
vertis	-10399
ago	-10400
sia	-10401
tak	-10402
Harm	-10403
Mary	-10404
Rept	-10405
beth	-10406
bulb	-10407
edia	-10408
ians	-10409
mary	-10410
uble	-10411
▁cuc	-10412
▁rip	-10413
▁unf	-10414
Begin	-10415
Paper	-10416
affes	-10417
aries	-10418
axing	-10419
edity	-10420
gages	-10421
ipher	-10422
kewed	-10423
ooner	-10424
oston	-10425
taker	-10426
tough	-10427
water	-10428
▁Fair	-10429
▁Fuel	-10430
▁adop	-10431
▁cape	-10432
▁folk	-10433
▁glob	-10434
▁grim	-10435
▁prog	-10436
▁slap	-10437
▁unal	-10438
▁unhe	-10439
▁unri	-10440
▁vary	-10441
Bacter	-10442
Better	-10443
George	-10444
Sooner	-10445
encing	-10446
ivirus	-10447
making	-10448
mental	-10449
ulting	-10450
urasia	-10451
▁ASEAN	-10452
▁Agath	-10453
▁Andes	-10454
▁Being	-10455
▁Boats	-10456
▁Calif	-10457
▁Disob	-10458
▁Gates	-10459
▁Hours	-10460
▁House	-10461
▁Hurry	-10462
▁Jains	-10463
▁Jesus	-10464
▁Meanw	-10465
▁Procl	-10466
▁Spots	-10467
▁Steve	-10468
▁Sugar	-10469
▁Trust	-10470
▁Water	-10471
▁Whale	-10472
▁agent	-10473
▁alley	-10474
▁appli	-10475
▁autom	-10476
▁beaks	-10477
▁beers	-10478
▁begun	-10479
▁birth	-10480
▁blink	-10481
▁blobs	-10482
▁blown	-10483
▁bonds	-10484
▁bootc	-10485
▁booth	-10486
▁bowls	-10487
▁bravo	-10488
▁canal	-10489
▁canes	-10490
▁capab	-10491
▁cares	-10492
▁carve	-10493
▁champ	-10494
▁chimp	-10495
▁chlor	-10496
▁chron	-10497
▁chuck	-10498
▁clink	-10499
Owl	-10500
East	-10501
Rock	-10502
Woof	-10503
helf	-10504
ipit	-10505
ipse	-10506
page	-10507
sock	-10508
tics	-10509
ulty	-10510
urps	-10511
▁Gem	-10512
Monot	-10513
ators	-10514
ffled	-10515
ilage	-10516
imals	-10517
nthes	-10518
▁Moon	-10519
▁Pres	-10520
▁flip	-10521
Malala	-10522
antity	-10523
clipse	-10524
enment	-10525
iative	-10526
ietnam	-10527
iously	-10528
▁apply	-10529
▁ashes	-10530
▁burps	-10531
▁cakes	-10532
▁coast	-10533
▁coils	-10534
▁daisy	-10535
▁dates	-10536
▁decaf	-10537
▁depth	-10538
▁dinos	-10539
▁disap	-10540
▁disch	-10541
▁disor	-10542
▁dodge	-10543
▁donut	-10544
▁dozed	-10545
▁dying	-10546
▁dynam	-10547
▁edges	-10548
▁endoc	-10549
▁enemy	-10550
▁entro	-10551
▁equil	-10552
▁expon	-10553
▁fawns	-10554
▁fract	-10555
▁fumes	-10556
▁girls	-10557
▁glimp	-10558
▁grant	-10559
▁gross	-10560
▁grump	-10561
▁hates	-10562
▁hence	-10563
▁icing	-10564
▁idiom	-10565
▁inert	-10566
▁innov	-10567
▁insul	-10568
▁kicks	-10569
▁kites	-10570
▁knots	-10571
▁laggy	-10572
▁lamps	-10573
▁lasts	-10574
▁leads	-10575
▁leafy	-10576
▁menus	-10577
▁moled	-10578
▁moody	-10579
▁nasty	-10580
▁nests	-10581
▁north	-10582
▁nowad	-10583
▁outst	-10584
▁pairs	-10585
▁parks	-10586
▁pesos	-10587
▁phara	-10588
▁piled	-10589
▁plugs	-10590
▁plump	-10591
▁plush	-10592
▁poems	-10593
▁pokes	-10594
▁popul	-10595
▁pride	-10596
▁rakes	-10597
▁range	-10598
▁remod	-10599
▁RS	-10600
Econ	-10601
Gott	-10602
Nope	-10603
▁Pic	-10604
▁Rep	-10605
First	-10606
Gotta	-10607
Mount	-10608
Ready	-10609
Surpr	-10610
arled	-10611
arles	-10612
ctors	-10613
pered	-10614
wheat	-10615
▁Care	-10616
▁Race	-10617
▁Tiny	-10618
▁deed	-10619
▁furt	-10620
▁hops	-10621
▁hype	-10622
▁perj	-10623
▁robe	-10624
▁ruin	-10625
▁snug	-10626
Econom	-10627
amount	-10628
gthens	-10629
luding	-10630
▁Spain	-10631
▁badge	-10632
▁batch	-10633
▁joked	-10634
▁nonvi	-10635
▁reper	-10636
▁rider	-10637
▁rigid	-10638
▁ripen	-10639
▁risky	-10640
▁roast	-10641
▁roles	-10642
▁rungs	-10643
▁runny	-10644
▁scour	-10645
▁scrap	-10646
▁sells	-10647
▁shred	-10648
▁shyly	-10649
▁simpl	-10650
▁sinks	-10651
▁siren	-10652
▁sized	-10653
▁skate	-10654
▁skies	-10655
▁slimy	-10656
▁slugg	-10657
▁smelt	-10658
▁spear	-10659
▁speck	-10660
▁spied	-10661
▁spine	-10662
▁spont	-10663
▁spurt	-10664
▁stare	-10665
▁stash	-10666
▁stool	-10667
▁stung	-10668
▁suite	-10669
▁suppl	-10670
▁swall	-10671
▁terms	-10672
▁tiger	-10673
▁toler	-10674
▁tombs	-10675
▁tramp	-10676
▁troll	-10677
▁tucks	-10678
▁unint	-10679
▁unity	-10680
▁vague	-10681
▁vivid	-10682
▁warms	-10683
▁wheat	-10684
▁wills	-10685
▁winds	-10686
▁woken	-10687
▁yawns	-10688
▁yells	-10689
▁youth	-10690
Abraham	-10691
Animals	-10692
Backing	-10693
Biology	-10694
Charles	-10695
Culture	-10696
Driving	-10697
Earthqu	-10698
Finally	-10699
Fog	-10700
Log	-10701
eys	-10702
Emma	-10703
inng	-10704
maic	-10705
ogen	-10706
Human	-10707
Logic	-10708
ogged	-10709
soles	-10710
solve	-10711
tical	-10712
▁Wars	-10713
▁Wash	-10714
▁asso	-10715
▁cran	-10716
▁grey	-10717
▁loaf	-10718
▁musc	-10719
▁rash	-10720
Person	-10721
Rhythm	-10722
aneous	-10723
atical	-10724
eeping	-10725
ilated	-10726
imated	-10727
iruses	-10728
itance	-10729
usions	-10730
▁Merry	-10731
▁Story	-10732
▁Whose	-10733
▁anecd	-10734
▁buddy	-10735
▁crypt	-10736
▁draft	-10737
▁drier	-10738
▁franc	-10739
▁magma	-10740
▁meets	-10741
▁melts	-10742
▁rocky	-10743
▁shady	-10744
▁virus	-10745
Context	-10746
Grandma	-10747
Harmony	-10748
Hyperbo	-10749
Letting	-10750
Mahatma	-10751
Patriot	-10752
Schools	-10753
Science	-10754
Spiders	-10755
Sustain	-10756
Theater	-10757
▁	-10758
e	-10759
t	-10760
a	-10761
o	-10762
n	-10763
h	-10764
i	-10765
s	-10766
r	-10767
d	-10768
l	-10769
y	-10770
m	-10771
u	-10772
w	-10773
.	-10774
g	-10775
c	-10776
p	-10777
f	-10778
b	-10779
[	-10780
]	-10781
k	-10782
S	-10783
,	-10784
v	-10785
T	-10786
E	-10787
I	-10788
"	-10789
'	-10790
H	-10791
L	-10792
x	-10793
!	-10794
O	-10795
B	-10796
M	-10797
?	-10798
W	-10799
A	-10800
j	-10801
J	-10802
z	-10803
D	-10804
Y	-10805
C	-10806
q	-10807
;	-10808
F	-10809
P	-10810
N	-10811
-	-10812
’	-10813
G	-10814
R	-10815
“	-10816
”	-10817
