<unk>	0
<s>	0
</s>	0
User:	0
Bot:	0
▁a	-0
▁h	-1
▁i	-2
ou	-3
▁t	-4
re	-5
▁y	-6
▁you	-7
in	-8
▁?	-9
▁.	-10
ing	-11
ow	-12
▁d	-13
▁w	-14
▁how	-15
▁are	-16
▁,	-17
▁g	-18
▁m	-19
▁to	-20
ll	-21
▁am	-22
▁do	-23
at	-24
▁th	-25
▁he	-26
▁s	-27
▁f	-28
▁hi	-29
ay	-30
▁go	-31
ve	-32
▁l	-33
▁!	-34
or	-35
▁b	-36
▁c	-37
▁the	-38
llo	-39
▁hello	-40
▁n	-41
st	-42
nd	-43
▁doing	-44
▁my	-45
▁o	-46
day	-47
▁today	-48
er	-49
an	-50
od	-51
▁is	-52
▁p	-53
▁wh	-54
▁j	-55
▁good	-56
me	-57
it	-58
ke	-59
▁ha	-60
▁and	-61
ust	-62
▁li	-63
▁just	-64
▁what	-65
ar	-66
out	-67
ot	-68
▁e	-69
▁we	-70
on	-71
▁hey	-72
▁there	-73
es	-74
gh	-75
ch	-76
▁be	-77
▁it	-78
▁in	-79
ro	-80
▁your	-81
is	-82
▁have	-83
▁gre	-84
ic	-85
▁so	-86
en	-87
▁ab	-88
et	-89
▁great	-90
▁about	-91
▁lo	-92
ght	-93
▁for	-94
se	-95
▁like	-96
ight	-97
ad	-98
▁of	-99
ed	-100
▁well	-101
▁re	-102
▁me	-103
▁wor	-104
▁u	-105
al	-106
▁co	-107
▁work	-108
rom	-109
▁an	-110
▁on	-111
▁not	-112
▁from	-113
▁love	-114
ame	-115
▁going	-116
all	-117
as	-118
ri	-119
▁k	-120
ith	-121
▁day	-122
ning	-123
▁with	-124
le	-125
ld	-126
▁st	-127
ry	-128
id	-129
king	-130
ut	-131
▁that	-132
▁fa	-133
ra	-134
▁at	-135
▁ho	-136
▁fin	-137
▁ton	-138
▁got	-139
▁tonight	-140
▁up	-141
▁name	-142
oo	-143
lf	-144
▁some	-145
un	-146
▁eve	-147
▁ch	-148
▁ne	-149
▁this	-150
us	-151
▁than	-152
▁pl	-153
ly	-154
▁te	-155
ck	-156
self	-157
ite	-158
▁sh	-159
▁ba	-160
▁thank	-161
ter	-162
▁as	-163
▁r	-164
▁mo	-165
▁su	-166
▁ti	-167
ally	-168
▁but	-169
▁yourself	-170
ish	-171
vor	-172
▁ve	-173
ant	-174
ere	-175
▁out	-176
ting	-177
▁favor	-178
ice	-179
▁read	-180
end	-181
▁any	-182
▁get	-183
▁favorite	-184
▁pre	-185
ir	-186
ould	-187
th	-188
atch	-189
▁mor	-190
▁was	-191
▁morning	-192
nt	-193
▁al	-194
▁play	-195
ty	-196
ur	-197
oy	-198
▁fine	-199
▁here	-200
▁too	-201
ee	-202
pp	-203
▁watch	-204
ake	-205
▁ok	-206
▁sp	-207
ct	-208
▁evening	-209
ion	-210
▁v	-211
▁no	-212
ving	-213
▁dog	-214
ate	-215
▁en	-216
ers	-217
▁can	-218
ies	-219
ce	-220
ol	-221
riend	-222
▁pret	-223
▁pretty	-224
ill	-225
▁fo	-226
▁its	-227
▁nice	-228
▁thanks	-229
▁jo	-230
ge	-231
▁been	-232
▁all	-233
ie	-234
ul	-235
ach	-236
▁time	-237
▁where	-238
her	-239
▁eat	-240
▁friend	-241
▁mus	-242
▁home	-243
▁very	-244
▁whats	-245
▁new	-246
ool	-247
▁af	-248
▁now	-249
▁music	-250
ud	-251
ver	-252
▁tell	-253
▁cat	-254
ess	-255
red	-256
joy	-257
▁after	-258
▁enjoy	-259
▁se	-260
▁ye	-261
▁wee	-262
▁back	-263
ind	-264
▁mu	-265
pe	-266
▁hows	-267
▁kid	-268
▁live	-269
▁sch	-270
▁want	-271
▁kn	-272
▁finish	-273
▁watching	-274
if	-275
▁would	-276
▁school	-277
im	-278
▁pa	-279
▁off	-280
▁really	-281
▁de	-282
▁much	-283
one	-284
ne	-285
▁oh	-286
ine	-287
▁cl	-288
ong	-289
▁ar	-290
▁ca	-291
▁list	-292
ig	-293
▁listen	-294
mp	-295
▁kids	-296
op	-297
▁fun	-298
▁mar	-299
▁know	-300
la	-301
ide	-302
ink	-303
ist	-304
▁int	-305
no	-306
▁getting	-307
▁working	-308
ak	-309
ent	-310
▁ro	-311
bb	-312
ard	-313
▁old	-314
▁finished	-315
own	-316
▁ex	-317
kend	-318
▁weekend	-319
▁wo	-320
▁dogs	-321
▁game	-322
il	-323
ast	-324
our	-325
noon	-326
▁job	-327
▁playing	-328
▁afternoon	-329
au	-330
art	-331
▁or	-332
ball	-333
▁meet	-334
aking	-335
thing	-336
ang	-337
itt	-338
lor	-339
▁stud	-340
▁year	-341
am	-342
ets	-343
fe	-344
▁night	-345
▁right	-346
▁reading	-347
ook	-348
ort	-349
▁tra	-350
▁thing	-351
▁listening	-352
eel	-353
lle	-354
▁wal	-355
▁gu	-356
▁had	-357
▁kind	-358
▁living	-359
▁2	-360
▁did	-361
▁hobb	-362
▁feel	-363
▁food	-364
▁long	-365
ian	-366
▁car	-367
ff	-368
qu	-369
ore	-370
▁coo	-371
▁book	-372
▁chat	-373
▁cool	-374
▁done	-375
▁sure	-376
▁teach	-377
ass	-378
ound	-379
▁man	-380
▁yes	-381
▁colle	-382
co	-383
▁aw	-384
▁who	-385
▁tired	-386
▁asking	-387
ep	-388
zz	-389
▁sw	-390
nder	-391
▁hope	-392
cer	-393
▁lot	-394
ather	-395
▁okay	-396
▁eating	-397
▁fe	-398
▁run	-399
ru	-400
ily	-401
▁bre	-402
ci	-403
ation	-404
▁make	-405
▁plan	-406
ree	-407
ough	-408
▁far	-409
▁life	-410
mm	-411
▁3	-412
and	-413
▁need	-414
ous	-415
▁mov	-416
▁veg	-417
ful	-418
▁bo	-419
▁ra	-420
▁one	-421
ittle	-422
▁hobbies	-423
ive	-424
vel	-425
▁bec	-426
▁bus	-427
▁them	-428
▁little	-429
res	-430
og	-431
▁cou	-432
other	-433
▁will	-434
▁gr	-435
▁try	-436
▁foot	-437
▁ready	-438
um	-439
▁br	-440
▁le	-441
▁qu	-442
▁wa	-443
ause	-444
▁bad	-445
▁anim	-446
▁pets	-447
▁every	-448
▁because	-449
als	-450
ideo	-451
▁bet	-452
▁fam	-453
▁loo	-454
▁best	-455
▁think	-456
▁video	-457
▁wonder	-458
ia	-459
▁dr	-460
erson	-461
▁when	-462
▁if	-463
▁tw	-464
▁cats	-465
▁they	-466
▁break	-467
▁college	-468
ab	-469
izz	-470
▁ri	-471
rent	-472
ried	-473
▁con	-474
▁happ	-475
▁could	-476
▁having	-477
ti	-478
izza	-479
▁art	-480
▁color	-481
▁pizza	-482
ha	-483
▁bl	-484
▁pe	-485
▁act	-486
▁whi	-487
▁more	-488
▁games	-489
▁football	-490
ag	-491
ays	-492
▁ke	-493
▁has	-494
▁pro	-495
▁show	-496
inking	-497
▁friends	-498
ah	-499
per	-500
▁us	-501
▁two	-502
▁wait	-503
▁being	-504
▁person	-505
ild	-506
ity	-507
sed	-508
▁gir	-509
▁mom	-510
▁sit	-511
erest	-512
ually	-513
▁hang	-514
▁walk	-515
▁interest	-516
na	-517
aut	-518
▁dri	-519
pping	-520
▁into	-521
▁late	-522
▁beaut	-523
▁sound	-524
▁study	-525
▁years	-526
▁yours	-527
ick	-528
lax	-529
▁sho	-530
▁tal	-531
▁wow	-532
▁over	-533
▁wish	-534
▁relax	-535
ade	-536
oth	-537
▁gl	-538
▁sk	-539
▁big	-540
▁why	-541
▁comp	-542
▁family	-543
▁taking	-544
▁trying	-545
▁animals	-546
▁wonderful	-547
ner	-548
▁sor	-549
▁spe	-550
▁hair	-551
▁names	-552
▁enjoying	-553
les	-554
▁by	-555
▁ja	-556
▁dan	-557
▁care	-558
▁ever	-559
▁sorry	-560
▁hanging	-561
▁married	-562
ac	-563
ome	-564
▁che	-565
▁har	-566
▁lol	-567
▁mine	-568
▁class	-569
▁sport	-570
esome	-571
▁only	-572
▁travel	-573
▁awesome	-574
ren	-575
▁di	-576
▁tv	-577
ings	-578
▁par	-579
▁fish	-580
▁never	-581
▁bu	-582
iful	-583
ract	-584
▁own	-585
▁cook	-586
▁sounds	-587
▁beautiful	-588
ary	-589
▁un	-590
▁bit	-591
▁hel	-592
▁rid	-593
▁better	-594
▁things	-595
▁looking	-596
▁weather	-597
▁something	-598
▁ad	-599
▁fl	-600
ways	-601
▁boy	-602
▁din	-603
▁she	-604
▁band	-605
▁busy	-606
▁take	-607
▁child	-608
▁happy	-609
▁movies	-610
ub	-611
ain	-612
not	-613
ork	-614
ffee	-615
▁see	-616
▁help	-617
▁sing	-618
▁books	-619
▁count	-620
▁plans	-621
▁coffee	-622
▁sports	-623
▁anything	-624
cy	-625
so	-626
▁ph	-627
▁po	-628
ming	-629
▁alr	-630
▁tru	-631
▁peop	-632
▁cannot	-633
▁though	-634
▁alright	-635
ife	-636
ons	-637
ors	-638
ran	-639
ther	-640
▁sal	-641
▁swe	-642
▁also	-643
▁other	-644
▁people	-645
▁sitting	-646
▁student	-647
▁relaxing	-648
▁shopping	-649
ue	-650
ane	-651
cks	-652
man	-653
▁ac	-654
▁ag	-655
▁wr	-656
ment	-657
▁hard	-658
▁pract	-659
▁always	-660
▁dinner	-661
▁cooking	-662
▁country	-663
▁feeling	-664
▁actually	-665
mo	-666
enn	-667
ked	-668
ince	-669
▁red	-670
▁sur	-671
rents	-672
▁came	-673
▁girl	-674
▁hear	-675
▁last	-676
▁week	-677
▁wife	-678
▁beach	-679
▁vegan	-680
▁myself	-681
▁interesting	-682
ase	-683
▁si	-684
fore	-685
▁dra	-686
▁flor	-687
▁glad	-688
▁hate	-689
▁start	-690
▁still	-691
▁before	-692
▁teacher	-693
hi	-694
os	-695
▁5	-696
orn	-697
ress	-698
▁cra	-699
▁hun	-700
▁pain	-701
▁studying	-702
est	-703
ida	-704
ike	-705
oney	-706
side	-707
▁gra	-708
▁nur	-709
▁ple	-710
▁down	-711
▁hour	-712
▁guess	-713
▁since	-714
▁spend	-715
▁three	-716
▁should	-717
▁florida	-718
▁parents	-719
lie	-720
llow	-721
▁sun	-722
▁sist	-723
▁super	-724
▁which	-725
ph	-726
ble	-727
▁da	-728
▁sa	-729
▁ya	-730
▁bar	-731
▁cre	-732
▁fan	-733
▁hot	-734
▁hou	-735
▁sad	-736
▁way	-737
ating	-738
▁cold	-739
▁haha	-740
▁swim	-741
▁movie	-742
▁making	-743
▁walking	-744
▁thinking	-745
li	-746
oc	-747
erg	-748
ger	-749
ated	-750
ctor	-751
▁hus	-752
▁tom	-753
arden	-754
▁high	-755
▁ride	-756
▁seen	-757
▁drive	-758
▁garden	-759
▁please	-760
be	-761
ts	-762
ys	-763
ure	-764
▁pu	-765
ater	-766
ical	-767
line	-768
▁exc	-769
▁fir	-770
▁ste	-771
▁win	-772
iting	-773
▁call	-774
▁city	-775
▁come	-776
▁fast	-777
▁head	-778
▁keep	-779
▁rock	-780
▁star	-781
▁talk	-782
▁hours	-783
▁another	-784
br	-785
dy	-786
ail	-787
att	-788
ket	-789
hing	-790
ious	-791
itar	-792
mmer	-793
▁cal	-794
▁dad	-795
▁des	-796
▁eng	-797
▁hur	-798
▁say	-799
▁sle	-800
aught	-801
lieve	-802
▁cake	-803
▁fran	-804
▁tall	-805
▁house	-806
▁money	-807
▁while	-808
▁guitar	-809
▁believe	-810
▁fishing	-811
sp	-812
ose	-813
ple	-814
band	-815
time	-816
▁dis	-817
▁thr	-818
▁wan	-819
iness	-820
▁blue	-821
▁grad	-822
▁many	-823
▁shop	-824
▁yeah	-825
▁drink	-826
▁first	-827
▁nurse	-828
▁sleep	-829
▁comput	-830
▁concer	-831
▁online	-832
▁husband	-833
▁business	-834
▁drinking	-835
ng	-836
ny	-837
▁z	-838
cial	-839
ited	-840
ount	-841
▁cur	-842
▁fri	-843
▁hor	-844
▁may	-845
▁mon	-846
▁per	-847
▁vis	-848
▁farm	-849
▁free	-850
▁hike	-851
▁most	-852
▁move	-853
▁rain	-854
▁stay	-855
▁surf	-856
cially	-857
ession	-858
▁named	-859
▁wanna	-860
▁lately	-861
▁someone	-862
▁children	-863
ft	-864
hn	-865
xt	-866
ash	-867
ime	-868
row	-869
spe	-870
sta	-871
▁mi	-872
▁sc	-873
▁sm	-874
ason	-875
ones	-876
▁bob	-877
▁com	-878
▁gro	-879
▁met	-880
▁ball	-881
▁cant	-882
▁john	-883
▁meat	-884
▁part	-885
▁prof	-886
▁tenn	-887
▁grand	-888
az	-889
dd	-890
el	-891
ym	-892
ber	-893
bur	-894
oga	-895
ord	-896
▁ty	-897
unch	-898
▁ear	-899
▁mis	-900
▁sar	-901
▁sus	-902
ought	-903
▁draw	-904
▁went	-905
▁yoga	-906
▁store	-907
▁sweet	-908
▁veget	-909
▁daught	-910
▁summer	-911
▁nothing	-912
▁outside	-913
▁running	-914
▁practice	-915
om	-916
te	-917
up	-918
are	-919
ise	-920
ude	-921
▁hu	-922
▁je	-923
▁ma	-924
▁pr	-925
ccer	-926
land	-927
▁bed	-928
▁bir	-929
▁bro	-930
▁gym	-931
▁her	-932
▁let	-933
▁med	-934
▁pet	-935
▁yet	-936
arian	-937
lling	-938
▁base	-939
▁espe	-940
▁jane	-941
▁look	-942
▁next	-943
▁sund	-944
▁york	-945
▁grade	-946
▁greet	-947
▁mother	-948
▁soccer	-949
▁tennis	-950
▁current	-951
▁especially	-952
▁profession	-953
bl	-954
zy	-955
ace	-956
ada	-957
ale	-958
ese	-959
let	-960
ric	-961
vin	-962
▁la	-963
▁om	-964
▁app	-965
▁buy	-966
▁few	-967
▁loc	-968
▁rel	-969
▁tea	-970
▁use	-971
orrow	-972
▁bike	-973
▁club	-974
▁does	-975
▁each	-976
ations	-977
▁crazy	-978
▁month	-979
▁visit	-980
▁around	-981
▁artist	-982
▁winter	-983
▁spending	-984
bs	-985
io	-986
lo	-987
ms	-988
pt	-989
ath	-990
ics	-991
ker	-992
▁fi	-993
cing	-994
most	-995
ocol	-996
▁ate	-997
▁bab	-998
▁cle	-999
▁tri	-1000
▁vac	-1001
▁amaz	-1002
▁dude	-1003
▁fall	-1004
▁fant	-1005
▁lets	-1006
▁libr	-1007
▁made	-1008
▁mind	-1009
▁pian	-1010
▁supp	-1011
illing	-1012
▁birth	-1013
▁bored	-1014
▁girlf	-1015
▁kevin	-1016
▁makes	-1017
▁maybe	-1018
▁sarah	-1019
ocolate	-1020
▁allerg	-1021
▁almost	-1022
▁started	-1023
▁workout	-1024
▁baseball	-1025
▁computer	-1026
▁sometime	-1027
▁tomorrow	-1028
▁chocolate	-1029
▁currently	-1030
▁finishing	-1031
▁girlfriend	-1032
ady	-1033
ans	-1034
een	-1035
ift	-1036
ign	-1037
ten	-1038
▁ed	-1039
▁sn	-1040
▁ta	-1041
akes	-1042
ital	-1043
oooo	-1044
ster	-1045
ward	-1046
▁acc	-1047
▁att	-1048
▁bas	-1049
▁sam	-1050
▁tex	-1051
▁vol	-1052
▁away	-1053
▁bill	-1054
▁both	-1055
▁chan	-1056
▁comm	-1057
▁find	-1058
▁four	-1059
▁hung	-1060
▁inst	-1061
▁must	-1062
▁then	-1063
▁used	-1064
▁wear	-1065
▁daily	-1066
▁dance	-1067
▁howdy	-1068
▁piano	-1069
▁quite	-1070
▁train	-1071
▁world	-1072
▁canada	-1073
▁father	-1074
▁sunday	-1075
▁amazing	-1076
▁concert	-1077
▁excited	-1078
▁finally	-1079
▁vacation	-1080
▁greetings	-1081
▁sometimes	-1082
bu	-1083
gg	-1084
age	-1085
ina	-1086
ond	-1087
▁ge	-1088
▁yo	-1089
able	-1090
ails	-1091
rist	-1092
▁age	-1093
▁aut	-1094
▁god	-1095
▁law	-1096
▁ner	-1097
▁pur	-1098
astic	-1099
iforn	-1100
▁beer	-1101
▁boys	-1102
▁days	-1103
▁hosp	-1104
▁left	-1105
▁mary	-1106
▁miss	-1107
▁pink	-1108
▁pref	-1109
▁same	-1110
▁soon	-1111
▁took	-1112
▁were	-1113
▁clean	-1114
▁frank	-1115
▁horse	-1116
▁moved	-1117
▁texas	-1118
▁truck	-1119
▁young	-1120
ifornia	-1121
▁christ	-1122
▁grocer	-1123
▁happen	-1124
▁season	-1125
▁sister	-1126
▁talking	-1127
▁usually	-1128
▁waiting	-1129
▁hospital	-1130
▁planning	-1131
▁california	-1132
ba	-1133
my	-1134
ss	-1135
any	-1136
ark	-1137
ars	-1138
ave	-1139
cre	-1140
ica	-1141
mmy	-1142
ney	-1143
pan	-1144
rat	-1145
ted	-1146
ull	-1147
ling	-1148
▁bur	-1149
▁his	-1150
▁ice	-1151
▁mad	-1152
▁mil	-1153
▁our	-1154
▁pol	-1155
▁sat	-1156
▁ski	-1157
▁stu	-1158
anger	-1159
haust	-1160
▁bout	-1161
▁cand	-1162
▁cars	-1163
▁char	-1164
▁dead	-1165
▁died	-1166
▁park	-1167
▁pass	-1168
▁pool	-1169
▁real	-1170
▁taco	-1171
▁trip	-1172
▁hobby	-1173
▁japan	-1174
▁lunch	-1175
▁mount	-1176
▁nails	-1177
▁novel	-1178
▁often	-1179
▁older	-1180
▁short	-1181
▁steak	-1182
▁sushi	-1183
▁anyone	-1184
▁basket	-1185
▁friday	-1186
▁office	-1187
▁single	-1188
▁collect	-1189
▁driving	-1190
▁exhaust	-1191
▁practic	-1192
▁sisters	-1193
▁surfing	-1194
▁birthday	-1195
▁painting	-1196
▁teaching	-1197
▁fantastic	-1198
▁traveling	-1199
▁everything	-1200
ew	-1201
ho	-1202
iz	-1203
uc	-1204
iol	-1205
ird	-1206
ory	-1207
ots	-1208
use	-1209
▁lu	-1210
▁tr	-1211
less	-1212
unte	-1213
work	-1214
▁ago	-1215
▁ann	-1216
▁dec	-1217
▁del	-1218
▁dep	-1219
▁guy	-1220
▁him	-1221
▁imp	-1222
▁nat	-1223
▁ore	-1224
▁rap	-1225
▁ser	-1226
▁str	-1227
attoo	-1228
ition	-1229
othes	-1230
staur	-1231
▁alot	-1232
▁area	-1233
▁beat	-1234
▁lake	-1235
▁news	-1236
▁phot	-1237
▁reti	-1238
▁such	-1239
▁type	-1240
▁anime	-1241
▁blond	-1242
▁catch	-1243
▁cream	-1244
▁green	-1245
▁heard	-1246
▁local	-1247
▁party	-1248
▁place	-1249
▁shift	-1250
▁speak	-1251
▁these	-1252
▁times	-1253
▁write	-1254
▁couple	-1255
▁prefer	-1256
▁tattoo	-1257
▁videos	-1258
staurant	-1259
▁brother	-1260
▁clothes	-1261
▁volunte	-1262
▁chatting	-1263
▁mountain	-1264
▁basketball	-1265
▁practicing	-1266
▁restaurant	-1267
bo	-1268
sh	-1269
ald	-1270
con	-1271
ict	-1272
isc	-1273
ody	-1274
uss	-1275
vis	-1276
▁ey	-1277
▁ny	-1278
▁sl	-1279
▁vo	-1280
ably	-1281
ance	-1282
ican	-1283
vers	-1284
▁ban	-1285
▁fav	-1286
▁fem	-1287
▁flo	-1288
▁kat	-1289
▁yum	-1290
cking	-1291
ctory	-1292
orses	-1293
rench	-1294
▁adop	-1295
▁diet	-1296
▁fore	-1297
▁jazz	-1298
▁jeff	-1299
▁mich	-1300
▁roll	-1301
▁sibl	-1302
estion	-1303
others	-1304
▁alone	-1305
▁bacon	-1306
▁brown	-1307
▁early	-1308
▁girls	-1309
▁lover	-1310
▁loves	-1311
▁might	-1312
▁quick	-1313
▁secre	-1314
▁small	-1315
▁under	-1316
▁animal	-1317
▁baking	-1318
▁blonde	-1319
▁cheese	-1320
▁design	-1321
▁french	-1322
▁hiking	-1323
▁horses	-1324
▁hungry	-1325
▁riding	-1326
▁trucks	-1327
▁company	-1328
▁dancing	-1329
▁factory	-1330
▁grocery	-1331
▁retired	-1332
▁question	-1333
▁siblings	-1334
▁swimming	-1335
▁volunteer	-1336
00	-1337
do	-1338
pa	-1339
ta	-1340
cyc	-1341
igh	-1342
ino	-1343
lix	-1344
orm	-1345
owl	-1346
pen	-1347
pes	-1348
ron	-1349
tub	-1350
ual	-1351
ves	-1352
▁25	-1353
▁el	-1354
fast	-1355
iter	-1356
lete	-1357
lish	-1358
ness	-1359
ogra	-1360
tern	-1361
▁bla	-1362
▁def	-1363
▁fly	-1364
▁mex	-1365
▁net	-1366
▁put	-1367
▁ret	-1368
▁rob	-1369
bably	-1370
onsin	-1371
▁bake	-1372
▁chic	-1373
▁cong	-1374
▁cour	-1375
▁flow	-1376
▁huge	-1377
▁jess	-1378
▁join	-1379
▁lady	-1380
▁lots	-1381
▁once	-1382
▁skin	-1383
▁wisc	-1384
ressed	-1385
▁again	-1386
▁broke	-1387
▁cause	-1388
▁comic	-1389
▁gradu	-1390
▁kinds	-1391
▁metal	-1392
▁paint	-1393
▁salad	-1394
▁spent	-1395
▁stuff	-1396
▁sunny	-1397
▁water	-1398
▁woman	-1399
▁female	-1400
▁hurric	-1401
▁purple	-1402
▁secret	-1403
▁social	-1404
▁youtub	-1405
▁congrat	-1406
▁forward	-1407
▁thrones	-1408
▁daughter	-1409
▁homework	-1410
▁probably	-1411
▁breakfast	-1412
▁wisconsin	-1413
▁vegetarian	-1414
iv	-1415
ma	-1416
ps	-1417
wh	-1418
ama	-1419
erc	-1420
get	-1421
urn	-1422
ush	-1423
▁ju	-1424
▁mc	-1425
alth	-1426
ants	-1427
ards	-1428
cond	-1429
fere	-1430
flix	-1431
fort	-1432
ient	-1433
ighb	-1434
ogle	-1435
ream	-1436
ring	-1437
vous	-1438
wing	-1439
▁ath	-1440
▁bra	-1441
▁don	-1442
▁dro	-1443
▁ext	-1444
▁ger	-1445
▁ham	-1446
▁hit	-1447
▁hop	-1448
▁iph	-1449
▁kit	-1450
▁mac	-1451
▁mid	-1452
▁omg	-1453
▁pop	-1454
▁pri	-1455
▁ray	-1456
▁rec	-1457
▁sci	-1458
▁six	-1459
▁son	-1460
▁ter	-1461
▁tot	-1462
▁tre	-1463
board	-1464
doors	-1465
eding	-1466
ident	-1467
iolin	-1468
oring	-1469
urday	-1470
▁baby	-1471
▁boyf	-1472
▁camp	-1473
▁even	-1474
▁feet	-1475
▁five	-1476
▁ital	-1477
▁kitt	-1478
▁lawy	-1479
▁lear	-1480
▁lost	-1481
▁near	-1482
▁oreo	-1483
▁rais	-1484
▁step	-1485
▁stop	-1486
▁tend	-1487
▁todd	-1488
▁wind	-1489
▁candy	-1490
▁chill	-1491
▁close	-1492
▁exerc	-1493
▁lives	-1494
▁weird	-1495
▁coming	-1496
▁commun	-1497
▁doctor	-1498
▁google	-1499
▁iphone	-1500
▁lovely	-1501
▁nature	-1502
▁neighb	-1503
▁second	-1504
▁stones	-1505
▁violin	-1506
▁worker	-1507
▁cookies	-1508
▁feeding	-1509
▁library	-1510
▁nervous	-1511
▁netflix	-1512
▁youtube	-1513
▁brothers	-1514
▁cleaning	-1515
▁outdoors	-1516
▁saturday	-1517
▁speaking	-1518
▁stranger	-1519
▁boyfriend	-1520
▁daughters	-1521
▁wondering	-1522
▁interested	-1523
▁professional	-1524
cc	-1525
gu	-1526
ii	-1527
si	-1528
asy	-1529
ead	-1530
gel	-1531
hip	-1532
hor	-1533
ico	-1534
ins	-1535
jor	-1536
loy	-1537
mas	-1538
tle	-1539
udd	-1540
van	-1541
ven	-1542
▁20	-1543
▁gi	-1544
▁sy	-1545
▁ur	-1546
anic	-1547
back	-1548
cept	-1549
ison	-1550
pper	-1551
seum	-1552
sing	-1553
ston	-1554
▁adv	-1555
▁air	-1556
▁arm	-1557
▁cas	-1558
▁cow	-1559
▁cut	-1560
▁deg	-1561
▁die	-1562
▁fit	-1563
▁fix	-1564
▁ind	-1565
▁jim	-1566
▁smo	-1567
▁sna	-1568
▁van	-1569
ansas	-1570
bucks	-1571
ician	-1572
inite	-1573
ither	-1574
ivers	-1575
rible	-1576
stand	-1577
▁able	-1578
▁aust	-1579
▁born	-1580
▁clim	-1581
▁date	-1582
▁eyes	-1583
▁goes	-1584
▁golf	-1585
▁grew	-1586
▁grow	-1587
▁parr	-1588
▁past	-1589
▁pick	-1590
▁ribs	-1591
▁rose	-1592
▁russ	-1593
▁self	-1594
▁shel	-1595
▁wine	-1596
itting	-1597
ograph	-1598
▁baker	-1599
▁black	-1600
▁fight	-1601
▁leave	-1602
▁major	-1603
▁phone	-1604
▁polit	-1605
▁rainy	-1606
▁relig	-1607
▁sales	-1608
▁share	-1609
▁shows	-1610
▁skate	-1611
▁state	-1612
▁their	-1613
▁walks	-1614
initely	-1615
lloween	-1616
▁author	-1617
▁beauty	-1618
▁bought	-1619
▁course	-1620
▁enough	-1621
▁hambur	-1622
▁instru	-1623
▁lawyer	-1624
▁moment	-1625
▁months	-1626
▁mostly	-1627
▁museum	-1628
▁player	-1629
▁raised	-1630
▁recent	-1631
▁stress	-1632
▁wanted	-1633
▁yellow	-1634
▁adopted	-1635
▁beatles	-1636
▁english	-1637
▁jessica	-1638
▁medical	-1639
▁passion	-1640
▁special	-1641
▁writing	-1642
▁allergic	-1643
▁exercise	-1644
▁christmas	-1645
▁graduated	-1646
▁halloween	-1647
▁hurricane	-1648
▁starbucks	-1649
▁definitely	-1650
▁understand	-1651
vy	-1652
ado	-1653
agh	-1654
ara	-1655
ces	-1656
don	-1657
ien	-1658
kes	-1659
key	-1660
ley	-1661
mer	-1662
oni	-1663
ove	-1664
que	-1665
set	-1666
uag	-1667
ues	-1668
▁30	-1669
▁ap	-1670
▁ce	-1671
▁em	-1672
▁na	-1673
ancy	-1674
arch	-1675
ared	-1676
ates	-1677
bing	-1678
book	-1679
come	-1680
etti	-1681
fect	-1682
gest	-1683
icer	-1684
otor	-1685
pped	-1686
ular	-1687
urch	-1688
ures	-1689
▁bon	-1690
▁cup	-1691
▁deb	-1692
▁ele	-1693
▁fig	-1694
▁hiy	-1695
▁mag	-1696
▁pie	-1697
▁ran	-1698
▁sha	-1699
▁top	-1700
▁tro	-1701
▁zoo	-1702
abama	-1703
ables	-1704
ately	-1705
cakes	-1706
mploy	-1707
uages	-1708
uring	-1709
where	-1710
▁amer	-1711
▁bank	-1712
▁carl	-1713
▁cons	-1714
▁dave	-1715
▁dist	-1716
▁face	-1717
▁geor	-1718
▁give	-1719
▁jack	-1720
▁lang	-1721
▁less	-1722
▁luck	-1723
▁nick	-1724
▁pupp	-1725
▁reci	-1726
▁safe	-1727
▁says	-1728
▁song	-1729
▁team	-1730
▁tech	-1731
▁test	-1732
▁tour	-1733
▁wedd	-1734
▁woke	-1735
donald	-1736
fortun	-1737
▁apple	-1738
▁cheer	-1739
▁divor	-1740
▁dream	-1741
▁event	-1742
▁fries	-1743
▁funny	-1744
▁motor	-1745
▁pasta	-1746
▁sally	-1747
▁spagh	-1748
▁stand	-1749
▁sucks	-1750
▁works	-1751
artment	-1752
▁acting	-1753
▁ballet	-1754
▁boring	-1755
▁church	-1756
▁dancer	-1757
▁disney	-1758
▁health	-1759
▁intern	-1760
▁kansas	-1761
▁loving	-1762
▁nation	-1763
▁oldest	-1764
▁parrot	-1765
▁sewing	-1766
▁worked	-1767
▁writer	-1768
▁account	-1769
▁alabama	-1770
▁classes	-1771
▁classic	-1772
▁heading	-1773
▁hunting	-1774
▁italian	-1775
▁officer	-1776
▁singing	-1777
▁tattoos	-1778
▁thought	-1779
▁through	-1780
▁wearing	-1781
▁catching	-1782
▁chilling	-1783
▁colorado	-1784
▁concerts	-1785
▁everyday	-1786
▁exciting	-1787
▁mcdonald	-1788
▁unfortun	-1789
▁waitress	-1790
▁weekends	-1791
▁gardening	-1792
▁languages	-1793
▁librarian	-1794
▁spaghetti	-1795
▁collection	-1796
▁exhausting	-1797
▁photograph	-1798
▁skateboard	-1799
▁unfortunately	-1800
ds	-1801
gn	-1802
ip	-1803
ago	-1804
alt	-1805
bby	-1806
ced	-1807
cob	-1808
gan	-1809
ggs	-1810
gia	-1811
gon	-1812
hol	-1813
iet	-1814
ile	-1815
int	-1816
mar	-1817
men	-1818
min	-1819
nel	-1820
ooo	-1821
ris	-1822
rit	-1823
ste	-1824
ult	-1825
unk	-1826
ved	-1827
yle	-1828
▁av	-1829
▁bi	-1830
▁id	-1831
▁ll	-1832
▁yu	-1833
bert	-1834
cove	-1835
eden	-1836
ence	-1837
ffic	-1838
ford	-1839
gers	-1840
gies	-1841
hood	-1842
itts	-1843
more	-1844
olog	-1845
orth	-1846
pers	-1847
rans	-1848
resh	-1849
sive	-1850
ully	-1851
▁anx	-1852
▁ass	-1853
▁aud	-1854
▁bot	-1855
▁cha	-1856
▁fil	-1857
▁hum	-1858
▁jan	-1859
▁joe	-1860
▁lab	-1861
▁lar	-1862
▁mia	-1863
▁pat	-1864
▁pic	-1865
▁pot	-1866
▁ref	-1867
▁reg	-1868
▁roo	-1869
▁san	-1870
▁sim	-1871
▁sug	-1872
▁ten	-1873
▁tun	-1874
▁vet	-1875
▁won	-1876
▁wre	-1877
acter	-1878
ading	-1879
ctors	-1880
cycle	-1881
ouble	-1882
rated	-1883
▁anne	-1884
▁bart	-1885
▁cart	-1886
▁dark	-1887
▁doin	-1888
▁doll	-1889
▁dong	-1890
▁easy	-1891
▁eggs	-1892
▁else	-1893
▁fave	-1894
▁full	-1895
▁gone	-1896
▁halo	-1897
▁hiya	-1898
▁hola	-1899
▁iron	-1900
▁jake	-1901
▁jenn	-1902
▁jobs	-1903
▁kill	-1904
▁king	-1905
▁line	-1906
▁mall	-1907
▁mark	-1908
▁mate	-1909
▁matt	-1910
▁mile	-1911
▁mood	-1912
▁nope	-1913
▁phys	-1914
▁pres	-1915
▁sell	-1916
▁stra	-1917
▁turn	-1918
▁vera	-1919
anding	-1920
coming	-1921
▁annoy	-1922
▁extra	-1923
▁fresh	-1924
▁glass	-1925
▁gotta	-1926
▁harry	-1927
▁jacob	-1928
▁keeps	-1929
▁kitty	-1930
▁later	-1931
▁likes	-1932
▁miles	-1933
▁nancy	-1934
▁north	-1935
▁pitts	-1936
▁shoes	-1937
▁snake	-1938
▁spare	-1939
▁steve	-1940
▁swell	-1941
▁those	-1942
▁tough	-1943
▁tracy	-1944
▁trans	-1945
sterday	-1946
▁active	-1947
▁apples	-1948
▁burrit	-1949
▁career	-1950
▁change	-1951
▁degree	-1952
▁either	-1953
▁employ	-1954
▁famous	-1955
▁german	-1956
▁kitten	-1957
▁marath	-1958
▁mexico	-1959
▁played	-1960
▁prison	-1961
▁reader	-1962
▁scared	-1963
▁sunset	-1964
▁surger	-1965
▁unless	-1966
▁anymore	-1967
▁athlete	-1968
▁camping	-1969
▁channel	-1970
▁chicago	-1971
▁doctors	-1972
▁england	-1973
▁instead	-1974
▁killing	-1975
▁leather	-1976
▁nursing	-1977
▁raining	-1978
▁recipes	-1979
▁shelter	-1980
▁station	-1981
▁staying	-1982
▁totally	-1983
▁traffic	-1984
▁watched	-1985
▁wedding	-1986
▁american	-1987
▁musician	-1988
▁neighbor	-1989
▁pittsbur	-1990
▁recently	-1991
▁terrible	-1992
▁allergies	-1993
▁character	-1994
▁classical	-1995
▁computers	-1996
▁exhausted	-1997
▁religious	-1998
▁yesterday	-1999
▁accountant	-2000
af	-2001
je	-2002
ka	-2003
ks	-2004
lt	-2005
pl	-2006
to	-2007
we	-2008
wi	-2009
ael	-2010
arm	-2011
dog	-2012
epy	-2013
ery	-2014
gin	-2015
its	-2016
ium	-2017
ken	-2018
led	-2019
len	-2020
med	-2021
nce	-2022
par	-2023
rap	-2024
ror	-2025
urs	-2026
way	-2027
▁cr	-2028
▁er	-2029
▁kj	-2030
ache	-2031
adio	-2032
ager	-2033
aste	-2034
ches	-2035
ckey	-2036
epsi	-2037
ered	-2038
etry	-2039
ever	-2040
gels	-2041
hero	-2042
ines	-2043
ject	-2044
jour	-2045
lley	-2046
nold	-2047
pons	-2048
ppin	-2049
ries	-2050
tery	-2051
ulie	-2052
vent	-2053
▁add	-2054
▁ask	-2055
▁bee	-2056
▁bie	-2057
▁bud	-2058
▁cen	-2059
▁cor	-2060
▁dar	-2061
▁dif	-2062
▁dru	-2063
▁end	-2064
▁fab	-2065
▁fru	-2066
▁goo	-2067
▁gri	-2068
▁hip	-2069
▁jen	-2070
▁kay	-2071
▁lie	-2072
▁min	-2073
▁nas	-2074
▁occ	-2075
▁oce	-2076
▁owl	-2077
▁pan	-2078
▁pas	-2079
▁pil	-2080
▁rod	-2081
▁rom	-2082
▁sen	-2083
▁set	-2084
▁sta	-2085
▁sub	-2086
▁tar	-2087
▁usa	-2088
allas	-2089
altim	-2090
balls	-2091
child	-2092
cting	-2093
ender	-2094
fully	-2095
holic	-2096
ights	-2097
ineer	-2098
itary	-2099
levis	-2100
orker	-2101
velop	-2102
veral	-2103
▁blog	-2104
▁bowl	-2105
▁bull	-2106
▁chef	-2107
▁cond	-2108
▁conf	-2109
▁cudd	-2110
▁deal	-2111
▁dear	-2112
▁educ	-2113
▁fash	-2114
▁guys	-2115
▁hell	-2116
▁hero	-2117
▁hunt	-2118
▁hurt	-2119
▁kick	-2120
▁knee	-2121
▁lone	-2122
▁lord	-2123
▁lucy	-2124
▁male	-2125
▁meal	-2126
▁mean	-2127
▁mech	-2128
▁mike	-2129
▁omar	-2130
▁pict	-2131
▁port	-2132
▁quit	-2133
▁rest	-2134
▁rich	-2135
▁sand	-2136
▁sick	-2137
▁slow	-2138
▁stan	-2139
▁tast	-2140
▁thri	-2141
▁troy	-2142
▁true	-2143
▁youn	-2144
▁yumi	-2145
ferent	-2146
ically	-2147
icious	-2148
iously	-2149
ortant	-2150
ursday	-2151
▁alive	-2152
▁along	-2153
▁boots	-2154
▁bread	-2155
▁cakes	-2156
▁carto	-2157
▁couch	-2158
▁creed	-2159
▁elect	-2160
▁expen	-2161
▁exper	-2162
▁floor	-2163
▁found	-2164
▁gummy	-2165
▁helps	-2166
▁honey	-2167
▁hotel	-2168
▁jokes	-2169
▁magic	-2170
▁megan	-2171
▁paper	-2172
▁pepsi	-2173
▁pregn	-2174
▁radio	-2175
▁rough	-2176
▁seven	-2177
▁shark	-2178
▁steph	-2179
▁story	-2180
▁tacos	-2181
▁vegas	-2182
arching	-2183
▁advice	-2184
▁arnold	-2185
▁baltim	-2186
▁bieber	-2187
▁boston	-2188
▁burger	-2189
▁cancer	-2190
▁casino	-2191
▁center	-2192
▁client	-2193
▁comics	-2194
▁cookie	-2195
▁creepy	-2196
▁dallas	-2197
▁dating	-2198
▁during	-2199
▁fellow	-2200
▁follow	-2201
▁hockey	-2202
▁hoping	-2203
▁inside	-2204
▁justin	-2205
▁papers	-2206
▁pepper	-2207
▁poetry	-2208
▁poppin	-2209
▁proble	-2210
▁rather	-2211
▁series	-2212
▁shower	-2213
▁singer	-2214
▁snakes	-2215
▁supper	-2216
▁sweden	-2217
▁target	-2218
▁therap	-2219
children	-2220
iversary	-2221
levision	-2222
oooooooo	-2223
▁bonjour	-2224
▁coupons	-2225
▁craving	-2226
▁develop	-2227
▁drawing	-2228
▁editing	-2229
▁fashion	-2230
▁flowers	-2231
▁forever	-2232
▁georgia	-2233
▁glasses	-2234
▁grading	-2235
▁grandpa	-2236
▁lottery	-2237
▁michael	-2238
▁rolling	-2239
▁romance	-2240
▁science	-2241
▁selling	-2242
▁several	-2243
▁sipping	-2244
▁suppose	-2245
▁surgery	-2246
▁trouble	-2247
▁veggies	-2248
▁wishing	-2249
▁congrats	-2250
▁coworker	-2251
▁engineer	-2252
▁knitting	-2253
▁learning	-2254
▁national	-2255
▁pancakes	-2256
▁pictures	-2257
▁portland	-2258
▁starting	-2259
▁stressed	-2260
▁students	-2261
▁superman	-2262
▁thursday	-2263
▁training	-2264
▁traveled	-2265
▁treating	-2266
▁upcoming	-2267
▁baltimore	-2268
▁congratul	-2269
▁delicious	-2270
▁different	-2271
▁expensive	-2272
▁hamburger	-2273
▁important	-2274
▁jefferson	-2275
▁meatballs	-2276
▁superhero	-2277
▁pittsburgh	-2278
▁television	-2279
▁vegetables	-2280
▁anniversary	-2281
▁photography	-2282
▁neighborhood	-2283
▁volunteering	-2284
▁grandchildren	-2285
fc	-2286
go	-2287
gs	-2288
ky	-2289
sy	-2290
vi	-2291
wa	-2292
acy	-2293
app	-2294
ats	-2295
ban	-2296
cri	-2297
cus	-2298
dle	-2299
eep	-2300
ior	-2301
ire	-2302
lip	-2303
mon	-2304
nda	-2305
ock	-2306
odu	-2307
oes	-2308
oop	-2309
ram	-2310
rge	-2311
sey	-2312
ubb	-2313
ubl	-2314
vet	-2315
▁35	-2316
▁fr	-2317
▁iq	-2318
▁ol	-2319
▁va	-2320
▁ww	-2321
aged	-2322
aker	-2323
ames	-2324
anas	-2325
anes	-2326
ange	-2327
appo	-2328
ator	-2329
body	-2330
cell	-2331
eroy	-2332
form	-2333
host	-2334
ices	-2335
ield	-2336
igan	-2337
isco	-2338
ista	-2339
lebr	-2340
lier	-2341
mart	-2342
ntil	-2343
odel	-2344
omas	-2345
outh	-2346
ower	-2347
ownt	-2348
raid	-2349
ural	-2350
vate	-2351
▁250	-2352
▁ach	-2353
▁bum	-2354
▁cab	-2355
▁due	-2356
▁fat	-2357
▁fol	-2358
▁gas	-2359
▁gen	-2360
▁gig	-2361
▁hbu	-2362
▁huh	-2363
▁igu	-2364
▁inv	-2365
▁jam	-2366
▁kar	-2367
▁lau	-2368
▁leg	-2369
▁liz	-2370
▁lou	-2371
▁low	-2372
▁men	-2373
▁nyu	-2374
▁pal	-2375
▁pam	-2376
▁pay	-2377
▁rep	-2378
▁ros	-2379
▁shy	-2380
▁sky	-2381
▁tan	-2382
▁thx	-2383
▁tit	-2384
▁tou	-2385
▁typ	-2386
▁ufc	-2387
▁ugh	-2388
▁vir	-2389
antha	-2390
aroni	-2391
arten	-2392
attle	-2393
ction	-2394
erina	-2395
essed	-2396
inder	-2397
inese	-2398
liday	-2399
lored	-2400
ments	-2401
nting	-2402
onest	-2403
ppers	-2404
ready	-2405
riage	-2406
story	-2407
ulous	-2408
vivor	-2409
▁alth	-2410
▁anti	-2411
▁army	-2412
▁avid	-2413
▁boat	-2414
▁boss	-2415
▁cute	-2416
▁fact	-2417
▁fire	-2418
▁ford	-2419
▁form	-2420
▁gets	-2421
▁hand	-2422
▁heck	-2423
▁hipp	-2424
▁katy	-2425
▁kidd	-2426
▁knew	-2427
▁mand	-2428
▁moms	-2429
▁navy	-2430
▁neat	-2431
▁norm	-2432
▁ohio	-2433
▁open	-2434
▁page	-2435
▁rese	-2436
▁road	-2437
▁room	-2438
▁runs	-2439
▁said	-2440
▁salt	-2441
▁save	-2442
▁toes	-2443
▁tony	-2444
▁town	-2445
▁tuna	-2446
▁wall	-2447
▁west	-2448
▁whew	-2449
▁wood	-2450
eelers	-2451
iction	-2452
keting	-2453
mother	-2454
ourite	-2455
rgeous	-2456
▁adore	-2457
▁agree	-2458
▁barbe	-2459
▁beast	-2460
▁bills	-2461
▁brush	-2462
▁const	-2463
▁death	-2464
▁diner	-2465
▁downt	-2466
▁dress	-2467
▁fancy	-2468
▁foods	-2469
▁fruit	-2470
▁frust	-2471
▁ghost	-2472
▁hurts	-2473
▁james	-2474
▁julie	-2475
▁katie	-2476
▁learn	-2477
▁leroy	-2478
▁match	-2479
▁minut	-2480
▁ocean	-2481
▁owner	-2482
▁perry	-2483
▁pilot	-2484
▁prius	-2485
▁puppy	-2486
▁roomm	-2487
▁rural	-2488
▁salon	-2489
▁shape	-2490
▁shoot	-2491
▁smile	-2492
▁snack	-2493
▁south	-2494
▁subur	-2495
▁susan	-2496
▁syste	-2497
▁takes	-2498
▁techn	-2499
▁trail	-2500
▁tried	-2501
▁trust	-2502
▁until	-2503
▁urban	-2504
▁usual	-2505
▁voice	-2506
▁wants	-2507
▁waves	-2508
▁white	-2509
▁whole	-2510
▁women	-2511
▁yummy	-2512
ference	-2513
ressive	-2514
▁afraid	-2515
▁attend	-2516
▁babies	-2517
▁bagels	-2518
▁banker	-2519
▁became	-2520
▁become	-2521
▁bottle	-2522
▁bummed	-2523
▁celebr	-2524
▁corvet	-2525
▁decide	-2526
▁driver	-2527
▁enjoys	-2528
▁figure	-2529
▁flight	-2530
▁flower	-2531
▁flying	-2532
▁headed	-2533
▁honest	-2534
▁karate	-2535
▁lonely	-2536
▁middle	-2537
▁novels	-2538
▁orange	-2539
▁passed	-2540
▁photos	-2541
▁picked	-2542
▁police	-2543
▁potter	-2544
▁robert	-2545
▁roller	-2546
▁russia	-2547
▁sandwi	-2548
▁senior	-2549
▁spring	-2550
▁sweets	-2551
▁taught	-2552
▁thomas	-2553
▁thrift	-2554
▁voices	-2555
▁waiter	-2556
▁waking	-2557
ergarten	-2558
▁actress	-2559
▁already	-2560
▁annoyed	-2561
▁anyways	-2562
▁attract	-2563
▁barista	-2564
▁charlie	-2565
▁cheerle	-2566
▁chicken	-2567
▁chinese	-2568
▁colored	-2569
▁disappo	-2570
▁earlier	-2571
▁engaged	-2572
▁history	-2573
▁holiday	-2574
▁iguanas	-2575
▁landing	-2576
▁lessons	-2577
▁mexican	-2578
▁nightly	-2579
▁packing	-2580
▁partner	-2581
▁petting	-2582
▁private	-2583
▁problem	-2584
▁quickly	-2585
▁regular	-2586
▁seattle	-2587
▁tasting	-2588
▁telling	-2589
▁walmart	-2590
▁without	-2591
▁worried	-2592
▁although	-2593
▁audition	-2594
▁burritos	-2595
▁cartoons	-2596
▁climbing	-2597
▁communic	-2598
▁divorced	-2599
▁electric	-2600
▁everyone	-2601
▁fabulous	-2602
▁gorgeous	-2603
▁happened	-2604
▁homeless	-2605
▁macaroni	-2606
▁marathon	-2607
▁marriage	-2608
▁mechanic	-2609
▁military	-2610
▁pregnant	-2611
▁samantha	-2612
▁sleeping	-2613
▁spelling	-2614
▁stanford	-2615
▁steelers	-2616
▁survivor	-2617
▁visiting	-2618
▁apartment	-2619
▁ballerina	-2620
▁community	-2621
▁depressed	-2622
▁favourite	-2623
▁happening	-2624
▁marketing	-2625
▁president	-2626
▁searching	-2627
▁stressful	-2628
▁vegetable	-2629
▁frustrated	-2630
▁motorcycle	-2631
▁grandmother	-2632
▁kindergarten	-2633
▁congratulations	-2634
bm	-2635
cl	-2636
ea	-2637
fl	-2638
fo	-2639
fy	-2640
hh	-2641
ib	-2642
mi	-2643
ob	-2644
wo	-2645
yu	-2646
yy	-2647
000	-2648
bit	-2649
bum	-2650
can	-2651
cha	-2652
cle	-2653
com	-2654
ebr	-2655
err	-2656
ert	-2657
gie	-2658
hoo	-2659
iah	-2660
ias	-2661
icy	-2662
ier	-2663
iew	-2664
ili	-2665
ilt	-2666
iny	-2667
iry	-2668
ism	-2669
itz	-2670
kin	-2671
lex	-2672
lly	-2673
lop	-2674
mag	-2675
moc	-2676
ned	-2677
nie	-2678
nna	-2679
oha	-2680
oke	-2681
ote	-2682
oul	-2683
oyd	-2684
ped	-2685
pla	-2686
rae	-2687
ral	-2688
ras	-2689
rew	-2690
rma	-2691
spa	-2692
sup	-2693
ton	-2694
ucc	-2695
umn	-2696
uns	-2697
urt	-2698
uth	-2699
yed	-2700
you	-2701
▁23	-2702
▁50	-2703
▁cu	-2704
▁cy	-2705
▁eh	-2706
▁ga	-2707
▁hs	-2708
▁ow	-2709
▁tx	-2710
▁uk	-2711
▁um	-2712
ains	-2713
anda	-2714
anel	-2715
anta	-2716
ashv	-2717
aska	-2718
cles	-2719
comp	-2720
corn	-2721
cted	-2722
eeee	-2723
elle	-2724
endo	-2725
ends	-2726
ense	-2727
ging	-2728
gons	-2729
hier	-2730
ided	-2731
ider	-2732
iety	-2733
ifer	-2734
ikes	-2735
ille	-2736
illy	-2737
ions	-2738
ired	-2739
ites	-2740
ival	-2741
ives	-2742
ized	-2743
kins	-2744
lave	-2745
lden	-2746
lies	-2747
llie	-2748
llon	-2749
lody	-2750
mell	-2751
odle	-2752
onna	-2753
ouds	-2754
over	-2755
phic	-2756
rimp	-2757
ryan	-2758
ship	-2759
tact	-2760
ulti	-2761
umba	-2762
used	-2763
vana	-2764
waii	-2765
ween	-2766
wise	-2767
▁awe	-2768
▁box	-2769
▁cop	-2770
▁csi	-2771
▁dem	-2772
▁dig	-2773
▁dut	-2774
▁eag	-2775
▁eld	-2776
▁fre	-2777
▁fut	-2778
▁gal	-2779
▁gam	-2780
▁ibm	-2781
▁ire	-2782
▁jas	-2783
▁jog	-2784
▁nah	-2785
▁nam	-2786
▁nie	-2787
▁nir	-2788
▁nyc	-2789
▁obs	-2790
▁odd	-2791
▁oyu	-2792
▁pig	-2793
▁poe	-2794
▁pug	-2795
▁saw	-2796
▁sil	-2797
▁sir	-2798
▁sue	-2799
▁tay	-2800
▁tho	-2801
▁tic	-2802
▁var	-2803
▁wel	-2804
▁wit	-2805
▁yea	-2806
anian	-2807
anish	-2808
arter	-2809
ashed	-2810
ative	-2811
chool	-2812
cious	-2813
cisco	-2814
cover	-2815
ginia	-2816
iding	-2817
ienna	-2818
igner	-2819
ility	-2820
iolog	-2821
izing	-2822
loped	-2823
night	-2824
oduce	-2825
olina	-2826
ordin	-2827
otics	-2828
ovela	-2829
ppucc	-2830
range	-2831
umber	-2832
uming	-2833
urned	-2834
zzles	-2835
▁alco	-2836
▁alex	-2837
▁anna	-2838
▁arae	-2839
▁barb	-2840
▁bare	-2841
▁bars	-2842
▁bell	-2843
▁body	-2844
▁brag	-2845
▁brah	-2846
▁brit	-2847
▁buff	-2848
▁bugs	-2849
▁card	-2850
▁case	-2851
▁coke	-2852
▁cost	-2853
▁cult	-2854
▁cust	-2855
▁darn	-2856
▁deaf	-2857
▁deep	-2858
▁deli	-2859
▁desk	-2860
▁dust	-2861
▁fair	-2862
▁fest	-2863
▁film	-2864
▁gang	-2865
▁gave	-2866
▁godf	-2867
▁gosh	-2868
▁greg	-2869
▁hall	-2870
▁idea	-2871
▁imag	-2872
▁irma	-2873
▁jere	-2874
▁joan	-2875
▁josh	-2876
▁jump	-2877
▁kara	-2878
▁larp	-2879
▁lean	-2880
▁lind	-2881
▁lion	-2882
▁maid	-2883
▁mars	-2884
▁mass	-2885
▁mess	-2886
▁moon	-2887
▁nina	-2888
▁nint	-2889
▁noah	-2890
▁ones	-2891
▁oper	-2892
▁paul	-2893
▁penn	-2894
▁poor	-2895
▁prog	-2896
▁pump	-2897
▁punk	-2898
▁race	-2899
▁rare	-2900
▁rick	-2901
▁rome	-2902
▁sara	-2903
▁semi	-2904
▁shot	-2905
▁side	-2906
▁sons	-2907
▁sort	-2908
▁soul	-2909
▁spir	-2910
▁spot	-2911
▁stew	-2912
▁stor	-2913
▁temp	-2914
▁tide	-2915
▁till	-2916
▁tips	-2917
▁tool	-2918
▁tues	-2919
▁ways	-2920
▁whis	-2921
▁wore	-2922
▁wwii	-2923
▁zach	-2924
asters	-2925
covery	-2926
ention	-2927
entist	-2928
icians	-2929
ilding	-2930
letely	-2931
market	-2932
mocrat	-2933
paring	-2934
riever	-2935
ubbing	-2936
▁accou	-2937
▁achoo	-2938
▁activ	-2939
▁adopt	-2940
▁airpl	-2941
▁album	-2942
▁allie	-2943
▁aloha	-2944
▁awful	-2945
▁babys	-2946
▁baked	-2947
▁beard	-2948
▁bears	-2949
▁beers	-2950
▁beets	-2951
▁bryan	-2952
▁buddy	-2953
▁cabin	-2954
▁carry	-2955
▁check	-2956
▁cheet	-2957
▁chili	-2958
▁chris	-2959
▁climb	-2960
▁clubs	-2961
▁coach	-2962
▁crush	-2963
▁disab	-2964
▁dolls	-2965
▁eater	-2966
▁eight	-2967
▁elvis	-2968
▁encyc	-2969
▁energ	-2970
▁faith	-2971
▁finan	-2972
▁flood	-2973
▁floyd	-2974
▁gonna	-2975
▁grass	-2976
▁grill	-2977
▁guard	-2978
▁hired	-2979
▁honda	-2980
▁hubby	-2981
▁human	-2982
▁india	-2983
▁jason	-2984
▁jimmy	-2985
▁jovan	-2986
▁kinda	-2987
▁lakes	-2988
▁large	-2989
▁laugh	-2990
▁least	-2991
▁liter	-2992
▁lucky	-2993
▁maine	-2994
▁means	-2995
▁mommy	-2996
▁multi	-2997
▁nashv	-2998
▁paris	-2999
▁plane	-3000
▁plate	-3001
▁pomer	-3002
▁power	-3003
▁queen	-3004
▁quiet	-3005
▁raise	-3006
▁rolls	-3007
▁roses	-3008
▁scary	-3009
▁silly	-3010
▁skier	-3011
▁slave	-3012
▁smell	-3013
▁spain	-3014
▁stacy	-3015
▁stock	-3016
▁stuck	-3017
▁style	-3018
▁sugar	-3019
▁telen	-3020
▁third	-3021
▁tooth	-3022
▁track	-3023
▁trave	-3024
▁trump	-3025
▁types	-3026
▁whoop	-3027
▁worth	-3028
▁wrest	-3029
▁wrong	-3030
cellent	-3031
covered	-3032
mentary	-3033
▁accept	-3034
▁advent	-3035
▁alaska	-3036
▁amanda	-3037
▁anyway	-3038
▁austin	-3039
▁biking	-3040
▁biolog	-3041
▁bright	-3042
▁brunch	-3043
▁butter	-3044
▁chanel	-3045
▁cheers	-3046
▁cinder	-3047
▁clouds	-3048
▁delive	-3049
▁dragon	-3050
▁except	-3051
▁fallon	-3052
▁forest	-3053
▁formal	-3054
▁france	-3055
▁gerald	-3056
▁giving	-3057
▁golden	-3058
▁hawaii	-3059
▁horror	-3060
▁indian	-3061
▁island	-3062
▁latest	-3063
▁makeup	-3064
▁medium	-3065
▁melody	-3066
▁missed	-3067
▁needed	-3068
▁newspa	-3069
▁nieces	-3070
▁normal	-3071
▁oregon	-3072
▁poodle	-3073
▁prince	-3074
▁ranger	-3075
▁reason	-3076
▁reside	-3077
▁shrimp	-3078
▁skiing	-3079
▁sleepy	-3080
▁smooth	-3081
▁states	-3082
▁stores	-3083
▁system	-3084
▁talked	-3085
▁taller	-3086
▁taylor	-3087
▁teller	-3088
▁transg	-3089
▁vienna	-3090
▁volley	-3091
▁wassup	-3092
▁weight	-3093
iversity	-3094
ppuccino	-3095
▁antique	-3096
▁anxiety	-3097
▁beastie	-3098
▁between	-3099
▁blogger	-3100
▁brought	-3101
▁bulldog	-3102
▁cashier	-3103
▁contact	-3104
▁depends	-3105
▁divorce	-3106
▁dragons	-3107
▁drivers	-3108
▁dropped	-3109
▁enjoyed	-3110
▁golfing	-3111
▁graders	-3112
▁graphic	-3113
▁growing	-3114
▁healthy	-3115
▁heights	-3116
▁helping	-3117
▁hitting	-3118
▁houston	-3119
▁jamming	-3120
▁jenkins	-3121
▁karaoke	-3122
▁kitties	-3123
▁luckily	-3124
▁madonna	-3125
▁meeting	-3126
▁minutes	-3127
▁missing	-3128
▁muscles	-3129
▁mustang	-3130
▁namaste	-3131
▁nirvana	-3132
▁painter	-3133
▁pastime	-3134
▁patient	-3135
▁peppers	-3136
▁perfect	-3137
▁perform	-3138
▁planned	-3139
▁popcorn	-3140
▁popular	-3141
▁project	-3142
▁puppies	-3143
▁puzzles	-3144
▁russian	-3145
▁smoking	-3146
▁someday	-3147
▁spanish	-3148
▁stephen	-3149
▁strange	-3150
▁suggest	-3151
▁sundays	-3152
▁support	-3153
▁tending	-3154
▁theater	-3155
▁titanic	-3156
▁trained	-3157
▁trainer	-3158
▁tuesday	-3159
▁welcome	-3160
▁winding	-3161
▁younger	-3162
▁accident	-3163
▁anywhere	-3164
▁assuming	-3165
▁barbeque	-3166
▁building	-3167
▁carolina	-3168
▁catholic	-3169
▁checking	-3170
▁consider	-3171
▁corvette	-3172
▁cuddling	-3173
▁democrat	-3174
▁downtime	-3175
▁educated	-3176
▁feelings	-3177
▁fighting	-3178
▁goodness	-3179
▁helloooo	-3180
▁internet	-3181
▁jennifer	-3182
▁michelle	-3183
▁michigan	-3184
▁nintendo	-3185
▁physical	-3186
▁politics	-3187
▁returned	-3188
▁robotics	-3189
▁rollerbl	-3190
▁sandwich	-3191
▁snacking	-3192
▁straight	-3193
▁virginia	-3194
▁bartender	-3195
▁condition	-3196
▁disappoin	-3197
▁excellent	-3198
▁favorites	-3199
▁francisco	-3200
▁godfather	-3201
▁horseback	-3202
▁interests	-3203
▁mcdonalds	-3204
▁mountains	-3205
▁nashville	-3206
▁neighbors	-3207
▁political	-3208
▁preparing	-3209
▁relations	-3210
▁retriever	-3211
▁seriously	-3212
▁stressing	-3213
▁therapist	-3214
▁accounting	-3215
▁attractive	-3216
▁cappuccino	-3217
▁collecting	-3218
▁completely	-3219
▁department	-3220
▁developing	-3221
▁encycloped	-3222
▁hamburgers	-3223
▁impressive	-3224
▁instructor	-3225
▁personally	-3226
▁pomeranian	-3227
▁telenovela	-3228
▁university	-3229
▁volleyball	-3230
▁celebrating	-3231
▁supermarket	-3232
▁cheerleading	-3233
▁grandparents	-3234
bq	-3235
cu	-3236
dn	-3237
ec	-3238
ey	-3239
fu	-3240
gy	-3241
ki	-3242
mw	-3243
nn	-3244
pg	-3245
rd	-3246
sw	-3247
tc	-3248
▁x	-3249
aga	-3250
alg	-3251
alo	-3252
ank	-3253
arf	-3254
azy	-3255
bat	-3256
bru	-3257
car	-3258
cif	-3259
cil	-3260
cky	-3261
cur	-3262
ded	-3263
die	-3264
ely	-3265
ena	-3266
enm	-3267
erk	-3268
erm	-3269
ews	-3270
fly	-3271
fts	-3272
gry	-3273
hic	-3274
hro	-3275
ids	-3276
ied	-3277
ini	-3278
ips	-3279
ira	-3280
irm	-3281
irs	-3282
iss	-3283
ize	-3284
kel	-3285
lay	-3286
ler	-3287
lic	-3288
lls	-3289
met	-3290
mps	-3291
nic	-3292
oph	-3293
oud	-3294
oup	-3295
pac	-3296
pin	-3297
pir	-3298
pos	-3299
ndy	-3300
omy	-3301
ret	-3302
ria	-3303
ril	-3304
rol	-3305
rup	-3306
see	-3307
sol	-3308
syl	-3309
tit	-3310
uby	-3311
uel	-3312
ugg	-3313
uke	-3314
ule	-3315
ume	-3316
ung	-3317
unn	-3318
urb	-3319
uro	-3320
yal	-3321
zan	-3322
zel	-3323
▁ah	-3324
▁cm	-3325
▁ec	-3326
▁ef	-3327
▁ep	-3328
▁fu	-3329
▁ob	-3330
▁ou	-3331
▁py	-3332
abet	-3333
abul	-3334
agus	-3335
aiah	-3336
aire	-3337
aled	-3338
ales	-3339
alie	-3340
alsa	-3341
amel	-3342
anie	-3343
ante	-3344
aren	-3345
aron	-3346
arts	-3347
asty	-3348
atra	-3349
auce	-3350
bain	-3351
bbed	-3352
cade	-3353
cake	-3354
cess	-3355
chen	-3356
clud	-3357
coms	-3358
ctic	-3359
dnes	-3360
enty	-3361
eral	-3362
eran	-3363
foot	-3364
hind	-3365
hire	-3366
ible	-3367
icon	-3368
idow	-3369
ilar	-3370
iled	-3371
iles	-3372
illa	-3373
ills	-3374
inds	-3375
indu	-3376
ingo	-3377
ises	-3378
istr	-3379
itor	-3380
itzi	-3381
kers	-3382
keys	-3383
lend	-3384
lene	-3385
ller	-3386
lton	-3387
mber	-3388
ndas	-3389
ndon	-3390
odoo	-3391
oomy	-3392
oose	-3393
ouse	-3394
oust	-3395
owns	-3396
pher	-3397
quar	-3398
rage	-3399
reek	-3400
reet	-3401
reme	-3402
rian	-3403
rict	-3404
rise	-3405
rots	-3406
ruce	-3407
seas	-3408
seph	-3409
stig	-3410
sues	-3411
swer	-3412
umbs	-3413
uten	-3414
vada	-3415
view	-3416
wber	-3417
what	-3418
will	-3419
wind	-3420
yson	-3421
▁aka	-3422
▁atl	-3423
▁avo	-3424
▁bag	-3425
▁bat	-3426
▁bbq	-3427
▁bmw	-3428
▁bow	-3429
▁cho	-3430
▁cnn	-3431
▁col	-3432
▁cro	-3433
▁cry	-3434
▁dam	-3435
▁det	-3436
▁doo	-3437
▁ell	-3438
▁env	-3439
▁est	-3440
▁etc	-3441
▁eye	-3442
▁fer	-3443
▁fla	-3444
▁flu	-3445
▁fra	-3446
▁fro	-3447
▁gay	-3448
▁gru	-3449
▁hii	-3450
▁hoe	-3451
▁jag	-3452
▁jer	-3453
▁jud	-3454
▁kic	-3455
▁kim	-3456
▁lag	-3457
▁las	-3458
▁lea	-3459
▁lee	-3460
▁len	-3461
▁lic	-3462
▁lim	-3463
▁lum	-3464
▁mer	-3465
▁mig	-3466
▁mod	-3467
▁nap	-3468
▁ned	-3469
▁nfl	-3470
▁nut	-3471
▁opt	-3472
▁ord	-3473
▁org	-3474
▁pen	-3475
▁pos	-3476
▁pup	-3477
▁rem	-3478
▁rpg	-3479
▁sco	-3480
▁scr	-3481
▁sin	-3482
▁sup	-3483
▁tas	-3484
▁tow	-3485
▁toy	-3486
▁umm	-3487
▁voc	-3488
▁woo	-3489
▁wra	-3490
▁yay	-3491
achos	-3492
adian	-3493
aging	-3494
akeet	-3495
algic	-3496
alley	-3497
alous	-3498
althy	-3499
ament	-3500
andra	-3501
anged	-3502
asing	-3503
aster	-3504
ateur	-3505
athie	-3506
atoes	-3507
atomy	-3508
build	-3509
ccess	-3510
chery	-3511
ctive	-3512
ebras	-3513
essee	-3514
ether	-3515
ffany	-3516
gains	-3517
gging	-3518
going	-3519
guard	-3520
hroom	-3521
iance	-3522
iards	-3523
icole	-3524
icorn	-3525
ictor	-3526
icure	-3527
igail	-3528
igned	-3529
ional	-3530
isies	-3531
itted	-3532
lance	-3533
leted	-3534
letic	-3535
lines	-3536
lipse	-3537
maker	-3538
mpion	-3539
mpire	-3540
ndous	-3541
ocked	-3542
olars	-3543
ology	-3544
olved	-3545
omers	-3546
orney	-3547
ouses	-3548
phews	-3549
place	-3550
plore	-3551
ralia	-3552
rasse	-3553
rious	-3554
shore	-3555
solut	-3556
splay	-3557
stein	-3558
style	-3559
ublin	-3560
ulate	-3561
urope	-3562
using	-3563
vania	-3564
wards	-3565
zania	-3566
▁adam	-3567
▁ages	-3568
▁alph	-3569
▁arri	-3570
▁bach	-3571
▁bass	-3572
▁beef	-3573
▁belt	-3574
▁bite	-3575
▁brew	-3576
▁bunn	-3577
▁cali	-3578
▁calm	-3579
▁cass	-3580
▁cent	-3581
▁chad	-3582
▁chai	-3583
▁chet	-3584
▁chip	-3585
▁clos	-3586
▁clue	-3587
▁cont	-3588
▁crow	-3589
▁dana	-3590
▁dang	-3591
▁deer	-3592
▁denm	-3593
▁denn	-3594
▁dest	-3595
▁dire	-3596
▁dish	-3597
▁docu	-3598
▁drop	-3599
▁duke	-3600
▁duty	-3601
▁dyed	-3602
▁earn	-3603
▁emot	-3604
▁exam	-3605
▁expe	-3606
▁fear	-3607
▁fell	-3608
▁fing	-3609
▁firm	-3610
▁fist	-3611
▁folk	-3612
▁gaga	-3613
▁gail	-3614
▁gary	-3615
▁gent	-3616
▁geoc	-3617
▁gigi	-3618
▁gila	-3619
▁gogh	-3620
▁goin	-3621
▁guns	-3622
▁gymn	-3623
▁half	-3624
▁heat	-3625
▁holy	-3626
▁hoop	-3627
▁iced	-3628
▁idol	-3629
▁intr	-3630
▁jace	-3631
▁jama	-3632
▁jars	-3633
▁joey	-3634
▁joke	-3635
▁junk	-3636
▁keto	-3637
▁keys	-3638
▁kurt	-3639
▁lazy	-3640
▁liar	-3641
▁lose	-3642
▁loss	-3643
▁mang	-3644
▁mart	-3645
▁math	-3646
▁meow	-3647
▁midw	-3648
▁milk	-3649
▁nasa	-3650
▁neil	-3651
▁nerd	-3652
▁none	-3653
▁nost	-3654
▁nugg	-3655
▁oooo	-3656
▁opin	-3657
▁oven	-3658
▁pant	-3659
▁pete	-3660
▁phew	-3661
▁phil	-3662
▁pigs	-3663
▁pist	-3664
▁poem	-3665
▁poss	-3666
▁pray	-3667
▁puff	-3668
▁pull	-3669
▁repa	-3670
▁rice	-3671
▁role	-3672
▁roof	-3673
▁ruby	-3674
▁rush	-3675
▁ruth	-3676
▁sack	-3677
▁sale	-3678
▁seat	-3679
▁seed	-3680
▁seem	-3681
▁sees	-3682
▁sent	-3683
▁sere	-3684
▁sett	-3685
▁shep	-3686
▁sigh	-3687
▁simp	-3688
▁situ	-3689
▁slip	-3690
▁snor	-3691
▁soci	-3692
▁sore	-3693
▁spin	-3694
▁ster	-3695
▁stoc	-3696
▁summ	-3697
▁tara	-3698
▁teap	-3699
▁tiki	-3700
▁tiny	-3701
▁tofu	-3702
▁tons	-3703
▁toto	-3704
▁twin	-3705
▁vill	-3706
▁warm	-3707
▁wars	-3708
▁wats	-3709
▁whom	-3710
▁wuss	-3711
anting	-3712
backer	-3713
bruary	-3714
crease	-3715
curity	-3716
ending	-3717
erable	-3718
fected	-3719
gether	-3720
ightly	-3721
ineers	-3722
iobook	-3723
istant	-3724
ittles	-3725
marine	-3726
ording	-3727
oustic	-3728
piring	-3729
posing	-3730
school	-3731
ultant	-3732
urbish	-3733
utante	-3734
verage	-3735
weight	-3736
▁actor	-3737
▁admin	-3738
▁angel	-3739
▁angry	-3740
▁april	-3741
▁aquar	-3742
▁aside	-3743
▁aspar	-3744
▁award	-3745
▁based	-3746
▁begin	-3747
▁biker	-3748
▁bites	-3749
▁blast	-3750
▁bless	-3751
▁blind	-3752
▁brain	-3753
▁brian	-3754
▁bunch	-3755
▁cable	-3756
▁calms	-3757
▁cards	-3758
▁china	-3759
▁chips	-3760
▁clerk	-3761
▁coast	-3762
▁condo	-3763
▁crack	-3764
▁crash	-3765
▁creek	-3766
▁curly	-3767
▁debra	-3768
▁debts	-3769
▁diego	-3770
▁doors	-3771
▁drake	-3772
▁drank	-3773
▁eager	-3774
▁eaten	-3775
▁ebook	-3776
▁fairy	-3777
▁farms	-3778
▁faves	-3779
▁field	-3780
▁films	-3781
▁fixed	-3782
▁flash	-3783
▁focus	-3784
▁folks	-3785
▁gamer	-3786
▁giant	-3787
▁goals	-3788
▁goofy	-3789
▁grace	-3790
▁gross	-3791
▁group	-3792
▁habit	-3793
▁hamps	-3794
▁hazel	-3795
▁heals	-3796
▁heart	-3797
▁hikes	-3798
▁hindu	-3799
▁howre	-3800
▁hurry	-3801
▁husky	-3802
▁indie	-3803
▁irene	-3804
▁italy	-3805
▁janet	-3806
▁jello	-3807
▁jenny	-3808
▁juice	-3809
▁kayak	-3810
▁knows	-3811
▁legal	-3812
▁light	-3813
▁linda	-3814
▁lines	-3815
▁louis	-3816
▁loved	-3817
▁maker	-3818
▁mandi	-3819
▁mandy	-3820
▁maria	-3821
▁mario	-3822
▁marry	-3823
▁marti	-3824
▁mates	-3825
▁meals	-3826
▁meant	-3827
▁medic	-3828
▁medit	-3829
▁mitzi	-3830
▁model	-3831
▁moves	-3832
▁nasty	-3833
▁occup	-3834
▁olive	-3835
▁opera	-3836
▁pants	-3837
▁parts	-3838
▁peace	-3839
▁pecan	-3840
▁pharm	-3841
▁pleas	-3842
▁proud	-3843
▁quilt	-3844
▁ranch	-3845
▁range	-3846
▁reach	-3847
▁river	-3848
▁salsa	-3849
▁sauce	-3850
▁scout	-3851
▁seems	-3852
▁serve	-3853
▁shall	-3854
▁sixth	-3855
▁skink	-3856
▁slice	-3857
▁smart	-3858
▁smoke	-3859
▁songs	-3860
▁space	-3861
▁speed	-3862
▁stars	-3863
▁stick	-3864
▁syrup	-3865
▁tiger	-3866
▁topic	-3867
▁trees	-3868
▁tunes	-3869
▁twins	-3870
▁tyson	-3871
▁uncle	-3872
▁uncom	-3873
▁using	-3874
▁valed	-3875
▁veter	-3876
▁whitt	-3877
▁widow	-3878
▁windy	-3879
▁wives	-3880
▁woods	-3881
▁worms	-3882
▁worse	-3883
▁worst	-3884
▁wreck	-3885
▁wrote	-3886
▁yikes	-3887
▁yodel	-3888
▁zumba	-3889
asizing	-3890
cluding	-3891
dnesday	-3892
ibility	-3893
ightful	-3894
ionaire	-3895
ologist	-3896
ruction	-3897
warding	-3898
▁afford	-3899
▁albert	-3900
▁altern	-3901
▁andrew	-3902
▁answer	-3903
▁arcade	-3904
▁autism	-3905
▁autumn	-3906
▁batman	-3907
▁behind	-3908
▁biggie	-3909
▁boiled	-3910
▁breast	-3911
▁brings	-3912
▁buying	-3913
▁called	-3914
▁chance	-3915
▁chilly	-3916
▁clowns	-3917
▁cobain	-3918
▁collie	-3919
▁combat	-3920
▁comedy	-3921
▁common	-3922
▁crafts	-3923
▁decent	-3924
▁descri	-3925
▁desert	-3926
▁diving	-3927
▁dublin	-3928
▁eagles	-3929
▁eldest	-3930
▁energy	-3931
▁estate	-3932
▁europe	-3933
▁exited	-3934
▁expert	-3935
▁farmer	-3936
▁fiance	-3937
▁fixing	-3938
▁flavor	-3939
▁foodie	-3940
▁forget	-3941
▁former	-3942
▁future	-3943
▁george	-3944
▁gloomy	-3945
▁gluten	-3946
▁haired	-3947
▁harley	-3948
▁heated	-3949
▁hectic	-3950
▁height	-3951
▁hilton	-3952
▁hippie	-3953
▁hippos	-3954
▁hiring	-3955
▁hobbie	-3956
▁holley	-3957
▁hoodoo	-3958
▁hotdog	-3959
▁houses	-3960
▁hunter	-3961
▁isaiah	-3962
▁issues	-3963
▁jackie	-3964
▁jasper	-3965
▁jeremy	-3966
▁jersey	-3967
▁kathie	-3968
▁kiddos	-3969
▁killed	-3970
▁killer	-3971
▁lesson	-3972
▁letter	-3973
▁lizard	-3974
▁london	-3975
▁longer	-3976
▁maiden	-3977
▁manage	-3978
▁manual	-3979
▁market	-3980
▁marsha	-3981
▁miguel	-3982
▁nachos	-3983
▁nascar	-3984
▁nevada	-3985
▁nicole	-3986
▁nights	-3987
▁number	-3988
▁owners	-3989
▁pandas	-3990
▁parent	-3991
▁pencil	-3992
▁planes	-3993
▁plants	-3994
▁plenty	-3995
▁poster	-3996
▁proper	-3997
▁racing	-3998
▁reject	-3999
▁relate	-4000
▁retail	-4001
▁review	-4002
▁runner	-4003
▁salmon	-4004
▁saving	-4005
▁seeing	-4006
▁shaped	-4007
▁sharks	-4008
▁sitter	-4009
▁skills	-4010
▁specif	-4011
▁spirit	-4012
▁stable	-4013
▁stairm	-4014
▁street	-4015
▁strong	-4016
▁suburb	-4017
▁subway	-4018
▁surfer	-4019
▁tables	-4020
▁talent	-4021
▁thumbs	-4022
▁ticket	-4023
▁tiring	-4024
▁trails	-4025
▁trains	-4026
▁travis	-4027
▁turned	-4028
▁typing	-4029
▁unwind	-4030
▁valley	-4031
▁walked	-4032
▁woohoo	-4033
▁worlds	-4034
▁yearly	-4035
▁zebras	-4036
ccessful	-4037
covering	-4038
fortable	-4039
ictorian	-4040
mination	-4041
ographer	-4042
olarship	-4043
solutely	-4044
sylvania	-4045
▁abigail	-4046
▁advance	-4047
▁allergy	-4048
▁amateur	-4049
▁anatomy	-4050
▁anxious	-4051
▁anybody	-4052
▁archery	-4053
▁atlanta	-4054
▁austria	-4055
▁babysit	-4056
▁biology	-4057
▁blessed	-4058
▁boating	-4059
▁buffalo	-4060
▁bunnies	-4061
▁burgers	-4062
▁burrito	-4063
▁cabinet	-4064
▁candies	-4065
▁candles	-4066
▁caramel	-4067
▁carrots	-4068
▁changed	-4069
▁charley	-4070
▁chasing	-4071
▁cheetah	-4072
▁chillin	-4073
▁clients	-4074
▁combing	-4075
▁convent	-4076
▁coordin	-4077
▁cosplay	-4078
▁costume	-4079
▁crowded	-4080
▁cutting	-4081
▁daisies	-4082
▁darlene	-4083
▁decided	-4084
▁denmark	-4085
▁dreamer	-4086
▁drummer	-4087
▁dusting	-4088
▁eclipse	-4089
▁explore	-4090
▁extreme	-4091
▁fiction	-4092
▁filling	-4093
▁finding	-4094
▁fingers	-4095
▁fitness	-4096
▁flooded	-4097
▁florist	-4098
▁foreign	-4099
▁grandma	-4100
▁happily	-4101
▁hipster	-4102
▁hurting	-4103
▁imagine	-4104
▁jamaica	-4105
▁jealous	-4106
▁keeping	-4107
▁kidding	-4108
▁kitchen	-4109
▁kittens	-4110
▁knocked	-4111
▁leaving	-4112
▁license	-4113
▁located	-4114
▁manager	-4115
▁massage	-4116
▁masters	-4117
▁matches	-4118
▁mothers	-4119
▁museums	-4120
▁neither	-4121
▁nephews	-4122
▁nuggets	-4123
▁opening	-4124
▁opinion	-4125
▁pageant	-4126
▁parties	-4127
▁passive	-4128
▁pistach	-4129
▁planing	-4130
▁process	-4131
▁produce	-4132
▁program	-4133
▁pumpkin	-4134
▁putting	-4135
▁quarter	-4136
▁recycle	-4137
▁related	-4138
▁reminds	-4139
▁scratch	-4140
▁session	-4141
▁sheeran	-4142
▁shelves	-4143
▁silicon	-4144
▁sinatra	-4145
▁sitcoms	-4146
▁stabbed	-4147
▁staring	-4148
▁studied	-4149
▁suburbs	-4150
▁sunrise	-4151
▁sweetie	-4152
▁therapy	-4153
▁tiffany	-4154
▁touches	-4155
▁towards	-4156
▁unicorn	-4157
▁vampire	-4158
▁vanilla	-4159
▁various	-4160
▁village	-4161
▁wanting	-4162
▁whether	-4163
▁willing	-4164
▁winning	-4165
▁witness	-4166
▁worries	-4167
istration	-4168
▁accepted	-4169
▁acoustic	-4170
▁activity	-4171
▁alphabet	-4172
▁annoying	-4173
▁aquarium	-4174
▁artistic	-4175
▁aspiring	-4176
▁athletic	-4177
▁attorney	-4178
▁avoiding	-4179
▁barefoot	-4180
▁bargains	-4181
▁canadian	-4182
▁champion	-4183
▁clubbing	-4184
▁confused	-4185
▁constant	-4186
▁creating	-4187
▁cupcakes	-4188
▁degrasse	-4189
▁designed	-4190
▁designer	-4191
▁disabled	-4192
▁drawings	-4193
▁dropping	-4194
▁employed	-4195
▁employee	-4196
▁expected	-4197
▁experien	-4198
▁facebook	-4199
▁february	-4200
▁festival	-4201
▁floating	-4202
▁friendly	-4203
▁goodwill	-4204
▁graduate	-4205
▁headache	-4206
▁holidays	-4207
▁horrible	-4208
▁husbands	-4209
▁increase	-4210
▁involved	-4211
▁japanese	-4212
▁jovannie	-4213
▁midnight	-4214
▁mushroom	-4215
▁mustache	-4216
▁obsessed	-4217
▁offshore	-4218
▁overseas	-4219
▁pageants	-4220
▁parakeet	-4221
▁personal	-4222
▁planting	-4223
▁position	-4224
▁prepping	-4225
▁recovery	-4226
▁religion	-4227
▁research	-4228
▁roommate	-4229
▁salesman	-4230
▁security	-4231
▁shooting	-4232
▁skittles	-4233
▁slightly	-4234
▁somewhat	-4235
▁sterling	-4236
▁stocking	-4237
▁strawber	-4238
▁supplies	-4239
▁tanzania	-4240
▁together	-4241
▁youngest	-4242
▁addiction	-4243
▁adventure	-4244
▁airplanes	-4245
▁alcoholic	-4246
▁asparagus	-4247
▁assistant	-4248
▁attention	-4249
▁audiobook	-4250
▁australia	-4251
▁backwards	-4252
▁billiards	-4253
▁butterfly	-4254
▁christina	-4255
▁christine	-4256
▁collector	-4257
▁committed	-4258
▁completed	-4259
▁customers	-4260
▁debutante	-4261
▁delivered	-4262
▁demanding	-4263
▁financial	-4264
▁freelance	-4265
▁groceries	-4266
▁guitarist	-4267
▁hampshire	-4268
▁hellooooo	-4269
▁homemaker	-4270
▁hopefully	-4271
▁including	-4272
▁lifeguard	-4273
▁lifestyle	-4274
▁lightning	-4275
▁literally	-4276
▁lumineers	-4277
▁marathons	-4278
▁miserable	-4279
▁musicians	-4280
▁newspaper	-4281
▁nostalgic	-4282
▁otherwise	-4283
▁pepperoni	-4284
▁proposing	-4285
▁reference	-4286
▁refurbish	-4287
▁rewarding	-4288
▁roommates	-4289
▁scientist	-4290
▁shoulders	-4291
▁somewhere	-4292
▁specially	-4293
▁stephanie	-4294
▁submarine	-4295
▁tennessee	-4296
▁violinist	-4297
▁wednesday	-4298
▁whittling	-4299
▁absolutely	-4300
▁conference	-4301
▁consultant	-4302
▁delightful	-4303
▁discovered	-4304
▁elementary	-4305
▁everywhere	-4306
▁highschool	-4307
▁hurricanes	-4308
▁internship	-4309
▁linebacker	-4310
▁meditation	-4311
▁occupation	-4312
▁overweight	-4313
▁recovering	-4314
▁situations	-4315
▁successful	-4316
▁technician	-4317
▁travelling	-4318
▁fantasizing	-4319
▁instruments	-4320
▁politicians	-4321
▁quarterback	-4322
▁scholarship	-4323
▁stairmaster	-4324
▁transgender	-4325
▁construction	-4326
▁disappointed	-4327
▁pennsylvania	-4328
▁relationship	-4329
▁communication	-4330
▁encyclopedias	-4331
▁rollerblading	-4332
▁uncomfortable	-4333
▁valedictorian	-4334
▁administration	-4335
▁professionally	-4336
oooooooooooooooo	-4337
25	-4338
50	-4339
bt	-4340
by	-4341
cd	-4342
cs	-4343
de	-4344
di	-4345
du	-4346
fa	-4347
ga	-4348
gi	-4349
gm	-4350
gr	-4351
gt	-4352
he	-4353
hg	-4354
hr	-4355
ht	-4356
ji	-4357
jo	-4358
kn	-4359
ku	-4360
ls	-4361
mv	-4362
nb	-4363
ni	-4364
nv	-4365
oh	-4366
ox	-4367
pm	-4368
qv	-4369
rr	-4370
sa	-4371
sd	-4372
vo	-4373
yd	-4374
yi	-4375
yl	-4376
ze	-4377
ack	-4378
add	-4379
adi	-4380
ads	-4381
ala	-4382
aly	-4383
ann	-4384
arl	-4385
arn	-4386
ato	-4387
aty	-4388
bay	-4389
beg	-4390
boy	-4391
bra	-4392
bye	-4393
chi	-4394
cic	-4395
cod	-4396
coe	-4397
col	-4398
cue	-4399
amb	-4400
cut	-4401
dar	-4402
den	-4403
dic	-4404
dit	-4405
eal	-4406
ens	-4407
ern	-4408
erv	-4409
esh	-4410
ety	-4411
fic	-4412
fit	-4413
for	-4414
ftw	-4415
fty	-4416
gat	-4417
ged	-4418
ges	-4419
ggg	-4420
gly	-4421
gor	-4422
gre	-4423
hed	-4424
hon	-4425
how	-4426
ial	-4427
iao	-4428
ido	-4429
iel	-4430
iff	-4431
ify	-4432
iht	-4433
iky	-4434
inc	-4435
inn	-4436
iod	-4437
irt	-4438
ita	-4439
kee	-4440
kny	-4441
lar	-4442
las	-4443
ldi	-4444
leu	-4445
mad	-4446
mat	-4447
mie	-4448
mme	-4449
nar	-4450
nds	-4451
nor	-4452
nry	-4453
ntu	-4454
nus	-4455
obi	-4456
oda	-4457
ode	-4458
olo	-4459
oma	-4460
ood	-4461
oon	-4462
opy	-4463
ota	-4464
oug	-4465
owa	-4466
ows	-4467
ppy	-4468
pst	-4469
rac	-4470
reh	-4471
rey	-4472
rid	-4473
rix	-4474
riz	-4475
rop	-4476
rum	-4477
sel	-4478
sem	-4479
sex	-4480
sis	-4481
son	-4482
ssy	-4483
sth	-4484
tes	-4485
tha	-4486
tor	-4487
uar	-4488
uba	-4489
uit	-4490
ulu	-4491
une	-4492
uno	-4493
ura	-4494
ury	-4495
vey	-4496
via	-4497
wel	-4498
xed	-4499
act	-4500
eek	-4501
iam	-4502
mpy	-4503
ooh	-4504
raq	-4505
rus	-4506
ryl	-4507
unt	-4508
vid	-4509
xta	-4510
yes	-4511
yme	-4512
zac	-4513
zen	-4514
▁32	-4515
▁53	-4516
▁ai	-4517
▁aj	-4518
▁ax	-4519
▁ay	-4520
▁bc	-4521
▁bf	-4522
▁bj	-4523
▁cb	-4524
▁cw	-4525
▁dc	-4526
▁dj	-4527
▁dy	-4528
▁ew	-4529
▁ft	-4530
▁gf	-4531
▁gm	-4532
▁hm	-4533
▁hp	-4534
▁hr	-4535
▁ic	-4536
▁ig	-4537
▁jd	-4538
▁ki	-4539
▁mr	-4540
▁nc	-4541
▁nt	-4542
▁nw	-4543
▁qv	-4544
▁rl	-4545
▁uc	-4546
▁uh	-4547
▁yr	-4548
ader	-4549
adow	-4550
agen	-4551
agle	-4552
akob	-4553
anet	-4554
arge	-4555
aris	-4556
aroo	-4557
ateg	-4558
atha	-4559
atre	-4560
brom	-4561
care	-4562
cers	-4563
chet	-4564
cier	-4565
cked	-4566
cker	-4567
crib	-4568
cuss	-4569
date	-4570
ding	-4571
eist	-4572
enic	-4573
erek	-4574
erly	-4575
esus	-4576
fish	-4577
game	-4578
gate	-4579
gner	-4580
gues	-4581
gust	-4582
hhhg	-4583
hill	-4584
ieve	-4585
ilro	-4586
indy	-4587
ined	-4588
inge	-4589
inis	-4590
inog	-4591
ique	-4592
irty	-4593
isfy	-4594
ivic	-4595
kets	-4596
lain	-4597
lant	-4598
lest	-4599
bee	-4600
dge	-4601
eez	-4602
gth	-4603
▁vs	-4604
▁vu	-4605
▁vv	-4606
icip	-4607
inks	-4608
iron	-4609
llas	-4610
loaf	-4611
love	-4612
lymp	-4613
mera	-4614
mers	-4615
mond	-4616
mont	-4617
nday	-4618
ndec	-4619
ndel	-4620
ndry	-4621
neak	-4622
nter	-4623
oduc	-4624
olen	-4625
olic	-4626
omic	-4627
oner	-4628
onge	-4629
onol	-4630
onto	-4631
onym	-4632
orch	-4633
ored	-4634
ores	-4635
otch	-4636
oter	-4637
ourt	-4638
pend	-4639
pite	-4640
port	-4641
ppes	-4642
rade	-4643
reed	-4644
rest	-4645
ribb	-4646
ribe	-4647
rime	-4648
rite	-4649
rius	-4650
roll	-4651
rove	-4652
rtle	-4653
ryer	-4654
sets	-4655
sion	-4656
spel	-4657
spir	-4658
ssed	-4659
step	-4660
stie	-4661
teen	-4662
terp	-4663
tual	-4664
ubby	-4665
ught	-4666
ulse	-4667
ulus	-4668
unge	-4669
upid	-4670
urom	-4671
usan	-4672
uses	-4673
vere	-4674
vern	-4675
vert	-4676
vice	-4677
vine	-4678
your	-4679
yton	-4680
▁alt	-4681
▁ami	-4682
▁amy	-4683
▁ash	-4684
▁asl	-4685
▁atm	-4686
▁awk	-4687
▁bel	-4688
▁ben	-4689
▁cay	-4690
▁cir	-4691
▁cos	-4692
▁coz	-4693
▁cru	-4694
▁dre	-4695
▁drs	-4696
▁eas	-4697
▁erg	-4698
▁eth	-4699
blo	-4700
box	-4701
ifi	-4702
jud	-4703
lif	-4704
sul	-4705
uda	-4706
achy	-4707
cred	-4708
hony	-4709
mmig	-4710
ools	-4711
pect	-4712
sung	-4713
ules	-4714
▁fet	-4715
▁foo	-4716
▁fry	-4717
▁gey	-4718
▁gin	-4719
▁gut	-4720
▁hah	-4721
▁hai	-4722
▁hat	-4723
▁haw	-4724
▁hay	-4725
▁hea	-4726
▁heh	-4727
▁hiw	-4728
▁hol	-4729
▁iam	-4730
▁ill	-4731
▁ins	-4732
▁jay	-4733
▁jet	-4734
▁kam	-4735
▁kis	-4736
▁lay	-4737
▁lil	-4738
▁lob	-4739
▁los	-4740
▁mba	-4741
▁meh	-4742
▁mic	-4743
▁mir	-4744
▁mob	-4745
▁nao	-4746
▁nba	-4747
▁nic	-4748
▁non	-4749
▁oak	-4750
▁ocd	-4751
▁omn	-4752
▁pad	-4753
▁ped	-4754
▁pir	-4755
▁pon	-4756
▁poo	-4757
▁pss	-4758
▁pud	-4759
▁que	-4760
▁ree	-4761
▁rer	-4762
▁row	-4763
▁sax	-4764
▁sca	-4765
▁sea	-4766
▁sep	-4767
▁sew	-4768
▁sic	-4769
▁sip	-4770
▁ske	-4771
▁sol	-4772
▁spo	-4773
▁sto	-4774
▁sty	-4775
▁suv	-4776
▁ted	-4777
▁tim	-4778
▁toe	-4779
▁tur	-4780
▁upf	-4781
▁ups	-4782
▁uru	-4783
▁ver	-4784
▁vom	-4785
▁war	-4786
▁wat	-4787
▁wau	-4788
▁wen	-4789
▁wet	-4790
▁wht	-4791
▁wwe	-4792
▁wyd	-4793
▁yan	-4794
▁yup	-4795
▁zee	-4796
▁zen	-4797
acher	-4798
acked	-4799
ako	-4800
amp	-4801
iii	-4802
akin	-4803
inem	-4804
ints	-4805
list	-4806
mine	-4807
mist	-4808
omed	-4809
risp	-4810
ucch	-4811
uits	-4812
zzed	-4813
▁ark	-4814
▁caf	-4815
▁cig	-4816
▁dex	-4817
▁mae	-4818
▁obv	-4819
▁une	-4820
aders	-4821
afood	-4822
ainly	-4823
alach	-4824
aling	-4825
amped	-4826
ancer	-4827
ances	-4828
anion	-4829
anket	-4830
ansen	-4831
aries	-4832
aring	-4833
asion	-4834
aters	-4835
ature	-4836
avesd	-4837
bling	-4838
chain	-4839
color	-4840
ended	-4841
ently	-4842
essor	-4843
estra	-4844
feine	-4845
field	-4846
ganiz	-4847
gatti	-4848
hibit	-4849
hicle	-4850
icien	-4851
icted	-4852
igans	-4853
ilder	-4854
iling	-4855
illed	-4856
ilter	-4857
iment	-4858
imist	-4859
inade	-4860
inger	-4861
ining	-4862
inist	-4863
iracy	-4864
irted	-4865
isine	-4866
ising	-4867
isket	-4868
istle	-4869
istro	-4870
ities	-4871
itten	-4872
itton	-4873
itzer	-4874
izure	-4875
kesha	-4876
ketch	-4877
lator	-4878
lding	-4879
leman	-4880
leton	-4881
lings	-4882
llies	-4883
loyed	-4884
maids	-4885
minal	-4886
mmies	-4887
mpits	-4888
neaky	-4889
nival	-4890
ntley	-4891
onged	-4892
ordan	-4893
order	-4894
ories	-4895
orter	-4896
otive	-4897
pared	-4898
pense	-4899
cqu	-4900
▁22	-4901
▁za	-4902
amon	-4903
ango	-4904
ardy	-4905
atte	-4906
dian	-4907
doll	-4908
iard	-4909
ierd	-4910
iler	-4911
ques	-4912
requ	-4913
town	-4914
wolf	-4915
▁exp	-4916
▁guc	-4917
▁oil	-4918
▁psy	-4919
▁roc	-4920
▁squ	-4921
▁woe	-4922
▁zip	-4923
ademy	-4924
angle	-4925
asted	-4926
bbers	-4927
bbing	-4928
cquet	-4929
ences	-4930
inois	-4931
isham	-4932
least	-4933
nores	-4934
ptain	-4935
ption	-4936
rizon	-4937
ronic	-4938
royed	-4939
start	-4940
stery	-4941
stile	-4942
store	-4943
sults	-4944
uddle	-4945
uster	-4946
ustle	-4947
uting	-4948
verty	-4949
wagen	-4950
woman	-4951
xtape	-4952
▁acqu	-4953
▁alge	-4954
▁alls	-4955
▁ange	-4956
▁appa	-4957
▁bang	-4958
▁bath	-4959
▁bees	-4960
▁bene	-4961
▁besh	-4962
▁beta	-4963
▁beth	-4964
▁bets	-4965
▁bicy	-4966
▁bird	-4967
▁bisc	-4968
▁brad	-4969
▁bros	-4970
▁buys	-4971
▁cafe	-4972
▁cage	-4973
▁calc	-4974
▁cape	-4975
▁carb	-4976
▁cast	-4977
▁chak	-4978
▁chea	-4979
▁ched	-4980
▁ciao	-4981
▁cory	-4982
▁cran	-4983
▁crap	-4984
▁cruz	-4985
▁damn	-4986
▁deck	-4987
▁derm	-4988
▁derr	-4989
▁dess	-4990
▁dine	-4991
▁ding	-4992
▁dive	-4993
▁doig	-4994
▁door	-4995
▁doug	-4996
▁earr	-4997
▁ears	-4998
▁eats	-4999
bob	-5000
ios	-5001
smy	-5002
uma	-5003
ums	-5004
andy	-5005
athe	-5006
eple	-5007
give	-5008
icks	-5009
ived	-5010
like	-5011
mmie	-5012
ptic	-5013
uums	-5014
▁hmm	-5015
▁raj	-5016
▁rum	-5017
anded	-5018
anics	-5019
esity	-5020
inous	-5021
tonio	-5022
▁aand	-5023
▁berm	-5024
▁brow	-5025
▁bush	-5026
▁coco	-5027
▁cous	-5028
▁ebay	-5029
▁elli	-5030
▁erin	-5031
▁erra	-5032
▁fail	-5033
▁fake	-5034
▁fame	-5035
▁fart	-5036
▁feat	-5037
▁fero	-5038
▁fido	-5039
▁foam	-5040
▁fund	-5041
▁garf	-5042
▁geat	-5043
▁gigs	-5044
▁gish	-5045
▁glue	-5046
▁gnar	-5047
▁goto	-5048
▁gour	-5049
▁groo	-5050
▁hace	-5051
▁hare	-5052
▁haul	-5053
▁hend	-5054
▁heya	-5055
▁homo	-5056
▁impl	-5057
▁inam	-5058
▁info	-5059
▁inve	-5060
▁jeep	-5061
▁jeez	-5062
▁jeop	-5063
▁jimi	-5064
▁jock	-5065
▁joes	-5066
▁jude	-5067
▁jugg	-5068
▁jull	-5069
▁june	-5070
▁kale	-5071
▁kami	-5072
▁kang	-5073
▁kart	-5074
▁kate	-5075
▁kept	-5076
▁kite	-5077
▁knot	-5078
▁lamb	-5079
▁lamp	-5080
▁lele	-5081
▁leno	-5082
▁lent	-5083
▁load	-5084
▁macy	-5085
▁mill	-5086
▁mint	-5087
▁mist	-5088
▁mort	-5089
▁mour	-5090
▁mudd	-5091
▁nail	-5092
▁neet	-5093
▁nine	-5094
▁olds	-5095
▁orch	-5096
▁owen	-5097
▁owns	-5098
▁paid	-5099
aces	-5100
agna	-5101
ased	-5102
ashe	-5103
chhi	-5104
izzy	-5105
mary	-5106
nity	-5107
vity	-5108
▁dip	-5109
▁fli	-5110
▁glo	-5111
▁jax	-5112
▁key	-5113
▁phd	-5114
▁uns	-5115
▁wiz	-5116
▁yah	-5117
acist	-5118
ckles	-5119
ffles	-5120
inary	-5121
rical	-5122
tales	-5123
▁arts	-5124
▁diam	-5125
▁dkny	-5126
▁glen	-5127
▁grub	-5128
▁helo	-5129
▁kiss	-5130
▁lift	-5131
▁nemo	-5132
▁pair	-5133
▁palm	-5134
▁pard	-5135
▁peed	-5136
▁phob	-5137
▁picn	-5138
▁pies	-5139
▁pita	-5140
▁plot	-5141
▁pluc	-5142
▁pope	-5143
▁purp	-5144
▁ragg	-5145
▁rams	-5146
▁rate	-5147
▁rech	-5148
▁redh	-5149
▁redo	-5150
▁rele	-5151
▁resp	-5152
▁ring	-5153
▁rise	-5154
▁rout	-5155
▁sake	-5156
▁sean	-5157
▁sehr	-5158
▁sher	-5159
▁shhh	-5160
▁shir	-5161
▁shoe	-5162
▁sink	-5163
▁size	-5164
▁sold	-5165
▁sour	-5166
▁sown	-5167
▁spit	-5168
▁spur	-5169
▁stat	-5170
▁stim	-5171
▁suck	-5172
▁sued	-5173
▁swif	-5174
▁tail	-5175
▁tale	-5176
▁teen	-5177
▁thee	-5178
▁ther	-5179
▁thin	-5180
▁thus	-5181
▁tick	-5182
▁tone	-5183
▁toni	-5184
▁toss	-5185
▁toys	-5186
▁tree	-5187
▁twil	-5188
▁uggg	-5189
▁ugly	-5190
▁unhe	-5191
▁unit	-5192
▁unkn	-5193
▁unus	-5194
▁upon	-5195
▁user	-5196
▁uses	-5197
▁vein	-5198
▁vent	-5199
ubs	-5200
ados	-5201
arez	-5202
esty	-5203
hile	-5204
knot	-5205
osso	-5206
▁ign	-5207
ckson	-5208
dress	-5209
eeeee	-5210
iable	-5211
italy	-5212
itors	-5213
plain	-5214
queen	-5215
ronto	-5216
▁aged	-5217
▁auto	-5218
▁corn	-5219
▁cubs	-5220
▁fans	-5221
▁geek	-5222
▁iraq	-5223
▁nike	-5224
▁pole	-5225
▁saff	-5226
▁soda	-5227
▁vino	-5228
▁vist	-5229
▁wake	-5230
▁wasn	-5231
▁weak	-5232
▁ween	-5233
▁wein	-5234
▁weld	-5235
▁whos	-5236
▁whys	-5237
▁wifi	-5238
▁wiht	-5239
▁wolf	-5240
▁wond	-5241
▁xbox	-5242
▁xiii	-5243
▁yall	-5244
▁yard	-5245
▁yarn	-5246
aching	-5247
ainers	-5248
ainted	-5249
allica	-5250
angers	-5251
assion	-5252
ateful	-5253
bscrib	-5254
celled	-5255
chased	-5256
credib	-5257
cussed	-5258
ealand	-5259
ebrows	-5260
erally	-5261
erging	-5262
ernard	-5263
erving	-5264
ground	-5265
iented	-5266
igning	-5267
ilroad	-5268
ionist	-5269
isions	-5270
itions	-5271
lendid	-5272
letons	-5273
lished	-5274
metics	-5275
mistry	-5276
mokers	-5277
mphony	-5278
nament	-5279
nected	-5280
nicity	-5281
ocated	-5282
oduced	-5283
onichi	-5284
onomic	-5285
ousand	-5286
person	-5287
racial	-5288
racted	-5289
ractor	-5290
racuse	-5291
rammer	-5292
rently	-5293
ribble	-5294
ribean	-5295
rictly	-5296
rition	-5297
rylics	-5298
sexual	-5299
edom	-5300
yyyy	-5301
▁hug	-5302
▁lap	-5303
▁max	-5304
alect	-5305
anime	-5306
ashad	-5307
azine	-5308
blind	-5309
fecta	-5310
licia	-5311
minis	-5312
nging	-5313
▁calf	-5314
▁cmcc	-5315
▁cycl	-5316
▁dads	-5317
▁drum	-5318
▁heel	-5319
▁hits	-5320
▁jean	-5321
▁kove	-5322
▁mail	-5323
▁meds	-5324
▁mont	-5325
▁perm	-5326
▁sash	-5327
▁snow	-5328
▁text	-5329
akespe	-5330
athing	-5331
berman	-5332
ftware	-5333
illery	-5334
keling	-5335
sively	-5336
ternal	-5337
titude	-5338
urally	-5339
urtles	-5340
veland	-5341
weller	-5342
yalgia	-5343
zzlies	-5344
▁above	-5345
▁acted	-5346
▁aging	-5347
▁ahead	-5348
▁alice	-5349
▁allyl	-5350
▁among	-5351
▁analy	-5352
▁anger	-5353
▁asked	-5354
▁attic	-5355
▁avert	-5356
▁awake	-5357
▁ayyyy	-5358
▁backs	-5359
▁badly	-5360
▁bagel	-5361
▁bakes	-5362
▁bands	-5363
▁barry	-5364
▁basil	-5365
▁becky	-5366
▁bible	-5367
▁birds	-5368
▁bjorn	-5369
▁blend	-5370
▁bliss	-5371
▁blown	-5372
▁blues	-5373
▁bonny	-5374
▁bookw	-5375
▁botox	-5376
▁bring	-5377
▁bruce	-5378
▁bucks	-5379
▁built	-5380
▁calls	-5381
▁capes	-5382
▁cares	-5383
▁carla	-5384
▁carve	-5385
▁chair	-5386
▁chase	-5387
▁chery	-5388
▁chess	-5389
▁choir	-5390
▁chose	-5391
▁clock	-5392
▁cokes	-5393
▁colon	-5394
▁comes	-5395
▁consp	-5396
▁coors	-5397
▁corey	-5398
▁corgi	-5399
hold	-5400
lock	-5401
ront	-5402
▁cuz	-5403
▁dmv	-5404
▁slo	-5405
cling	-5406
ifted	-5407
ivore	-5408
▁bald	-5409
▁belo	-5410
▁emmy	-5411
▁ends	-5412
▁file	-5413
▁gear	-5414
▁laid	-5415
▁milo	-5416
▁onto	-5417
▁quiz	-5418
▁taos	-5419
▁volt	-5420
ptical	-5421
rowave	-5422
▁annie	-5423
▁artsy	-5424
▁billy	-5425
▁court	-5426
▁craig	-5427
▁crave	-5428
▁crisp	-5429
▁curls	-5430
▁daddy	-5431
▁danny	-5432
▁darts	-5433
▁decor	-5434
▁depot	-5435
▁deter	-5436
▁dizzy	-5437
▁doggy	-5438
▁donna	-5439
▁donut	-5440
▁dozen	-5441
▁drain	-5442
▁drill	-5443
▁drugs	-5444
▁drums	-5445
▁dryer	-5446
▁eagle	-5447
▁elena	-5448
▁ender	-5449
▁epile	-5450
▁error	-5451
▁exist	-5452
▁exten	-5453
▁faked	-5454
▁fares	-5455
▁fatal	-5456
▁fears	-5457
▁felix	-5458
▁fella	-5459
▁finer	-5460
▁fires	-5461
▁fland	-5462
▁frans	-5463
▁freak	-5464
▁frequ	-5465
▁fried	-5466
▁frost	-5467
▁funky	-5468
▁genes	-5469
▁glade	-5470
▁greys	-5471
▁grown	-5472
▁gucci	-5473
▁helen	-5474
▁highl	-5475
▁hiked	-5476
▁hiker	-5477
▁hilar	-5478
▁holly	-5479
▁homes	-5480
▁homie	-5481
▁horre	-5482
▁humid	-5483
▁ident	-5484
▁immig	-5485
▁jared	-5486
▁jenna	-5487
▁jenni	-5488
▁jerem	-5489
▁jessi	-5490
▁jewel	-5491
▁jumpy	-5492
▁karen	-5493
▁kelly	-5494
▁knife	-5495
▁knots	-5496
▁lance	-5497
▁latte	-5498
▁leela	-5499
irah	-5500
sham	-5501
▁300	-5502
▁cpa	-5503
eaded	-5504
ivals	-5505
shake	-5506
shift	-5507
▁argu	-5508
▁budd	-5509
▁cops	-5510
▁haps	-5511
▁juan	-5512
▁nuts	-5513
▁papa	-5514
▁paps	-5515
▁pups	-5516
▁puts	-5517
cycles	-5518
judice	-5519
▁bingo	-5520
▁dokey	-5521
▁drama	-5522
▁drove	-5523
▁dying	-5524
▁fixer	-5525
▁invis	-5526
▁kicks	-5527
▁legit	-5528
▁lemme	-5529
▁level	-5530
▁limit	-5531
▁lions	-5532
▁lipst	-5533
▁livin	-5534
▁locom	-5535
▁looks	-5536
▁lovey	-5537
▁madam	-5538
▁mardu	-5539
▁marge	-5540
▁mater	-5541
▁media	-5542
▁minds	-5543
▁minus	-5544
▁missy	-5545
▁mohic	-5546
▁moose	-5547
▁morty	-5548
▁munch	-5549
▁nerdy	-5550
▁newly	-5551
▁nikes	-5552
▁nomad	-5553
▁oddly	-5554
▁onion	-5555
▁outta	-5556
▁packs	-5557
▁panda	-5558
▁panic	-5559
▁panty	-5560
▁paula	-5561
▁pearl	-5562
▁petes	-5563
▁picky	-5564
▁pinks	-5565
▁poems	-5566
▁polar	-5567
▁popul	-5568
▁porch	-5569
▁pound	-5570
▁price	-5571
▁pudgy	-5572
▁puffs	-5573
▁purse	-5574
▁racer	-5575
▁rains	-5576
▁realy	-5577
▁refer	-5578
▁reply	-5579
▁retro	-5580
▁ricky	-5581
▁ringo	-5582
▁roast	-5583
▁rocks	-5584
▁romeo	-5585
▁rossy	-5586
▁round	-5587
▁rover	-5588
▁rowdy	-5589
▁rumba	-5590
▁sadly	-5591
▁safty	-5592
▁salut	-5593
▁sandy	-5594
▁santa	-5595
▁saved	-5596
▁scarf	-5597
▁sched	-5598
▁scoop	-5599
iped	-5600
well	-5601
fects	-5602
herds	-5603
▁aint	-5604
▁aunt	-5605
▁cell	-5606
▁cups	-5607
▁dhow	-5608
▁felt	-5609
▁fris	-5610
▁kyle	-5611
▁loud	-5612
▁malt	-5613
▁rubb	-5614
▁simi	-5615
▁yuck	-5616
▁acara	-5617
▁adult	-5618
▁alarm	-5619
▁alien	-5620
▁botos	-5621
▁cello	-5622
▁chevy	-5623
▁crime	-5624
▁drunk	-5625
▁farts	-5626
▁figur	-5627
▁gangs	-5628
▁manip	-5629
▁mcgre	-5630
▁miley	-5631
▁nerds	-5632
▁olymp	-5633
▁perks	-5634
▁refle	-5635
▁scuba	-5636
▁sense	-5637
▁shade	-5638
▁shelf	-5639
▁shiny	-5640
▁shook	-5641
▁shops	-5642
▁shore	-5643
▁shred	-5644
▁simon	-5645
▁skied	-5646
▁skirt	-5647
▁slash	-5648
▁slept	-5649
▁smith	-5650
▁soooo	-5651
▁souls	-5652
▁spect	-5653
▁spice	-5654
▁spike	-5655
▁splas	-5656
▁spots	-5657
▁spree	-5658
▁steps	-5659
▁stone	-5660
▁storm	-5661
▁stove	-5662
▁stung	-5663
▁surfs	-5664
▁swear	-5665
▁swift	-5666
▁sword	-5667
▁table	-5668
▁tails	-5669
▁tales	-5670
▁tasks	-5671
▁taxed	-5672
▁tease	-5673
▁terri	-5674
▁terry	-5675
▁threw	-5676
▁thrid	-5677
▁throw	-5678
▁thyme	-5679
▁tipsy	-5680
▁tires	-5681
▁title	-5682
▁toady	-5683
▁toned	-5684
▁tonia	-5685
▁tours	-5686
▁trade	-5687
▁treat	-5688
▁treme	-5689
▁troop	-5690
▁tully	-5691
▁typos	-5692
▁unmar	-5693
▁unpac	-5694
▁upper	-5695
▁upset	-5696
▁venus	-5697
▁volks	-5698
▁wareh	-5699
ecor	-5700
▁www	-5701
agram	-5702
annon	-5703
ublic	-5704
zzled	-5705
▁eric	-5706
▁pasa	-5707
▁pits	-5708
▁rode	-5709
▁tats	-5710
erence	-5711
ophone	-5712
▁casey	-5713
▁david	-5714
▁lemon	-5715
▁mucic	-5716
▁myoma	-5717
▁produ	-5718
▁reput	-5719
▁roads	-5720
▁staff	-5721
▁sunfl	-5722
▁touch	-5723
▁waste	-5724
▁weigh	-5725
▁wentz	-5726
▁wierd	-5727
▁wifey	-5728
▁wings	-5729
▁wiped	-5730
▁witch	-5731
▁youre	-5732
▁zucch	-5733
abulary	-5734
amental	-5735
antries	-5736
areness	-5737
ashells	-5738
ategory	-5739
ational	-5740
burgers	-5741
codiles	-5742
cussion	-5743
dresser	-5744
endered	-5745
eration	-5746
erraris	-5747
forming	-5748
hington	-5749
hoppers	-5750
icapped	-5751
iercing	-5752
imistic	-5753
inarian	-5754
itement	-5755
lifting	-5756
mployed	-5757
ologize	-5758
onolulu	-5759
onymous	-5760
ourtney	-5761
penders	-5762
racting	-5763
reaming	-5764
reshing	-5765
ressing	-5766
ricting	-5767
ructive	-5768
ublican	-5769
▁access	-5770
▁accomp	-5771
▁action	-5772
▁advise	-5773
▁agatha	-5774
▁agreed	-5775
▁alison	-5776
▁amazon	-5777
▁amount	-5778
▁angels	-5779
▁applic	-5780
▁areyou	-5781
▁armadi	-5782
▁attack	-5783
▁bakery	-5784
▁bandit	-5785
▁barely	-5786
▁barney	-5787
▁beagle	-5788
▁beasts	-5789
▁beater	-5790
▁binder	-5791
▁bistro	-5792
▁bluest	-5793
▁border	-5794
▁borrow	-5795
▁bosses	-5796
▁braces	-5797
▁breaks	-5798
▁brewed	-5799
ophy	-5800
wood	-5801
▁000	-5802
matic	-5803
▁cerr	-5804
▁jojo	-5805
▁lisa	-5806
▁oooh	-5807
▁view	-5808
canoes	-5809
fellas	-5810
osophy	-5811
ramids	-5812
umnist	-5813
▁bella	-5814
▁boxer	-5815
▁boxes	-5816
▁dairy	-5817
▁dandy	-5818
▁ernie	-5819
▁hills	-5820
▁juicy	-5821
▁mocha	-5822
▁moped	-5823
▁pairs	-5824
▁penny	-5825
▁quote	-5826
▁randy	-5827
▁spicy	-5828
▁truth	-5829
▁wahoo	-5830
kelback	-5831
▁barbra	-5832
▁broken	-5833
▁bummer	-5834
▁buster	-5835
▁buzzed	-5836
▁cabins	-5837
▁camera	-5838
▁camper	-5839
▁campus	-5840
▁canine	-5841
▁caring	-5842
▁carlos	-5843
▁carson	-5844
▁cassie	-5845
▁catchy	-5846
▁cattle	-5847
▁chains	-5848
▁chased	-5849
▁checks	-5850
▁chilli	-5851
▁choose	-5852
▁chores	-5853
▁chubby	-5854
▁clever	-5855
▁closer	-5856
▁colors	-5857
▁compat	-5858
▁compos	-5859
▁cooked	-5860
▁cooler	-5861
▁copper	-5862
▁costco	-5863
▁courts	-5864
▁create	-5865
▁cuddle	-5866
▁damage	-5867
▁dances	-5868
▁danger	-5869
▁dealer	-5870
▁decade	-5871
▁demand	-5872
▁digest	-5873
▁dishes	-5874
▁dollar	-5875
▁donate	-5876
▁double	-5877
▁downlo	-5878
▁dreary	-5879
▁drinks	-5880
▁drones	-5881
▁droopy	-5882
▁duties	-5883
▁eavesd	-5884
▁eminem	-5885
▁events	-5886
▁excuse	-5887
▁fairly	-5888
▁faster	-5889
▁feline	-5890
▁fetish	-5891
▁fights	-5892
▁fisher	-5893
▁floods	-5894
▁flyers	-5895
▁foster	-5896
▁fought	-5897
▁fridge	-5898
▁fruits	-5899
yalty	-5900
▁epis	-5901
▁rule	-5902
tember	-5903
titles	-5904
▁aaron	-5905
▁bowie	-5906
▁ellen	-5907
▁exams	-5908
▁hoops	-5909
▁idols	-5910
▁judge	-5911
▁kabul	-5912
▁merna	-5913
▁order	-5914
▁roofs	-5915
▁seeds	-5916
▁socia	-5917
▁vocal	-5918
▁wendy	-5919
builder	-5920
▁choice	-5921
▁closet	-5922
▁dennis	-5923
▁dennys	-5924
▁detest	-5925
▁editor	-5926
▁ferret	-5927
▁fluent	-5928
▁gamble	-5929
▁gather	-5930
▁gentry	-5931
▁ghosts	-5932
▁giants	-5933
▁ginger	-5934
▁goalie	-5935
▁gotten	-5936
▁govern	-5937
▁grades	-5938
▁greasy	-5939
▁greens	-5940
▁groove	-5941
▁groovy	-5942
▁grumpy	-5943
▁grunge	-5944
▁halluc	-5945
▁handle	-5946
▁hangin	-5947
▁hansen	-5948
▁harder	-5949
▁hardly	-5950
▁hearse	-5951
▁heater	-5952
▁heller	-5953
▁heyyou	-5954
▁higher	-5955
▁highly	-5956
▁horrid	-5957
▁howdie	-5958
▁humane	-5959
▁husker	-5960
▁impala	-5961
▁inches	-5962
▁incomp	-5963
▁inform	-5964
▁insane	-5965
▁inspir	-5966
▁invite	-5967
▁itself	-5968
▁jaguar	-5969
▁jordan	-5970
▁joseph	-5971
▁judges	-5972
▁keeper	-5973
▁kellie	-5974
▁kicked	-5975
▁kickin	-5976
▁kissed	-5977
▁knives	-5978
▁lagged	-5979
▁landed	-5980
▁leaves	-5981
▁lenovo	-5982
▁levine	-5983
▁limits	-5984
▁locked	-5985
▁locker	-5986
▁lookin	-5987
▁losing	-5988
▁madame	-5989
▁maddie	-5990
▁mainly	-5991
▁majora	-5992
▁mangos	-5993
▁marvel	-5994
▁mashed	-5995
▁meadow	-5996
▁mellow	-5997
▁member	-5998
▁menace	-5999
faff	-6000
▁ccs	-6001
▁dbt	-6002
▁fyi	-6003
▁hgt	-6004
▁ooh	-6005
▁pnb	-6006
▁qvc	-6007
▁vnv	-6008
▁wpm	-6009
addup	-6010
dened	-6011
gmies	-6012
sthma	-6013
urama	-6014
▁aldi	-6015
▁bleu	-6016
▁brrr	-6017
▁cinn	-6018
▁iowa	-6019
▁kiwi	-6020
▁miku	-6021
▁olga	-6022
amedic	-6023
anette	-6024
begone	-6025
diving	-6026
gusted	-6027
ntucky	-6028
▁assem	-6029
▁bruno	-6030
▁coinc	-6031
▁cyrus	-6032
▁derek	-6033
▁exact	-6034
▁genji	-6035
▁henry	-6036
▁jakob	-6037
▁jesus	-6038
▁pfaff	-6039
▁pride	-6040
▁psych	-6041
▁sniff	-6042
▁spiky	-6043
▁ursel	-6044
compens	-6045
itorial	-6046
▁asthma	-6047
▁autobi	-6048
▁barolo	-6049
▁connor	-6050
▁daniel	-6051
▁fibrom	-6052
▁gnarly	-6053
▁harvey	-6054
▁martha	-6055
▁mendel	-6056
▁mighty	-6057
▁minute	-6058
▁moises	-6059
▁monday	-6060
▁moving	-6061
▁myrtle	-6062
▁native	-6063
▁nearly	-6064
▁nerves	-6065
▁neurom	-6066
▁noises	-6067
▁notice	-6068
▁obsess	-6069
▁oceans	-6070
▁outfit	-6071
▁outing	-6072
▁outlet	-6073
▁owning	-6074
▁pantry	-6075
▁pastor	-6076
▁patrol	-6077
▁paulie	-6078
▁paying	-6079
▁peachy	-6080
▁period	-6081
▁perris	-6082
▁perrys	-6083
▁peyton	-6084
▁picnic	-6085
▁pilots	-6086
▁pirate	-6087
▁ponder	-6088
▁ponies	-6089
▁potato	-6090
▁profit	-6091
▁pronto	-6092
▁prozac	-6093
▁public	-6094
▁puddle	-6095
▁pumped	-6096
▁queens	-6097
▁rashed	-6098
▁recept	-6099
steps	-6100
aholic	-6101
▁ayako	-6102
▁binge	-6103
▁cindy	-6104
▁civic	-6105
▁dirty	-6106
▁fools	-6107
▁heavy	-6108
▁holms	-6109
▁pablo	-6110
▁rules	-6111
▁uhhhg	-6112
▁undec	-6113
▁vomit	-6114
chained	-6115
iciency	-6116
terpret	-6117
▁ashley	-6118
▁aspect	-6119
▁caught	-6120
▁causes	-6121
▁cheryl	-6122
▁cigars	-6123
▁circus	-6124
▁dermat	-6125
▁django	-6126
▁easily	-6127
▁gospel	-6128
▁length	-6129
▁mirror	-6130
▁mitten	-6131
▁points	-6132
▁recipe	-6133
▁reddit	-6134
▁regime	-6135
▁repair	-6136
▁reruns	-6137
▁resell	-6138
▁rodney	-6139
▁roscoe	-6140
▁salads	-6141
▁salary	-6142
▁saloon	-6143
▁saying	-6144
▁scares	-6145
▁scobby	-6146
▁scotch	-6147
▁serena	-6148
▁served	-6149
▁settle	-6150
▁severe	-6151
▁shabby	-6152
▁shakin	-6153
▁sharon	-6154
▁sheena	-6155
▁shelly	-6156
▁shirts	-6157
▁showed	-6158
▁sicily	-6159
▁simply	-6160
▁sirius	-6161
▁skater	-6162
▁sketch	-6163
▁skinny	-6164
▁sloppy	-6165
▁slowly	-6166
▁smiles	-6167
▁snacks	-6168
▁sneaky	-6169
▁spaces	-6170
▁spears	-6171
▁sponge	-6172
▁spouse	-6173
▁sprite	-6174
▁spruce	-6175
▁spurts	-6176
▁squats	-6177
▁starts	-6178
▁stayed	-6179
▁steals	-6180
▁steven	-6181
▁sticky	-6182
▁stinks	-6183
▁stolen	-6184
▁storms	-6185
▁strait	-6186
▁stream	-6187
▁stroll	-6188
▁studen	-6189
▁studio	-6190
▁stupid	-6191
▁sweaty	-6192
▁tastes	-6193
▁teapot	-6194
▁temper	-6195
▁temple	-6196
▁theory	-6197
▁thesis	-6198
▁thinks	-6199
▁globe	-6200
▁awhile	-6201
▁blosso	-6202
▁gifted	-6203
▁hustle	-6204
▁juarez	-6205
▁mommie	-6206
▁poeple	-6207
▁ragged	-6208
▁rashad	-6209
▁swifts	-6210
▁thrash	-6211
▁thrice	-6212
▁throne	-6213
▁thrown	-6214
▁tonite	-6215
▁toured	-6216
▁toyota	-6217
▁trauma	-6218
▁tricks	-6219
▁trivia	-6220
▁turtle	-6221
▁uggggh	-6222
▁unable	-6223
▁unique	-6224
▁united	-6225
▁unrequ	-6226
▁unwell	-6227
▁update	-6228
▁vegans	-6229
▁veggie	-6230
▁vestie	-6231
▁vitaly	-6232
▁waddup	-6233
▁wagner	-6234
▁washed	-6235
▁washer	-6236
▁wasted	-6237
▁watson	-6238
▁weekly	-6239
▁wheres	-6240
▁wilder	-6241
▁window	-6242
▁winner	-6243
▁womens	-6244
▁worthy	-6245
▁yankee	-6246
▁zander	-6247
alachian	-6248
chhiking	-6249
credibly	-6250
cription	-6251
ervative	-6252
inogenic	-6253
intments	-6254
ironment	-6255
kenstein	-6256
ological	-6257
onichiwa	-6258
ordinary	-6259
rovement	-6260
sephales	-6261
stigator	-6262
stigious	-6263
▁academy	-6264
▁achieve	-6265
▁against	-6266
▁airline	-6267
▁airport	-6268
▁alcohol	-6269
▁algebra	-6270
▁aligned	-6271
▁alltime	-6272
▁america	-6273
▁analyst	-6274
▁angeles	-6275
▁antonio	-6276
▁armpits	-6277
▁arrived	-6278
▁arrives	-6279
▁artists	-6280
▁atheist	-6281
▁atleast	-6282
▁austins	-6283
▁average	-6284
▁awkward	-6285
▁banging	-6286
▁barbara	-6287
▁barking	-6288
▁beaches	-6289
▁bedtime	-6290
▁beloved	-6291
▁bentley	-6292
▁bermuda	-6293
▁bernard	-6294
▁bestest	-6295
▁bicycle	-6296
▁biggest	-6297
▁blanket	-6298
▁bowling	-6299
▁marduk	-6300
▁breathe	-6301
▁brewing	-6302
▁brisket	-6303
▁british	-6304
▁britney	-6305
▁brownie	-6306
▁buddist	-6307
▁bugatti	-6308
▁bullies	-6309
▁calling	-6310
▁calming	-6311
▁canning	-6312
▁captain	-6313
▁cartoon	-6314
▁catfish	-6315
▁causing	-6316
▁ceiling	-6317
▁central	-6318
▁century	-6319
▁cerrone	-6320
▁chakras	-6321
▁charity	-6322
▁cheaper	-6323
▁cheddar	-6324
▁cheetos	-6325
▁chewing	-6326
▁chronic	-6327
▁cleaned	-6328
▁climate	-6329
▁climbed	-6330
▁closest	-6331
▁collies	-6332
▁comrade	-6333
▁concept	-6334
▁control	-6335
▁coolest	-6336
▁counter	-6337
▁cousins	-6338
▁crackin	-6339
▁cranked	-6340
▁crashes	-6341
▁crochet	-6342
▁cuddled	-6343
▁cuisine	-6344
▁culture	-6345
▁cupcake	-6346
▁curious	-6347
▁custody	-6348
▁cycling	-6349
▁cyclist	-6350
▁dancers	-6351
▁daycare	-6352
▁dealing	-6353
▁defense	-6354
▁deliver	-6355
▁dentist	-6356
▁derrick	-6357
▁desired	-6358
▁despite	-6359
▁dessert	-6360
▁dialect	-6361
▁diamond	-6362
▁digging	-6363
▁dislike	-6364
▁doggies	-6365
▁dollars	-6366
▁doorman	-6367
▁dressed	-6368
▁dropout	-6369
▁dweller	-6370
▁effects	-6371
▁elderly	-6372
▁emotion	-6373
▁envious	-6374
▁episode	-6375
▁errands	-6376
▁eternal	-6377
▁everest	-6378
▁exhibit	-6379
▁explain	-6380
▁fallout	-6381
▁familar	-6382
▁fancier	-6383
▁fantasy	-6384
▁farmers	-6385
▁farming	-6386
▁felicia	-6387
▁felines	-6388
▁fighter	-6389
▁figures	-6390
▁filming	-6391
▁finance	-6392
▁flirted	-6393
▁forgive	-6394
▁frappes	-6395
▁freedom	-6396
▁freshly	-6397
▁fridays	-6398
▁frisbee	-6399
▁funeral	-6400
▁furious	-6401
▁gangsta	-6402
▁general	-6403
▁geology	-6404
▁germany	-6405
▁goodall	-6406
▁goodbye	-6407
▁gourmet	-6408
▁gravity	-6409
▁gresham	-6410
▁grisham	-6411
▁groomed	-6412
▁grossed	-6413
▁gummies	-6414
▁gymnast	-6415
▁haircut	-6416
▁healing	-6417
▁hearing	-6418
▁heating	-6419
▁hendrix	-6420
▁herding	-6421
▁herself	-6422
▁hiyeeee	-6423
▁holding	-6424
▁hostile	-6425
▁hotdogs	-6426
▁however	-6427
▁ignores	-6428
▁impulse	-6429
▁invited	-6430
▁ireland	-6431
▁jackson	-6432
▁jamison	-6433
▁jasmine	-6434
▁jewelry	-6435
▁jogging	-6436
▁joining	-6437
▁jovanni	-6438
▁juggler	-6439
▁jumping	-6440
▁kicking	-6441
▁lagging	-6442
▁lasagna	-6443
▁laundry	-6444
▁lawyers	-6445
▁layover	-6446
▁leaders	-6447
▁leading	-6448
▁letting	-6449
▁lindsey	-6450
▁linking	-6451
▁lizards	-6452
▁lobster	-6453
▁locally	-6454
▁lunches	-6455
▁mailman	-6456
▁mangoes	-6457
▁manning	-6458
▁mansion	-6459
▁martial	-6460
▁martini	-6461
▁mcqueen	-6462
▁mention	-6463
▁message	-6464
▁messing	-6465
▁midwest	-6466
▁midwife	-6467
▁mission	-6468
▁mistake	-6469
▁mixtape	-6470
▁modesty	-6471
▁monkeys	-6472
▁monster	-6473
▁montage	-6474
▁mudding	-6475
▁mugging	-6476
▁musical	-6477
▁mystery	-6478
▁nanette	-6479
▁nasirah	-6480
▁natalie	-6481
▁obesity	-6482
▁ominous	-6483
▁ordered	-6484
▁organiz	-6485
▁parrots	-6486
▁passing	-6487
▁peoples	-6488
▁persona	-6489
▁phobias	-6490
▁physics	-6491
▁pianist	-6492
▁pickles	-6493
▁picnics	-6494
▁playboy	-6495
▁pleased	-6496
▁plumber	-6497
▁pooches	-6498
▁popeyes	-6499
▁poverty	-6500
▁pregame	-6501
▁pulling	-6502
▁purpose	-6503
▁purring	-6504
▁pygmies	-6505
▁quietly	-6506
▁quilter	-6507
▁racquet	-6508
▁raising	-6509
▁rapping	-6510
▁reached	-6511
▁reality	-6512
▁realtor	-6513
▁rebuild	-6514
▁redecor	-6515
▁refused	-6516
▁rejects	-6517
▁relaxed	-6518
▁release	-6519
▁relived	-6520
▁reminis	-6521
▁renting	-6522
▁repairs	-6523
▁respond	-6524
▁resting	-6525
▁results	-6526
▁retiree	-6527
▁reviews	-6528
▁robbers	-6529
▁roofing	-6530
▁routine	-6531
▁royalty	-6532
▁rubbery	-6533
▁rubbing	-6534
▁saffron	-6535
▁samsung	-6536
▁satisfy	-6537
▁scooter	-6538
▁seafood	-6539
▁secrets	-6540
▁seizure	-6541
▁selfish	-6542
▁service	-6543
▁setting	-6544
▁settled	-6545
▁seventh	-6546
▁shaking	-6547
▁shannon	-6548
▁sharing	-6549
▁shepard	-6550
▁shining	-6551
▁shopper	-6552
▁showing	-6553
▁silence	-6554
▁similar	-6555
▁simmers	-6556
▁singles	-6557
▁skating	-6558
▁skipped	-6559
▁slashed	-6560
▁smarter	-6561
▁smelled	-6562
▁snorkel	-6563
▁society	-6564
▁sorting	-6565
▁spilled	-6566
▁spoiler	-6567
▁spotify	-6568
▁statues	-6569
▁stopped	-6570
▁storage	-6571
▁stories	-6572
▁storing	-6573
▁studies	-6574
▁stuffed	-6575
▁stylish	-6576
▁summary	-6577
▁summers	-6578
▁sunsets	-6579
▁suppers	-6580
▁swamped	-6581
▁sweater	-6582
▁sweeden	-6583
▁swimmer	-6584
▁switzer	-6585
▁takeout	-6586
▁tallest	-6587
▁tasking	-6588
▁teapots	-6589
▁texting	-6590
▁thatsmy	-6591
▁theatre	-6592
▁thinkin	-6593
▁tickets	-6594
▁tongues	-6595
▁toronto	-6596
▁touring	-6597
▁trailer	-6598
▁travels	-6599
▁tropper	-6600
▁trumpet	-6601
▁turtles	-6602
▁unknown	-6603
▁unusual	-6604
▁upfront	-6605
▁vacuums	-6606
▁vehicle	-6607
▁venture	-6608
▁verizon	-6609
▁vermont	-6610
▁veteran	-6611
▁virtual	-6612
▁visitor	-6613
▁visting	-6614
▁vuitton	-6615
▁waffles	-6616
▁watches	-6617
▁wealthy	-6618
▁weights	-6619
▁whatcha	-6620
▁whiskey	-6621
▁whistle	-6622
▁whittle	-6623
▁william	-6624
▁withing	-6625
▁wizards	-6626
▁worship	-6627
▁wrapped	-6628
▁wrecked	-6629
▁wrestle	-6630
▁yapping	-6631
▁zealand	-6632
akespeare	-6633
bscribers	-6634
icipating	-6635
identally	-6636
mentaries	-6637
ographies	-6638
▁acrylics	-6639
▁addicted	-6640
▁addition	-6641
▁adoption	-6642
▁affected	-6643
▁airlines	-6644
▁airplane	-6645
▁altitude	-6646
▁antiques	-6647
▁arkansas	-6648
▁assigned	-6649
▁attacked	-6650
▁attendee	-6651
▁babydoll	-6652
▁baldness	-6653
▁barbados	-6654
▁barbecue	-6655
▁basement	-6656
▁beaching	-6657
▁becoming	-6658
▁belonged	-6659
▁beshusan	-6660
▁biscuits	-6661
▁blissful	-6662
▁blogging	-6663
▁bookworm	-6664
▁breather	-6665
▁brighten	-6666
▁browsing	-6667
▁bulldogs	-6668
▁caffeine	-6669
▁calculus	-6670
▁cardigan	-6671
▁carnival	-6672
▁carrying	-6673
▁category	-6674
▁cheaters	-6675
▁cheetahs	-6676
▁christie	-6677
▁cinnamon	-6678
▁cleaners	-6679
▁coaching	-6680
▁coasters	-6681
▁coloring	-6682
▁comedian	-6683
▁compared	-6684
▁complain	-6685
▁complant	-6686
▁confined	-6687
▁contacts	-6688
▁cookbook	-6689
▁coverage	-6690
▁crackers	-6691
▁creative	-6692
▁darkness	-6693
▁debating	-6694
▁deciding	-6695
▁delivery	-6696
▁deployed	-6697
▁describe	-6698
▁discover	-6699
▁distaste	-6700
▁district	-6701
▁doberman	-6702
▁doctoral	-6703
▁downhill	-6704
▁downtown	-6705
▁dramatic	-6706
▁earrings	-6707
▁educator	-6708
▁effected	-6709
▁eighties	-6710
▁emerging	-6711
▁employer	-6712
▁evenings	-6713
▁explorer	-6714
▁extended	-6715
▁eyebrows	-6716
▁faithful	-6717
▁features	-6718
▁feminist	-6719
▁ferraris	-6720
▁fighters	-6721
▁figuring	-6722
▁flanders	-6723
▁flipping	-6724
▁focusing	-6725
▁followed	-6726
▁follower	-6727
▁fourteen	-6728
▁frazzled	-6729
▁freshman	-6730
▁freshmen	-6731
▁fulltime	-6732
▁futurama	-6733
▁gangster	-6734
▁garfield	-6735
▁geocache	-6736
▁grabbing	-6737
▁gracious	-6738
▁grandson	-6739
▁grateful	-6740
▁greatest	-6741
▁grilling	-6742
▁guessing	-6743
▁hometown	-6744
▁honestly	-6745
▁honolulu	-6746
▁ignoring	-6747
▁illinois	-6748
▁implants	-6749
▁instruct	-6750
▁jeopardy	-6751
▁jeremiah	-6752
▁julliard	-6753
▁kangaroo	-6754
▁kayaking	-6755
▁kentucky	-6756
▁keyboard	-6757
▁kourtney	-6758
▁ladylove	-6759
▁laughing	-6760
▁leftover	-6761
▁likewise	-6762
▁lipstick	-6763
▁listened	-6764
▁lounging	-6765
▁loveless	-6766
▁magazine	-6767
▁magician	-6768
▁managing	-6769
▁manicure	-6770
▁marinade	-6771
▁marrying	-6772
▁martinis	-6773
▁mcgregor	-6774
▁meatloaf	-6775
▁medicine	-6776
▁meetings	-6777
▁mermaids	-6778
▁mohicans	-6779
▁monitors	-6780
▁mourning	-6781
▁munching	-6782
▁musicals	-6783
▁mustangs	-6784
▁normally	-6785
▁occasion	-6786
▁occuring	-6787
▁olympian	-6788
▁omnivore	-6789
▁oriented	-6790
▁outgoing	-6791
▁overtime	-6792
▁panicked	-6793
▁pantsuit	-6794
▁pardoner	-6795
▁partying	-6796
▁passions	-6797
▁pastimes	-6798
▁patients	-6799
▁peaceful	-6800
▁pedicure	-6801
▁perusing	-6802
▁pharmacy	-6803
▁pickling	-6804
▁piercing	-6805
▁playlist	-6806
▁pleasure	-6807
▁plucking	-6808
▁possible	-6809
▁potatoes	-6810
▁powerful	-6811
▁preacher	-6812
▁prefered	-6813
▁prepared	-6814
▁problems	-6815
▁projects	-6816
▁pyramids	-6817
▁railroad	-6818
▁realized	-6819
▁recharge	-6820
▁regional	-6821
▁rejected	-6822
▁reporter	-6823
▁restored	-6824
▁richmond	-6825
▁rosemary	-6826
▁saddened	-6827
▁salesmen	-6828
▁schedule	-6829
▁sciences	-6830
▁scribble	-6831
▁selfless	-6832
▁serenity	-6833
▁settling	-6834
▁shelters	-6835
▁sherlock	-6836
▁shoulder	-6837
▁showered	-6838
▁sickness	-6839
▁skeleton	-6840
▁slipknot	-6841
▁smoothie	-6842
▁software	-6843
▁solitary	-6844
▁somebody	-6845
▁somedays	-6846
▁specific	-6847
▁speckles	-6848
▁spectrum	-6849
▁spilling	-6850
▁spirited	-6851
▁splendid	-6852
▁starving	-6853
▁stations	-6854
▁strictly	-6855
▁suggests	-6856
▁suspense	-6857
▁symphony	-6858
▁syracuse	-6859
▁systemed	-6860
▁tailgate	-6861
▁talented	-6862
▁tattooed	-6863
▁teenager	-6864
▁tempting	-6865
▁terminal	-6866
▁terrific	-6867
▁thankful	-6868
▁thankyou	-6869
▁theories	-6870
▁thousand	-6871
▁tomatoes	-6872
▁triangle	-6873
▁trifecta	-6874
▁trucking	-6875
▁twilight	-6876
▁unicorns	-6877
▁variable	-6878
▁watering	-6879
▁waukesha	-6880
▁weddings	-6881
▁weirdest	-6882
▁werewolf	-6883
▁whatever	-6884
▁whiskers	-6885
▁whiskeys	-6886
▁wondered	-6887
▁workouts	-6888
▁wrapping	-6889
▁wrestler	-6890
▁youtuber	-6891
▁zucchini	-6892
assionally	-6893
oooooooooo	-6894
▁according	-6895
▁adventist	-6896
▁agreeable	-6897
▁alexandra	-6898
▁alternate	-6899
▁animation	-6900
▁anonymous	-6901
▁anxiously	-6902
▁apologize	-6903
▁arguments	-6904
▁armadillo	-6905
▁auditions	-6906
▁awareness	-6907
▁basically	-6908
▁beginning	-6909
▁bookstore	-6910
▁breathing	-6911
▁cancelled	-6912
▁cardboard	-6913
▁cardigans	-6914
▁carribean	-6915
▁cassandra	-6916
▁celebrity	-6917
▁chemistry	-6918
▁childhood	-6919
▁christian	-6920
▁churchill	-6921
▁cleveland	-6922
▁columnist	-6923
▁communist	-6924
▁commuting	-6925
▁companion	-6926
▁confident	-6927
▁connected	-6928
▁conscious	-6929
▁corvettes	-6930
▁cosmetics	-6931
▁countries	-6932
▁dangerous	-6933
▁decisions	-6934
▁designing	-6935
▁destroyed	-6936
▁developed	-6937
▁developer	-6938
▁direction	-6939
▁discovery	-6940
▁discussed	-6941
▁disgusted	-6942
▁distances	-6943
▁donations	-6944
▁downloads	-6945
▁easygoing	-6946
▁eavesdrop	-6947
▁education	-6948
▁emotional	-6949
▁energized	-6950
▁enjoyable	-6951
▁enjoyment	-6952
▁epileptic	-6953
▁ergonomic	-6954
▁ethnicity	-6955
▁everybody	-6956
▁extremely	-6957
▁ferocious	-6958
▁festivals	-6959
▁figurines	-6960
▁following	-6961
▁footsteps	-6962
▁foreigner	-6963
▁fransisco	-6964
▁gathering	-6965
▁generally	-6966
▁gentleman	-6967
▁goodnight	-6968
▁grizzlies	-6969
▁gymnastic	-6970
▁handshake	-6971
▁healthier	-6972
▁hilarious	-6973
▁hollywood	-6974
▁household	-6975
▁housework	-6976
▁identical	-6977
▁imaginary	-6978
▁instagram	-6979
▁interpret	-6980
▁introduce	-6981
▁kickstart	-6982
▁konichiwa	-6983
▁likeanime	-6984
▁locations	-6985
▁massaging	-6986
▁mechanics	-6987
▁metallica	-6988
▁microwave	-6989
▁mortician	-6990
▁musically	-6991
▁naturally	-6992
▁nighttime	-6993
▁nutrition	-6994
▁obviously	-6995
▁operating	-6996
▁orchestra	-6997
▁outdoorsy	-6998
▁overrated	-6999
▁ownership	-7000
▁paperwork	-7001
▁paramedic	-7002
▁physician	-7003
▁pistachio	-7004
▁pittsburg	-7005
▁polarized	-7006
▁practiced	-7007
▁pregnancy	-7008
▁prejudice	-7009
▁preschool	-7010
▁professor	-7011
▁purchased	-7012
▁recording	-7013
▁recovered	-7014
▁redheaded	-7015
▁relocated	-7016
▁retainers	-7017
▁saxophone	-7018
▁screaming	-7019
▁seashells	-7020
▁secondary	-7021
▁seedlings	-7022
▁september	-7023
▁shepherds	-7024
▁skydiving	-7025
▁sleepover	-7026
▁snakeskin	-7027
▁socialize	-7028
▁specialty	-7029
▁spiritual	-7030
▁splashing	-7031
▁spongebob	-7032
▁standards	-7033
▁stimulate	-7034
▁strangers	-7035
▁subtitles	-7036
▁sunflower	-7037
▁surgeries	-7038
▁traveller	-7039
▁typically	-7040
▁unchained	-7041
▁undecided	-7042
▁unhealthy	-7043
▁unmarried	-7044
▁unpacking	-7045
▁volcanoes	-7046
▁warehouse	-7047
▁weinstein	-7048
▁whatsyour	-7049
▁woebegone	-7050
▁workplace	-7051
▁wrestling	-7052
▁acquainted	-7053
▁activities	-7054
▁apparently	-7055
▁assembling	-7056
▁auditioned	-7057
▁background	-7058
▁barefooted	-7059
▁bartending	-7060
▁birthplace	-7061
▁blossoming	-7062
▁characters	-7063
▁cheesecake	-7064
▁colorblind	-7065
▁committing	-7066
▁compatible	-7067
▁confession	-7068
▁conspiracy	-7069
▁constantly	-7070
▁contractor	-7071
▁convention	-7072
▁crocodiles	-7073
▁deficiency	-7074
▁democratic	-7075
▁describing	-7076
▁disability	-7077
▁discussion	-7078
▁distillery	-7079
▁distracted	-7080
▁domination	-7081
▁electrical	-7082
▁elliptical	-7083
▁employment	-7084
▁eventually	-7085
▁excitement	-7086
▁exercising	-7087
▁experience	-7088
▁experiment	-7089
▁expressive	-7090
▁fairytales	-7091
▁footballer	-7092
▁frequently	-7093
▁geocaching	-7094
▁goodfellas	-7095
▁government	-7096
▁happenings	-7097
▁highlights	-7098
▁homosexual	-7099
▁horrendous	-7100
▁immigrated	-7101
▁incomplete	-7102
▁incredibly	-7103
▁instrument	-7104
▁introduced	-7105
▁ironically	-7106
▁janitorial	-7107
▁literature	-7108
▁locomotive	-7109
▁manipulate	-7110
▁moderation	-7111
▁newspapers	-7112
▁nickelback	-7113
▁optimistic	-7114
▁performers	-7115
▁performing	-7116
▁permitting	-7117
▁pharmacist	-7118
▁philosophy	-7119
▁physicians	-7120
▁pistachios	-7121
▁population	-7122
▁preference	-7123
▁preserving	-7124
▁pretending	-7125
▁productive	-7126
▁programmer	-7127
▁reasonably	-7128
▁reflecting	-7129
▁refreshing	-7130
▁republican	-7131
▁reputation	-7132
▁sandwiches	-7133
▁simpletons	-7134
▁snorkeling	-7135
▁springtime	-7136
▁stickshift	-7137
▁strawberry	-7138
▁suspenders	-7139
▁technology	-7140
▁thankfully	-7141
▁tournament	-7142
▁translator	-7143
▁tremendous	-7144
▁truthfully	-7145
▁unemployed	-7146
▁unrequited	-7147
▁vocabulary	-7148
▁volkswagen	-7149
▁volunteers	-7150
▁washington	-7151
▁watercolor	-7152
▁workaholic	-7153
compensating	-7154
▁accountants	-7155
▁alternative	-7156
▁appalachian	-7157
▁babysitting	-7158
▁billionaire	-7159
▁bodybuilder	-7160
▁businessman	-7161
▁cheerleader	-7162
▁classically	-7163
▁collections	-7164
▁communicate	-7165
▁conventions	-7166
▁coordinated	-7167
▁coordinator	-7168
▁copperfield	-7169
▁countryside	-7170
▁destructive	-7171
▁distracting	-7172
▁distressing	-7173
▁documentary	-7174
▁environment	-7175
▁extensively	-7176
▁financially	-7177
▁fundamental	-7178
▁girlfriends	-7179
▁hairdresser	-7180
▁handicapped	-7181
▁hellooooooo	-7182
▁hitchhiking	-7183
▁hospitality	-7184
▁improvement	-7185
▁information	-7186
▁inspiration	-7187
▁instruction	-7188
▁medications	-7189
▁millionaire	-7190
▁motorcycles	-7191
▁multiracial	-7192
▁neuromancer	-7193
▁persephales	-7194
▁personality	-7195
▁photographs	-7196
▁possibility	-7197
▁prestigious	-7198
▁reminiscing	-7199
▁researching	-7200
▁restaurants	-7201
▁restricting	-7202
▁rollerblade	-7203
▁salesperson	-7204
▁salutations	-7205
▁shakespeare	-7206
▁subscribers	-7207
▁suggestions	-7208
▁switzerland	-7209
▁vacationing	-7210
▁vegetarians	-7211
▁wonderfully	-7212
▁accomplished	-7213
▁applications	-7214
▁biologically	-7215
▁cartographer	-7216
▁chainsmokers	-7217
▁compositions	-7218
▁conditioning	-7219
▁conservative	-7220
▁departmental	-7221
▁encyclopedia	-7222
▁experiencing	-7223
▁fibromyalgia	-7224
▁frankenstein	-7225
▁grasshoppers	-7226
▁hiyeeeeeeeee	-7227
▁investigator	-7228
▁invisibility	-7229
▁organization	-7230
▁photographer	-7231
▁pleasantries	-7232
▁psychologist	-7233
▁receptionist	-7234
▁redecorating	-7235
▁refurbishing	-7236
▁specializing	-7237
▁specifically	-7238
▁strawberries	-7239
▁veterinarian	-7240
▁businesswoman	-7241
▁cheeseburgers	-7242
▁dermatologist	-7243
▁determination	-7244
▁disappointing	-7245
▁documentaries	-7246
▁extraordinary	-7247
▁international	-7248
▁occassionally	-7249
▁participating	-7250
▁photographing	-7251
▁skateboarding	-7252
▁technological	-7253
▁transcription	-7254
▁transgendered	-7255
▁vegetarianism	-7256
▁weightlifting	-7257
▁coincidentally	-7258
▁communications	-7259
▁congratulation	-7260
▁hallucinogenic	-7261
▁autobiographies	-7262
▁disappointments	-7263
▁interpretations	-7264
20	-7265
22	-7266
23	-7267
30	-7268
32	-7269
35	-7270
53	-7271
aa	-7272
ae	-7273
ai	-7274
aj	-7275
ao	-7276
ap	-7277
aq	-7278
aw	-7279
ax	-7280
bc	-7281
bf	-7282
bi	-7283
bj	-7284
bv	-7285
bw	-7286
ca	-7287
cb	-7288
cg	-7289
cm	-7290
cn	-7291
cp	-7292
cq	-7293
cr	-7294
da	-7295
db	-7296
dc	-7297
df	-7298
dh	-7299
av	-7300
cw	-7301
dg	-7302
dj	-7303
dk	-7304
dl	-7305
dm	-7306
dp	-7307
dr	-7308
dt	-7309
dv	-7310
dw	-7311
eb	-7312
ef	-7313
eg	-7314
eh	-7315
ei	-7316
ej	-7317
ek	-7318
em	-7319
eo	-7320
eq	-7321
eu	-7322
ev	-7323
ex	-7324
ez	-7325
fi	-7326
fr	-7327
fs	-7328
gf	-7329
gl	-7330
hb	-7331
hd	-7332
hf	-7333
hl	-7334
hm	-7335
hp	-7336
hs	-7337
hu	-7338
hv	-7339
hx	-7340
hy	-7341
ih	-7342
ik	-7343
iq	-7344
iu	-7345
iw	-7346
ix	-7347
iy	-7348
ja	-7349
jd	-7350
ju	-7351
kb	-7352
kf	-7353
kg	-7354
kj	-7355
kl	-7356
ko	-7357
kp	-7358
kr	-7359
kw	-7360
lb	-7361
lc	-7362
lg	-7363
lk	-7364
lm	-7365
lp	-7366
lr	-7367
lu	-7368
lv	-7369
lw	-7370
mb	-7371
mc	-7372
mf	-7373
mg	-7374
mn	-7375
mr	-7376
mu	-7377
nc	-7378
nf	-7379
nh	-7380
nj	-7381
nk	-7382
nl	-7383
nm	-7384
np	-7385
nr	-7386
ns	-7387
nu	-7388
nw	-7389
nx	-7390
nz	-7391
oa	-7392
oe	-7393
of	-7394
oi	-7395
oj	-7396
ok	-7397
ov	-7398
oz	-7399
pc	-7400
pd	-7401
pf	-7402
pi	-7403
pk	-7404
pn	-7405
po	-7406
pr	-7407
pu	-7408
py	-7409
rb	-7410
rc	-7411
rf	-7412
rg	-7413
rh	-7414
rk	-7415
rl	-7416
rm	-7417
rn	-7418
rp	-7419
rs	-7420
rt	-7421
rv	-7422
rw	-7423
sb	-7424
sc	-7425
sf	-7426
sg	-7427
sk	-7428
sl	-7429
sm	-7430
sn	-7431
sq	-7432
su	-7433
tb	-7434
td	-7435
tf	-7436
tg	-7437
tl	-7438
tm	-7439
tn	-7440
tr	-7441
tt	-7442
tu	-7443
tv	-7444
tw	-7445
tx	-7446
tz	-7447
ua	-7448
uf	-7449
ug	-7450
uh	-7451
ui	-7452
uk	-7453
uo	-7454
uu	-7455
uv	-7456
uy	-7457
uz	-7458
va	-7459
vc	-7460
vn	-7461
vs	-7462
vu	-7463
vv	-7464
wb	-7465
wd	-7466
wf	-7467
wk	-7468
wl	-7469
wn	-7470
wp	-7471
wr	-7472
ws	-7473
wu	-7474
ww	-7475
wy	-7476
xa	-7477
xb	-7478
xc	-7479
xe	-7480
xh	-7481
xi	-7482
xo	-7483
xp	-7484
xu	-7485
ya	-7486
yb	-7487
yc	-7488
ye	-7489
yf	-7490
yg	-7491
yo	-7492
yp	-7493
yr	-7494
yt	-7495
yw	-7496
za	-7497
zi	-7498
zl	-7499
zo	-7500
zu	-7501
▁0	-7502
▁q	-7503
agl	-7504
aia	-7505
aic	-7506
ais	-7507
ait	-7508
alf	-7509
ali	-7510
alk	-7511
alu	-7512
aos	-7513
arc	-7514
ari	-7515
aro	-7516
asn	-7517
ata	-7518
atc	-7519
ati	-7520
atu	-7521
aus	-7522
ayb	-7523
azz	-7524
bin	-7525
bor	-7526
bou	-7527
bre	-7528
cal	-7529
cas	-7530
cay	-7531
ceb	-7532
cid	-7533
cin	-7534
cis	-7535
cit	-7536
ckg	-7537
cot	-7538
cou	-7539
cow	-7540
cti	-7541
ctr	-7542
cts	-7543
dam	-7544
der	-7545
din	-7546
dou	-7547
dow	-7548
dre	-7549
dul	-7550
ean	-7551
eas	-7552
ect	-7553
edi	-7554
ege	-7555
ein	-7556
ell	-7557
eou	-7558
eow	-7559
era	-7560
ero	-7561
erw	-7562
esc	-7563
eso	-7564
eta	-7565
eth	-7566
eti	-7567
fer	-7568
fid	-7569
fin	-7570
fou	-7571
fre	-7572
geb	-7573
ggl	-7574
ghb	-7575
ghe	-7576
gou	-7577
gra	-7578
gul	-7579
gus	-7580
hat	-7581
hhh	-7582
hie	-7583
hin	-7584
hou	-7585
hre	-7586
ich	-7587
icl	-7588
igg	-7589
iin	-7590
ilm	-7591
ils	-7592
inl	-7593
inu	-7594
iou	-7595
isl	-7596
iti	-7597
jan	-7598
jer	-7599
bow	-7600
eat	-7601
erh	-7602
iqu	-7603
isf	-7604
jay	-7605
jou	-7606
kar	-7607
kay	-7608
keu	-7609
kis	-7610
kon	-7611
kou	-7612
lat	-7613
lde	-7614
lig	-7615
lin	-7616
lld	-7617
llu	-7618
lou	-7619
low	-7620
lre	-7621
lro	-7622
lry	-7623
mal	-7624
mel	-7625
mes	-7626
mic	-7627
mil	-7628
mis	-7629
mit	-7630
mor	-7631
mou	-7632
mut	-7633
nat	-7634
nch	-7635
nco	-7636
ndl	-7637
ndo	-7638
ndw	-7639
nin	-7640
nke	-7641
nme	-7642
nol	-7643
nou	-7644
now	-7645
noy	-7646
nre	-7647
nth	-7648
nts	-7649
oad	-7650
oar	-7651
oat	-7652
odn	-7653
odw	-7654
ogs	-7655
oin	-7656
olf	-7657
oll	-7658
olu	-7659
omm	-7660
ona	-7661
onn	-7662
ony	-7663
oos	-7664
ora	-7665
orb	-7666
orc	-7667
ori	-7668
orl	-7669
ost	-7670
otd	-7671
oub	-7672
ouc	-7673
oui	-7674
oun	-7675
owd	-7676
owe	-7677
owi	-7678
owo	-7679
oye	-7680
pal	-7681
pat	-7682
pay	-7683
pec	-7684
pic	-7685
pis	-7686
pit	-7687
pon	-7688
pot	-7689
pou	-7690
pow	-7691
ppa	-7692
ppo	-7693
ppu	-7694
pre	-7695
pri	-7696
pse	-7697
pul	-7698
qui	-7699
arb	-7700
atb	-7701
atf	-7702
atl	-7703
atm	-7704
atr	-7705
bot	-7706
cat	-7707
dat	-7708
eke	-7709
enk	-7710
eol	-7711
fat	-7712
kat	-7713
lea	-7714
lla	-7715
lli	-7716
llt	-7717
lus	-7718
mem	-7719
ois	-7720
pro	-7721
rad	-7722
rag	-7723
rai	-7724
rav	-7725
raz	-7726
rea	-7727
reb	-7728
rec	-7729
ref	-7730
reg	-7731
rei	-7732
rej	-7733
rek	-7734
rel	-7735
rem	-7736
reo	-7737
rep	-7738
req	-7739
rer	-7740
rev	-7741
rez	-7742
rgh	-7743
rim	-7744
rin	-7745
rip	-7746
riu	-7747
rly	-7748
roc	-7749
roj	-7750
roo	-7751
ros	-7752
rou	-7753
roz	-7754
rre	-7755
rri	-7756
ruc	-7757
rve	-7758
sar	-7759
sat	-7760
seu	-7761
sha	-7762
sia	-7763
sin	-7764
sit	-7765
sly	-7766
sme	-7767
sod	-7768
sou	-7769
sow	-7770
stl	-7771
sts	-7772
stu	-7773
sum	-7774
sun	-7775
tan	-7776
tat	-7777
tay	-7778
tch	-7779
thn	-7780
ths	-7781
thy	-7782
tin	-7783
tme	-7784
tou	-7785
tow	-7786
tre	-7787
try	-7788
tst	-7789
tun	-7790
uat	-7791
ube	-7792
uch	-7793
uct	-7794
uen	-7795
uet	-7796
uff	-7797
uge	-7798
url	-7799
aya	-7800
ayc	-7801
aye	-7802
ayl	-7803
ayo	-7804
dro	-7805
dve	-7806
ede	-7807
erd	-7808
ett	-7809
eve	-7810
hme	-7811
icu	-7812
itn	-7813
lve	-7814
meo	-7815
non	-7816
nve	-7817
ogy	-7818
orr	-7819
por	-7820
ray	-7821
ryb	-7822
sty	-7823
tty	-7824
usp	-7825
ute	-7826
utr	-7827
utt	-7828
vat	-7829
veg	-7830
veh	-7831
vem	-7832
vit	-7833
vou	-7834
wif	-7835
wim	-7836
win	-7837
wou	-7838
wow	-7839
wre	-7840
xes	-7841
xic	-7842
xin	-7843
yan	-7844
ycl	-7845
yer	-7846
yin	-7847
yon	-7848
yot	-7849
yra	-7850
yru	-7851
yst	-7852
ywo	-7853
zat	-7854
zin	-7855
zon	-7856
▁aa	-7857
▁ak	-7858
▁aq	-7859
▁au	-7860
▁bb	-7861
▁ci	-7862
▁cp	-7863
▁cs	-7864
▁db	-7865
▁dh	-7866
▁dk	-7867
▁dm	-7868
▁du	-7869
▁dw	-7870
▁eg	-7871
▁ei	-7872
▁fy	-7873
▁gh	-7874
▁gn	-7875
▁gy	-7876
▁hb	-7877
▁hg	-7878
▁ia	-7879
▁ib	-7880
▁il	-7881
▁im	-7882
▁io	-7883
▁ip	-7884
▁ir	-7885
▁ji	-7886
▁ky	-7887
▁mb	-7888
▁nb	-7889
▁nf	-7890
▁ni	-7891
▁od	-7892
▁oo	-7893
▁op	-7894
▁ot	-7895
▁pf	-7896
▁pi	-7897
▁pn	-7898
▁ps	-7899
aor	-7900
asa	-7901
asu	-7902
bes	-7903
cor	-7904
cta	-7905
eor	-7906
hab	-7907
ilg	-7908
lit	-7909
oor	-7910
org	-7911
orh	-7912
orw	-7913
ply	-7914
raw	-7915
rst	-7916
sor	-7917
sti	-7918
stm	-7919
uan	-7920
uis	-7921
vie	-7922
wed	-7923
wor	-7924
zza	-7925
▁bm	-7926
▁cc	-7927
▁cn	-7928
▁nu	-7929
▁sq	-7930
▁tu	-7931
▁vn	-7932
▁wi	-7933
▁wp	-7934
▁wu	-7935
▁wy	-7936
▁yi	-7937
acar	-7938
aded	-7939
agic	-7940
aica	-7941
aily	-7942
akeu	-7943
allo	-7944
alou	-7945
alty	-7946
amen	-7947
anad	-7948
andi	-7949
angu	-7950
anis	-7951
anit	-7952
anke	-7953
anth	-7954
arac	-7955
arag	-7956
arao	-7957
aria	-7958
arne	-7959
arol	-7960
arri	-7961
arse	-7962
arve	-7963
asan	-7964
asin	-7965
aske	-7966
asse	-7967
asts	-7968
asyg	-7969
atal	-7970
atie	-7971
atur	-7972
augh	-7973
aust	-7974
aves	-7975
ayed	-7976
ayer	-7977
bmar	-7978
bout	-7979
cach	-7980
came	-7981
ccur	-7982
ched	-7983
chie	-7984
choo	-7985
cise	-7986
cite	-7987
coot	-7988
cord	-7989
crat	-7990
dent	-7991
dest	-7992
dies	-7993
dogs	-7994
east	-7995
eday	-7996
eine	-7997
eing	-7998
ello	-7999
adl	-8000
arp	-8001
bil	-8002
bst	-8003
bts	-8004
eer	-8005
eph	-8006
erf	-8007
esu	-8008
gst	-8009
hle	-8010
hot	-8011
kst	-8012
nan	-8013
ndc	-8014
nde	-8015
ndi	-8016
ndm	-8017
ndp	-8018
ndr	-8019
nst	-8020
ott	-8021
ppi	-8022
raf	-8023
stc	-8024
sto	-8025
str	-8026
uic	-8027
und	-8028
uot	-8029
▁oa	-8030
▁oc	-8031
▁oi	-8032
▁oy	-8033
▁ug	-8034
atti	-8035
ccas	-8036
days	-8037
enns	-8038
ents	-8039
entu	-8040
eper	-8041
erdy	-8042
ergy	-8043
eric	-8044
erle	-8045
erma	-8046
erna	-8047
eron	-8048
erou	-8049
erra	-8050
erse	-8051
erve	-8052
esec	-8053
etab	-8054
eted	-8055
etly	-8056
fest	-8057
ffal	-8058
ffed	-8059
fice	-8060
fing	-8061
gart	-8062
gend	-8063
gher	-8064
ghtf	-8065
ghtn	-8066
ghts	-8067
ghty	-8068
gone	-8069
gory	-8070
gram	-8071
hake	-8072
hall	-8073
hday	-8074
herd	-8075
hmen	-8076
hore	-8077
iced	-8078
icia	-8079
icle	-8080
icor	-8081
iday	-8082
ifor	-8083
iing	-8084
iker	-8085
ilen	-8086
illo	-8087
imal	-8088
immy	-8089
inar	-8090
inat	-8091
ingl	-8092
ingt	-8093
inin	-8094
inou	-8095
inst	-8096
irly	-8097
irst	-8098
ised	-8099
ana	-8100
anc	-8101
anf	-8102
ani	-8103
ano	-8104
bar	-8105
bet	-8106
bly	-8107
chm	-8108
cho	-8109
erb	-8110
eri	-8111
erl	-8112
erp	-8113
eru	-8114
esk	-8115
han	-8116
kan	-8117
kep	-8118
lan	-8119
lev	-8120
lse	-8121
mac	-8122
nti	-8123
oan	-8124
san	-8125
ser	-8126
sse	-8127
unr	-8128
var	-8129
wer	-8130
xas	-8131
xer	-8132
ych	-8133
zar	-8134
zee	-8135
zer	-8136
atro	-8137
erat	-8138
erin	-8139
erre	-8140
erst	-8141
igur	-8142
iner	-8143
iser	-8144
isit	-8145
iske	-8146
isne	-8147
ists	-8148
itan	-8149
itat	-8150
itch	-8151
itic	-8152
itre	-8153
ivit	-8154
ivor	-8155
kate	-8156
kean	-8157
keep	-8158
keou	-8159
kill	-8160
kout	-8161
late	-8162
leas	-8163
leme	-8164
lers	-8165
lfri	-8166
lics	-8167
lind	-8168
lipk	-8169
live	-8170
llar	-8171
llec	-8172
llin	-8173
lloo	-8174
llou	-8175
lvan	-8176
male	-8177
mant	-8178
mend	-8179
meon	-8180
merg	-8181
mith	-8182
mmar	-8183
mmun	-8184
mose	-8185
mpat	-8186
mpla	-8187
mple	-8188
mpre	-8189
mpus	-8190
nake	-8191
ndar	-8192
ndch	-8193
ndia	-8194
ndic	-8195
ndle	-8196
ndou	-8197
ndra	-8198
ndre	-8199
anu	-8200
anz	-8201
bod	-8202
dan	-8203
eee	-8204
eit	-8205
eme	-8206
fan	-8207
fra	-8208
ghl	-8209
hib	-8210
itc	-8211
ito	-8212
itu	-8213
kit	-8214
lis	-8215
lod	-8216
meb	-8217
mew	-8218
mot	-8219
nit	-8220
odb	-8221
odf	-8222
odi	-8223
odl	-8224
odo	-8225
ods	-8226
ono	-8227
rme	-8228
rod	-8229
rub	-8230
tis	-8231
wes	-8232
xit	-8233
zzl	-8234
aner	-8235
anin	-8236
atul	-8237
fter	-8238
inan	-8239
init	-8240
itle	-8241
iver	-8242
keet	-8243
ndit	-8244
ners	-8245
nger	-8246
nore	-8247
nown	-8248
nste	-8249
ntar	-8250
ntow	-8251
ocal	-8252
oder	-8253
odie	-8254
odil	-8255
oice	-8256
oing	-8257
olar	-8258
olor	-8259
olul	-8260
olun	-8261
olut	-8262
olve	-8263
oned	-8264
ongr	-8265
onit	-8266
onke	-8267
onme	-8268
onny	-8269
onve	-8270
ooch	-8271
ooed	-8272
oons	-8273
ople	-8274
oran	-8275
orat	-8276
orge	-8277
orit	-8278
orms	-8279
orns	-8280
orre	-8281
orry	-8282
orst	-8283
orve	-8284
oser	-8285
oset	-8286
otic	-8287
otos	-8288
ouch	-8289
oure	-8290
outd	-8291
outg	-8292
owen	-8293
owor	-8294
owre	-8295
oyed	-8296
pens	-8297
perw	-8298
ping	-8299
amo	-8300
arr	-8301
chn	-8302
cke	-8303
coo	-8304
ear	-8305
ees	-8306
ele	-8307
git	-8308
iar	-8309
isa	-8310
itl	-8311
kev	-8312
kew	-8313
lke	-8314
mpi	-8315
nal	-8316
nea	-8317
oot	-8318
rar	-8319
rke	-8320
ryt	-8321
ske	-8322
tar	-8323
tic	-8324
too	-8325
war	-8326
wit	-8327
▁ea	-8328
▁ze	-8329
cobb	-8330
esit	-8331
gist	-8332
irth	-8333
kell	-8334
mpen	-8335
mpor	-8336
orho	-8337
orke	-8338
ours	-8339
pout	-8340
ppen	-8341
ppor	-8342
ppos	-8343
ptim	-8344
rall	-8345
ramm	-8346
rant	-8347
raor	-8348
rapy	-8349
rary	-8350
rave	-8351
rday	-8352
read	-8353
reak	-8354
reat	-8355
reck	-8356
reel	-8357
reer	-8358
rees	-8359
rela	-8360
rend	-8361
rese	-8362
reve	-8363
rink	-8364
role	-8365
rome	-8366
romy	-8367
rone	-8368
rope	-8369
rose	-8370
rost	-8371
rowd	-8372
ruck	-8373
rumm	-8374
rump	-8375
rums	-8376
rust	-8377
ryth	-8378
sand	-8379
sary	-8380
sday	-8381
seme	-8382
spea	-8383
stal	-8384
stan	-8385
star	-8386
stat	-8387
sten	-8388
stes	-8389
stin	-8390
stod	-8391
stor	-8392
stra	-8393
stre	-8394
stro	-8395
tain	-8396
teer	-8397
tere	-8398
thou	-8399
arg	-8400
arv	-8401
asc	-8402
bad	-8403
cep	-8404
fur	-8405
gar	-8406
har	-8407
hri	-8408
isb	-8409
lon	-8410
lot	-8411
nia	-8412
nis	-8413
onc	-8414
onf	-8415
onj	-8416
ont	-8417
otb	-8418
otc	-8419
oti	-8420
oto	-8421
rot	-8422
▁eb	-8423
▁es	-8424
▁et	-8425
▁eu	-8426
amer	-8427
arat	-8428
arin	-8429
arit	-8430
arke	-8431
cout	-8432
eith	-8433
fres	-8434
hout	-8435
inly	-8436
irit	-8437
lade	-8438
ntal	-8439
ntle	-8440
orad	-8441
otat	-8442
otst	-8443
outf	-8444
outl	-8445
outs	-8446
outt	-8447
owar	-8448
phew	-8449
rats	-8450
rear	-8451
rout	-8452
tice	-8453
tiqu	-8454
trol	-8455
ture	-8456
uall	-8457
uate	-8458
udit	-8459
uent	-8460
uest	-8461
ulou	-8462
umid	-8463
ummy	-8464
unat	-8465
uner	-8466
unit	-8467
urin	-8468
urly	-8469
usic	-8470
usse	-8471
usta	-8472
uste	-8473
ustl	-8474
usto	-8475
ustr	-8476
utat	-8477
utes	-8478
vein	-8479
vela	-8480
vell	-8481
vels	-8482
veme	-8483
vera	-8484
veri	-8485
verr	-8486
vest	-8487
vite	-8488
vorc	-8489
wake	-8490
xiet	-8491
xing	-8492
yday	-8493
ying	-8494
zard	-8495
zing	-8496
▁aar	-8497
▁abi	-8498
▁abl	-8499
bys	-8500
cch	-8501
che	-8502
chh	-8503
chy	-8504
des	-8505
ech	-8506
edl	-8507
eop	-8508
esi	-8509
esm	-8510
esp	-8511
fes	-8512
ffs	-8513
ggh	-8514
ghs	-8515
hes	-8516
hil	-8517
nam	-8518
nes	-8519
nge	-8520
nta	-8521
och	-8522
oet	-8523
rch	-8524
rog	-8525
sch	-8526
ses	-8527
som	-8528
tro	-8529
ugh	-8530
una	-8531
urg	-8532
usc	-8533
anch	-8534
assa	-8535
chan	-8536
char	-8537
cher	-8538
chin	-8539
ckin	-8540
clip	-8541
eser	-8542
esme	-8543
eton	-8544
icit	-8545
ilms	-8546
inad	-8547
ittl	-8548
mmit	-8549
ntry	-8550
onst	-8551
orid	-8552
rech	-8553
rife	-8554
sbur	-8555
uite	-8556
zure	-8557
▁abs	-8558
▁ain	-8559
▁ala	-8560
▁alc	-8561
▁ald	-8562
▁alg	-8563
▁alm	-8564
▁alw	-8565
▁ama	-8566
▁ame	-8567
▁amo	-8568
▁ani	-8569
▁aqu	-8570
▁arg	-8571
▁ast	-8572
▁aun	-8573
▁ave	-8574
▁bac	-8575
▁bak	-8576
▁bal	-8577
▁bea	-8578
▁bef	-8579
▁beg	-8580
▁beh	-8581
▁ber	-8582
▁bes	-8583
▁bin	-8584
▁blu	-8585
▁bod	-8586
▁boo	-8587
▁bor	-8588
▁bos	-8589
▁bou	-8590
▁bru	-8591
▁bun	-8592
▁cer	-8593
▁chu	-8594
▁cia	-8595
▁cin	-8596
▁cit	-8597
▁civ	-8598
▁clo	-8599
bis	-8600
bro	-8601
cen	-8602
eci	-8603
eem	-8604
enc	-8605
ene	-8606
eni	-8607
fis	-8608
gic	-8609
ici	-8610
icn	-8611
icr	-8612
isg	-8613
isi	-8614
isk	-8615
isn	-8616
isp	-8617
kic	-8618
lth	-8619
oic	-8620
roa	-8621
rob	-8622
rof	-8623
roy	-8624
sic	-8625
tri	-8626
vic	-8627
wis	-8628
aint	-8629
alke	-8630
aten	-8631
atic	-8632
atis	-8633
atol	-8634
elry	-8635
ened	-8636
ghly	-8637
icat	-8638
icin	-8639
icke	-8640
irlf	-8641
isin	-8642
isod	-8643
itis	-8644
lane	-8645
llen	-8646
llic	-8647
mall	-8648
ogiz	-8649
onic	-8650
ouis	-8651
part	-8652
pion	-8653
rets	-8654
roch	-8655
roke	-8656
stic	-8657
vall	-8658
vies	-8659
▁bic	-8660
▁bis	-8661
▁cri	-8662
▁dat	-8663
▁dee	-8664
▁der	-8665
▁dir	-8666
▁dob	-8667
▁doc	-8668
▁doe	-8669
▁doi	-8670
▁dok	-8671
▁dom	-8672
▁dou	-8673
▁dow	-8674
▁doz	-8675
▁dur	-8676
▁egg	-8677
▁eit	-8678
▁enc	-8679
▁fac	-8680
▁fib	-8681
▁fic	-8682
▁fid	-8683
▁fis	-8684
▁fou	-8685
▁gan	-8686
▁gar	-8687
▁gat	-8688
▁gho	-8689
▁gis	-8690
▁goa	-8691
▁goe	-8692
▁gog	-8693
▁gol	-8694
▁gon	-8695
▁gor	-8696
▁gos	-8697
▁gou	-8698
▁gov	-8699
aff	-8700
dig	-8701
eed	-8702
eet	-8703
eng	-8704
enj	-8705
eno	-8706
epp	-8707
ete	-8708
etf	-8709
etl	-8710
eto	-8711
etr	-8712
fen	-8713
gal	-8714
gen	-8715
had	-8716
hen	-8717
het	-8718
mid	-8719
net	-8720
nut	-8721
ols	-8722
pet	-8723
put	-8724
raj	-8725
riv	-8726
rse	-8727
sea	-8728
seb	-8729
seh	-8730
sen	-8731
sew	-8732
▁vi	-8733
ener	-8734
enes	-8735
erfe	-8736
esse	-8737
etar	-8738
eter	-8739
etes	-8740
etic	-8741
etis	-8742
ghet	-8743
ghti	-8744
ghtl	-8745
ghtt	-8746
gree	-8747
inet	-8748
isse	-8749
itud	-8750
llet	-8751
orse	-8752
rare	-8753
sear	-8754
sest	-8755
stle	-8756
stly	-8757
uild	-8758
▁abo	-8759
▁den	-8760
▁gun	-8761
▁hab	-8762
▁hac	-8763
▁hal	-8764
▁han	-8765
▁hap	-8766
▁hau	-8767
▁hav	-8768
▁haz	-8769
▁hec	-8770
▁hee	-8771
▁hei	-8772
▁hen	-8773
▁hig	-8774
▁hik	-8775
▁hil	-8776
▁hin	-8777
▁hir	-8778
▁hon	-8779
▁ina	-8780
▁inc	-8781
▁inf	-8782
▁iow	-8783
▁isa	-8784
▁isl	-8785
▁iss	-8786
▁ita	-8787
▁jar	-8788
▁jes	-8789
▁jor	-8790
▁jul	-8791
▁kan	-8792
▁kne	-8793
▁kno	-8794
▁kon	-8795
▁lad	-8796
▁lan	-8797
▁lat	-8798
▁laz	-8799
adu	-8800
agg	-8801
bed	-8802
bie	-8803
cad	-8804
ctu	-8805
dse	-8806
edd	-8807
edo	-8808
eds	-8809
edu	-8810
fed	-8811
has	-8812
ixt	-8813
lad	-8814
oed	-8815
oom	-8816
opc	-8817
sep	-8818
thi	-8819
uck	-8820
ued	-8821
uts	-8822
vad	-8823
xop	-8824
zed	-8825
ades	-8826
adon	-8827
alle	-8828
amed	-8829
amis	-8830
aned	-8831
arle	-8832
auty	-8833
ckie	-8834
eded	-8835
edic	-8836
edit	-8837
etah	-8838
etal	-8839
lled	-8840
load	-8841
lyer	-8842
nded	-8843
oded	-8844
oted	-8845
owed	-8846
pair	-8847
peri	-8848
phal	-8849
ppie	-8850
pple	-8851
road	-8852
sell	-8853
sted	-8854
▁lem	-8855
▁ler	-8856
▁les	-8857
▁lia	-8858
▁lib	-8859
▁lif	-8860
▁lig	-8861
▁lin	-8862
▁lio	-8863
▁lip	-8864
▁lis	-8865
▁lit	-8866
▁liv	-8867
▁loa	-8868
▁lon	-8869
▁lor	-8870
▁lov	-8871
▁maj	-8872
▁mas	-8873
▁mat	-8874
▁mcd	-8875
▁mem	-8876
▁mes	-8877
▁mit	-8878
▁moh	-8879
▁moo	-8880
▁mop	-8881
▁mot	-8882
▁mou	-8883
▁myo	-8884
▁myr	-8885
▁mys	-8886
▁nan	-8887
▁neu	-8888
▁nin	-8889
▁nor	-8890
▁oft	-8891
▁ohi	-8892
▁oly	-8893
▁ooo	-8894
▁oth	-8895
▁ove	-8896
▁pey	-8897
▁pho	-8898
▁pin	-8899
alc	-8900
alm	-8901
fal	-8902
fli	-8903
hal	-8904
kal	-8905
mpk	-8906
oep	-8907
pef	-8908
phe	-8909
ryw	-8910
tal	-8911
upp	-8912
usb	-8913
val	-8914
xpe	-8915
▁uf	-8916
adem	-8917
agin	-8918
alad	-8919
alar	-8920
alen	-8921
aler	-8922
alit	-8923
alon	-8924
bber	-8925
blem	-8926
inal	-8927
onal	-8928
onio	-8929
oral	-8930
stry	-8931
tles	-8932
uice	-8933
▁ang	-8934
▁ans	-8935
▁ant	-8936
▁chr	-8937
▁coa	-8938
▁cob	-8939
▁coc	-8940
▁cof	-8941
▁dry	-8942
▁kou	-8943
▁mal	-8944
▁mea	-8945
▁meg	-8946
▁mel	-8947
▁onc	-8948
▁onl	-8949
▁pit	-8950
▁pom	-8951
▁por	-8952
▁pou	-8953
▁pow	-8954
▁pra	-8955
▁pub	-8956
▁pun	-8957
▁qui	-8958
▁rad	-8959
▁ras	-8960
▁rea	-8961
▁reb	-8962
▁rej	-8963
▁ren	-8964
▁res	-8965
▁rev	-8966
▁rew	-8967
▁ric	-8968
▁roa	-8969
▁roy	-8970
▁rub	-8971
▁rus	-8972
▁rut	-8973
▁sas	-8974
▁ses	-8975
▁shi	-8976
▁sla	-8977
▁sme	-8978
▁soc	-8979
▁sod	-8980
▁sof	-8981
▁soo	-8982
▁sou	-8983
▁sow	-8984
▁spl	-8985
▁sti	-8986
▁suc	-8987
▁sum	-8988
▁tat	-8989
▁tau	-8990
▁tax	-8991
▁tha	-8992
▁thi	-8993
▁thu	-8994
▁thy	-8995
▁tin	-8996
▁tip	-8997
▁toa	-8998
▁tod	-8999
asi	-9000
ask	-9001
asm	-9002
asp	-9003
fri	-9004
gas	-9005
iri	-9006
lum	-9007
nab	-9008
rib	-9009
rie	-9010
rif	-9011
sas	-9012
tas	-9013
upc	-9014
uri	-9015
xce	-9016
alla	-9017
alls	-9018
asic	-9019
avor	-9020
bway	-9021
call	-9022
erri	-9023
etie	-9024
iall	-9025
ifey	-9026
igat	-9027
ipul	-9028
jang	-9029
name	-9030
ndri	-9031
orri	-9032
rapp	-9033
refo	-9034
rich	-9035
rill	-9036
riou	-9037
rive	-9038
tall	-9039
uess	-9040
ushi	-9041
▁alp	-9042
▁bri	-9043
▁fas	-9044
▁joj	-9045
▁mun	-9046
▁nop	-9047
▁oni	-9048
▁ont	-9049
▁tig	-9050
▁tof	-9051
▁tog	-9052
▁tor	-9053
▁tos	-9054
▁tys	-9055
▁und	-9056
▁unl	-9057
▁unt	-9058
▁upc	-9059
▁upd	-9060
▁upp	-9061
▁val	-9062
▁veh	-9063
▁vid	-9064
▁vin	-9065
▁wad	-9066
▁wah	-9067
▁wea	-9068
▁wed	-9069
▁wei	-9070
▁whe	-9071
▁wif	-9072
▁wis	-9073
▁wou	-9074
▁wus	-9075
▁yar	-9076
▁yod	-9077
▁yor	-9078
abled	-9079
achio	-9080
adame	-9081
adylo	-9082
agine	-9083
aight	-9084
ainst	-9085
alled	-9086
aller	-9087
allet	-9088
allic	-9089
althi	-9090
angar	-9091
angin	-9092
angos	-9093
anill	-9094
aning	-9095
anist	-9096
ankee	-9097
antas	-9098
antly	-9099
ams	-9100
cef	-9101
cli	-9102
eld	-9103
fle	-9104
gle	-9105
irr	-9106
kir	-9107
ldh	-9108
lds	-9109
leb	-9110
lec	-9111
lee	-9112
lem	-9113
lep	-9114
old	-9115
ole	-9116
olt	-9117
rle	-9118
▁ka	-9119
▁ko	-9120
▁ku	-9121
aith	-9122
arkn	-9123
cien	-9124
ersh	-9125
fers	-9126
geou	-9127
hopp	-9128
inut	-9129
ithf	-9130
lder	-9131
ldre	-9132
lead	-9133
lean	-9134
lect	-9135
leve	-9136
llti	-9137
ongs	-9138
raci	-9139
reig	-9140
sist	-9141
terf	-9142
ters	-9143
tter	-9144
very	-9145
yers	-9146
▁ale	-9147
▁asp	-9148
▁ble	-9149
▁feb	-9150
▁kal	-9151
▁kin	-9152
▁shh	-9153
▁tir	-9154
antri	-9155
antry	-9156
arame	-9157
ardbo	-9158
ardon	-9159
arium	-9160
arket	-9161
arlie	-9162
arted	-9163
artme	-9164
asper	-9165
assho	-9166
atchy	-9167
athon	-9168
aving	-9169
aying	-9170
azing	-9171
bbies	-9172
beque	-9173
berri	-9174
blade	-9175
bsess	-9176
burgh	-9177
cense	-9178
certs	-9179
chill	-9180
ching	-9181
cohol	-9182
count	-9183
crets	-9184
cribe	-9185
ctice	-9186
ctric	-9187
dding	-9188
dings	-9189
ebrow	-9190
edias	-9191
edict	-9192
eight	-9193
endly	-9194
ening	-9195
ented	-9196
entle	-9197
epher	-9198
erall	-9199
aid	-9200
aul	-9201
but	-9202
ckl	-9203
cry	-9204
epo	-9205
idd	-9206
idn	-9207
idw	-9208
irp	-9209
lut	-9210
oid	-9211
opp	-9212
phy	-9213
pid	-9214
rry	-9215
rut	-9216
rys	-9217
shi	-9218
sid	-9219
sie	-9220
tra	-9221
uti	-9222
uto	-9223
utu	-9224
uty	-9225
zum	-9226
addy	-9227
alut	-9228
arry	-9229
ccup	-9230
erry	-9231
hons	-9232
iden	-9233
itty	-9234
mitt	-9235
mpul	-9236
nard	-9237
ndid	-9238
orts	-9239
otog	-9240
rain	-9241
rais	-9242
rand	-9243
rank	-9244
ruit	-9245
ryon	-9246
tist	-9247
urit	-9248
utan	-9249
uter	-9250
utis	-9251
▁ara	-9252
▁bry	-9253
▁fai	-9254
▁hos	-9255
▁jak	-9256
▁kab	-9257
▁lun	-9258
▁sid	-9259
▁tid	-9260
▁wid	-9261
aming	-9262
ardig	-9263
ercis	-9264
erday	-9265
erena	-9266
erent	-9267
ergic	-9268
erher	-9269
erica	-9270
eries	-9271
ering	-9272
erman	-9273
error	-9274
ersey	-9275
esday	-9276
esman	-9277
esser	-9278
etall	-9279
etest	-9280
eting	-9281
geant	-9282
ghing	-9283
ghten	-9284
ghter	-9285
gning	-9286
gular	-9287
hingt	-9288
hosts	-9289
ially	-9290
ianis	-9291
icall	-9292
icapp	-9293
icing	-9294
icket	-9295
ickin	-9296
ieber	-9297
ieces	-9298
ietly	-9299
boo	-9300
elf	-9301
hus	-9302
lfl	-9303
loo	-9304
lud	-9305
lun	-9306
mun	-9307
pus	-9308
rab	-9309
rah	-9310
rau	-9311
rlf	-9312
run	-9313
sso	-9314
thp	-9315
unf	-9316
uni	-9317
usk	-9318
usu	-9319
usy	-9320
wly	-9321
xbo	-9322
zoo	-9323
abil	-9324
arth	-9325
erus	-9326
inus	-9327
lfis	-9328
lves	-9329
opar	-9330
opul	-9331
ouls	-9332
peci	-9333
rait	-9334
rake	-9335
risb	-9336
ucky	-9337
unes	-9338
unic	-9339
usin	-9340
▁chi	-9341
▁fie	-9342
▁hob	-9343
▁hoc	-9344
▁hom	-9345
▁hoo	-9346
▁ira	-9347
▁jun	-9348
▁mak	-9349
▁nei	-9350
▁nem	-9351
▁nep	-9352
▁nev	-9353
▁nex	-9354
▁pla	-9355
▁rou	-9356
▁tif	-9357
▁yoo	-9358
amage	-9359
igars	-9360
ightf	-9361
ighti	-9362
ightl	-9363
ightt	-9364
ighty	-9365
iguel	-9366
igure	-9367
iking	-9368
iller	-9369
illin	-9370
ilman	-9371
ilots	-9372
imate	-9373
inall	-9374
indow	-9375
ingin	-9376
ingle	-9377
inion	-9378
inter	-9379
ioned	-9380
iring	-9381
irvan	-9382
ished	-9383
isher	-9384
ishes	-9385
iskey	-9386
ister	-9387
iteme	-9388
itics	-9389
itish	-9390
itles	-9391
itres	-9392
itter	-9393
itual	-9394
ivery	-9395
iving	-9396
izard	-9397
kelet	-9398
keout	-9399
cki	-9400
ckw	-9401
dly	-9402
eck	-9403
hly	-9404
ieb	-9405
iob	-9406
kie	-9407
kly	-9408
lym	-9409
mph	-9410
oir	-9411
tly	-9412
▁rp	-9413
▁ru	-9414
adly	-9415
aine	-9416
arly	-9417
ateb	-9418
auke	-9419
bish	-9420
ciou	-9421
cter	-9422
enny	-9423
eren	-9424
here	-9425
hone	-9426
icag	-9427
isha	-9428
lter	-9429
mely	-9430
ndly	-9431
owly	-9432
pice	-9433
rack	-9434
rely	-9435
rish	-9436
rock	-9437
terb	-9438
urse	-9439
vann	-9440
vely	-9441
▁cli	-9442
▁dud	-9443
▁mul	-9444
▁plu	-9445
▁rat	-9446
▁ris	-9447
▁tel	-9448
▁tem	-9449
▁tik	-9450
▁ven	-9451
cally	-9452
enter	-9453
etish	-9454
etter	-9455
itely	-9456
lanta	-9457
laxed	-9458
ldest	-9459
lfing	-9460
lfish	-9461
light	-9462
lldog	-9463
llect	-9464
llent	-9465
llout	-9466
lower	-9467
loyee	-9468
lying	-9469
mally	-9470
meday	-9471
meran	-9472
mmitt	-9473
mooth	-9474
mpkin	-9475
mpshi	-9476
nacks	-9477
nancy	-9478
ndame	-9479
ndary	-9480
ndays	-9481
nders	-9482
ndian	-9483
ndica	-9484
nding	-9485
nings	-9486
nning	-9487
ntain	-9488
ntion	-9489
ntist	-9490
odest	-9491
odybu	-9492
ogist	-9493
oking	-9494
olate	-9495
olice	-9496
onall	-9497
oncer	-9498
oning	-9499
air	-9500
irc	-9501
irg	-9502
irl	-9503
irv	-9504
lir	-9505
nif	-9506
ntz	-9507
vir	-9508
xth	-9509
adam	-9510
anty	-9511
arla	-9512
arto	-9513
cean	-9514
dere	-9515
dice	-9516
eant	-9517
eers	-9518
ende	-9519
erem	-9520
eres	-9521
gion	-9522
iant	-9523
irat	-9524
kent	-9525
lice	-9526
nant	-9527
nist	-9528
ntly	-9529
ntri	-9530
onth	-9531
ooth	-9532
oyme	-9533
rice	-9534
sses	-9535
tant	-9536
tend	-9537
vill	-9538
▁ali	-9539
▁als	-9540
▁pac	-9541
anted	-9542
artic	-9543
asant	-9544
ennis	-9545
fting	-9546
ggets	-9547
istre	-9548
ndere	-9549
nolog	-9550
ntant	-9551
oples	-9552
orite	-9553
orkel	-9554
osest	-9555
oting	-9556
otion	-9557
otter	-9558
oured	-9559
ourts	-9560
outin	-9561
owere	-9562
owers	-9563
owing	-9564
owork	-9565
pairs	-9566
pperf	-9567
ppies	-9568
press	-9569
pster	-9570
pting	-9571
rally	-9572
rance	-9573
ransg	-9574
ransl	-9575
ratch	-9576
reeab	-9577
reign	-9578
riday	-9579
right	-9580
ristm	-9581
rived	-9582
river	-9583
rives	-9584
rning	-9585
rocer	-9586
roman	-9587
roome	-9588
rover	-9589
rself	-9590
rting	-9591
ryday	-9592
rying	-9593
seums	-9594
sking	-9595
spira	-9596
stant	-9597
state	-9598
sters	-9599
aur	-9600
eur	-9601
fee	-9602
gur	-9603
ipp	-9604
nee	-9605
oya	-9606
oyf	-9607
oys	-9608
ppl	-9609
pur	-9610
qua	-9611
rty	-9612
rue	-9613
tur	-9614
ucy	-9615
urp	-9616
urr	-9617
vol	-9618
ybo	-9619
yee	-9620
arty	-9621
ctre	-9622
erbl	-9623
hion	-9624
iona	-9625
onab	-9626
oyee	-9627
oyer	-9628
ppal	-9629
rect	-9630
ropp	-9631
tion	-9632
uddy	-9633
urgh	-9634
urre	-9635
urry	-9636
▁alb	-9637
▁alo	-9638
▁fee	-9639
▁gee	-9640
▁jee	-9641
▁kur	-9642
▁rur	-9643
▁spa	-9644
▁spi	-9645
▁spr	-9646
aland	-9647
anker	-9648
arake	-9649
eeing	-9650
endee	-9651
indse	-9652
ision	-9653
llion	-9654
ndles	-9655
oying	-9656
stake	-9657
stime	-9658
sting	-9659
stion	-9660
stric	-9661
tally	-9662
teers	-9663
teran	-9664
terin	-9665
thday	-9666
therw	-9667
thnic	-9668
tiree	-9669
tting	-9670
tuber	-9671
tying	-9672
udice	-9673
uding	-9674
umane	-9675
unate	-9676
unity	-9677
unter	-9678
urant	-9679
urple	-9680
ustan	-9681
usted	-9682
ustin	-9683
ustod	-9684
ustom	-9685
ustri	-9686
utant	-9687
uters	-9688
uties	-9689
utter	-9690
venth	-9691
verco	-9692
verse	-9693
verti	-9694
veter	-9695
vorit	-9696
wings	-9697
xious	-9698
xting	-9699
aks	-9700
cce	-9701
dol	-9702
ilk	-9703
lba	-9704
mpl	-9705
nac	-9706
olc	-9707
olk	-9708
pol	-9709
ssi	-9710
uce	-9711
ages	-9712
arks	-9713
atef	-9714
bers	-9715
bies	-9716
chol	-9717
hers	-9718
hies	-9719
illi	-9720
ilot	-9721
ioni	-9722
itco	-9723
kans	-9724
kies	-9725
mate	-9726
mies	-9727
nate	-9728
nies	-9729
oler	-9730
olin	-9731
olit	-9732
once	-9733
ourn	-9734
race	-9735
rash	-9736
rate	-9737
reep	-9738
ties	-9739
▁aff	-9740
▁cau	-9741
▁enj	-9742
▁foa	-9743
▁foc	-9744
▁joh	-9745
▁noa	-9746
▁nom	-9747
▁unf	-9748
▁vit	-9749
aners	-9750
arate	-9751
atest	-9752
aukes	-9753
cipes	-9754
ckers	-9755
icate	-9756
iners	-9757
irate	-9758
istry	-9759
lever	-9760
lican	-9761
lyers	-9762
ndies	-9763
onies	-9764
reate	-9765
rican	-9766
stian	-9767
still	-9768
vorce	-9769
yball	-9770
ysics	-9771
zards	-9772
▁acce	-9773
▁acry	-9774
▁actu	-9775
▁affe	-9776
▁afra	-9777
▁agre	-9778
▁airp	-9779
▁alab	-9780
▁alar	-9781
▁alas	-9782
▁	-9783
o	-9784
e	-9785
a	-9786
i	-9787
t	-9788
h	-9789
n	-9790
r	-9791
y	-9792
l	-9793
u	-9794
s	-9795
d	-9796
g	-9797
m	-9798
w	-9799
?	-9800
.	-9801
c	-9802
f	-9803
,	-9804
k	-9805
b	-9806
p	-9807
v	-9808
!	-9809
j	-9810
x	-9811
z	-9812
2	-9813
q	-9814
3	-9815
0	-9816
5	-9817
